<pad>	0
<unk>	0
<s>	0
</s>	0
我们	-0
▁这	-1
▁我	-2
一个	-3
▁我们	-4
他们	-5
可以	-6
▁但	-7
▁在	-8
这个	-9
▁你	-10
就是	-11
什么	-12
因为	-13
这些	-14
▁而	-15
如果	-16
▁所	-17
没有	-18
▁他们	-19
现在	-20
▁那	-21
▁它	-22
知道	-23
问题	-24
▁所以	-25
的人	-26
不是	-27
▁这是	-28
自己	-29
▁因为	-30
世界	-31
▁当	-32
▁但是	-33
非常	-34
开始	-35
这样	-36
▁他	-37
一些	-38
的时	-39
▁是	-40
我的	-41
需要	-42
▁如果	-43
看到	-44
可能	-45
然后	-46
▁有	-47
的是	-48
你们	-49
▁不	-50
--	-51
一种	-52
已经	-53
很多	-54
工作	-55
我们的	-56
人们	-57
东西	-58
▁然后	-59
▁并	-60
的事	-61
的时候	-62
▁“	-63
它们	-64
认为	-65
00	-66
▁也	-67
——	-68
▁就	-69
所有	-70
发现	-71
▁这些	-72
那些	-73
▁现在	-74
或者	-75
发生	-76
研究	-77
▁这个	-78
大的	-79
一样	-80
国家	-81
不同	-82
到了	-83
孩子	-84
如何	-85
生活	-86
。”	-87
其他	-88
重要	-89
还有	-90
的一	-91
▁和	-92
大家	-93
▁一	-94
地方	-95
你的	-96
起来	-97
美国	-98
通过	-99
▁对	-100
这是	-101
这种	-102
▁她	-103
改变	-104
都是	-105
好的	-106
告诉	-107
▁以	-108
部分	-109
能够	-110
设计	-111
方式	-112
任何	-113
▁从	-114
人的	-115
为什么	-116
中的	-117
▁让	-118
▁来	-119
使用	-120
关于	-121
人类	-122
只是	-123
这里	-124
故事	-125
系统	-126
▁而且	-127
▁一个	-128
不会	-129
事实	-130
怎么	-131
时间	-132
▁最	-133
进行	-134
应该	-135
一下	-136
希望	-137
技术	-138
觉得	-139
一起	-140
因此	-141
社会	-142
数据	-143
科学	-144
是一个	-145
必须	-146
来的	-147
上的	-148
来说	-149
成为	-150
他们的	-151
实际	-152
▁它们	-153
这样的	-154
自己的	-155
这一	-156
不能	-157
正在	-158
个人	-159
信息	-160
还是	-161
一次	-162
的事情	-163
到的	-164
▁我想	-165
▁因此	-166
创造	-167
方法	-168
样的	-169
生物	-170
▁并且	-171
今天	-172
真的	-173
▁比	-174
▁如果你	-175
我想	-176
的东西	-177
▁每	-178
▁或者	-179
喜欢	-180
公司	-181
完全	-182
发展	-183
做的	-184
存在	-185
新的	-186
谢谢	-187
▁那么	-188
同时	-189
甚至	-190
了一个	-191
20	-192
▁就是	-193
了一	-194
生命	-195
那个	-196
这么	-197
更多	-198
之后	-199
▁其	-200
▁大	-201
影响	-202
▁我的	-203
解决	-204
▁这就是	-205
事实上	-206
他的	-207
作为	-208
帮助	-209
实际上	-210
真正	-211
经济	-212
决定	-213
的问题	-214
情况	-215
为了	-216
▁第	-217
▁都	-218
选择	-219
城市	-220
结果	-221
,“	-222
了解	-223
简单	-224
:“	-225
也是	-226
意识	-227
机器	-228
有一个	-229
的地方	-230
▁还有	-231
实验	-232
过去	-233
如此	-234
大脑	-235
想法	-236
..	-237
▁你们	-238
得到	-239
不同的	-240
相信	-241
看看	-242
两个	-243
是在	-244
时候	-245
那里	-246
许多	-247
动物	-248
组织	-249
一直	-250
事情	-251
19	-252
仅仅	-253
照片	-254
过程	-255
环境	-256
▁以及	-257
之前	-258
整个	-259
政府	-260
性的	-261
只有	-262
感觉	-263
项目	-264
产生	-265
变得	-266
年前	-267
就会	-268
原因	-269
?”	-270
拥有	-271
不知道	-272
想象	-273
细胞	-274
▁的	-275
想要	-276
▁--	-277
方面	-278
10	-279
来自	-280
艺术	-281
地球	-282
之间	-283
下来	-284
的话	-285
于是	-286
朋友	-287
无法	-288
全球	-289
之一	-290
自然	-291
▁你可以	-292
▁或	-293
出来	-294
理解	-295
一点	-296
建筑	-297
er	-298
能力	-299
例子	-300
我在	-301
▁谢谢	-302
网络	-303
展示	-304
变化	-305
▁去	-306
找到	-307
提供	-308
教育	-309
▁可以	-310
里的	-311
变成	-312
那么	-313
它的	-314
学习	-315
▁用	-316
是什么	-317
运动	-318
▁比如	-319
▁人们	-320
▁好	-321
对于	-322
成功	-323
▁于是	-324
并不	-325
▁当然	-326
是个	-327
▁把	-328
200	-329
an	-330
关系	-331
学生	-332
行为	-333
基本	-334
▁事实上	-335
非洲	-336
音乐	-337
意思	-338
计算	-339
▁要	-340
有一	-341
▁这种	-342
▁我们的	-343
基因	-344
学家	-345
如果你	-346
的方式	-347
思考	-348
科技	-349
▁这样	-350
是一	-351
电脑	-352
学校	-353
经历	-354
▁那些	-355
美元	-356
▁会	-357
出现	-358
历史	-359
声音	-360
空间	-361
让我	-362
▁将	-363
安全	-364
意味	-365
女性	-366
意义	-367
▁就像	-368
控制	-369
身体	-370
▁没有	-371
游戏	-372
机会	-373
件事	-374
怎样	-375
的一个	-376
50	-377
有趣	-378
演讲	-379
的时间	-380
未来	-381
利用	-382
各种	-383
就像	-384
另一个	-385
建立	-386
令人	-387
以及	-388
▁很	-389
世纪	-390
让我们	-391
▁与	-392
特别	-393
意味着	-394
复杂	-395
完成	-396
最后	-397
我们可以	-398
其实	-399
印度	-400
是否	-401
健康	-402
所有的	-403
▁(	-404
其中	-405
在一起	-406
制造	-407
▁这里	-408
尝试	-409
感到	-410
文化	-411
有些	-412
确实	-413
多少	-414
有人	-415
▁我们可以	-416
医生	-417
当时	-418
主义	-419
保护	-420
说的	-421
重要的	-422
宇宙	-423
▁我认为	-424
做了	-425
参与	-426
年的	-427
▁♫	-428
意识到	-429
我们在	-430
把它	-431
进入	-432
▁正	-433
几个	-434
活动	-435
▁所以我	-436
合作	-437
目标	-438
神经	-439
语言	-440
▁即	-441
获得	-442
食物	-443
多数	-444
继续	-445
计划	-446
地区	-447
小时	-448
▁为什么	-449
中国	-450
将会	-451
注意	-452
电影	-453
另一	-454
▁通过	-455
接受	-456
你可以	-457
另外	-458
政治	-459
第一	-460
▁不过	-461
ar	-462
也许	-463
有的	-464
中心	-465
联系	-466
才能	-467
解释	-468
世界上	-469
家庭	-470
所以	-471
模式	-472
▁而是	-473
▁我在	-474
▁只	-475
更加	-476
努力	-477
叫做	-478
大学	-479
看起来	-480
▁这是一个	-481
作用	-482
市场	-483
疾病	-484
▁同时	-485
年轻	-486
小的	-487
▁但我	-488
▁到	-489
ED	-490
in	-491
几乎	-492
治疗	-493
然而	-494
重新	-495
价值	-496
工具	-497
三个	-498
000	-499
量的	-500
首先	-501
▁如果我们	-502
领域	-503
实现	-504
回到	-505
数字	-506
”。	-507
出了	-508
on	-509
▁接	-510
是我们	-511
我要	-512
现实	-513
▁非常	-514
生产	-515
里面	-516
十分	-517
▁然而	-518
处理	-519
死亡	-520
曾经	-521
社区	-522
看到的	-523
并不是	-524
讨论	-525
年代	-526
同样	-527
机器人	-528
包括	-529
反应	-530
就能	-531
答案	-532
30	-533
作品	-534
▁所以我们	-535
▁再	-536
▁被	-537
关注	-538
观察	-539
▁对于	-540
就可以	-541
TED	-542
挑战	-543
孩子们	-544
▁更	-545
感谢	-546
持续	-547
分享	-548
太阳	-549
都会	-550
过的	-551
▁还	-552
她的	-553
容易	-554
都有	-555
更多的	-556
一定	-557
▁你会	-558
是我	-559
自由	-560
产品	-561
百万	-562
▁最后	-563
▁也许	-564
▁当我	-565
分钟	-566
▁实际上	-567
相当	-568
▁能	-569
有点	-570
结构	-571
服务	-572
出的	-573
准备	-574
区域	-575
成的	-576
有了	-577
▁无	-578
认识	-579
视频	-580
超过	-581
不可	-582
在这里	-583
▁甚至	-584
制作	-585
在这	-586
▁像	-587
某种	-588
力量	-589
带来	-590
观众	-591
显示	-592
汽车	-593
色的	-594
▁为	-595
主要	-596
的故事	-597
行动	-598
▁让我们	-599
兴趣	-600
我说	-601
资源	-602
15	-603
唯一	-604
总是	-605
代表	-606
▁可	-607
根本	-608
的大	-609
直到	-610
▁当你	-611
程度	-612
那样	-613
明白	-614
模型	-615
巨大的	-616
战争	-617
去了	-618
支持	-619
真实	-620
发生了	-621
可能会	-622
这个问题	-623
考虑	-624
类似	-625
当然	-626
观点	-627
的方法	-628
增长	-629
寻找	-630
分子	-631
比较	-632
▁也就是	-633
精神	-634
不到	-635
越来	-636
理论	-637
发明	-638
病毒	-639
▁看	-640
女孩	-641
电话	-642
第二	-643
越来越	-644
自我	-645
科学家	-646
虽然	-647
▁我们在	-648
基础	-649
多的	-650
知识	-651
目前	-652
都在	-653
力的	-654
工程	-655
海洋	-656
是因为	-657
纽约	-658
能源	-659
不断	-660
成了	-661
化的	-662
一个人	-663
每个	-664
办法	-665
通常	-666
的小	-667
的人们	-668
上面	-669
结束	-670
尽管	-671
概念	-672
▁其实	-673
的工作	-674
▁关于	-675
▁使	-676
机构	-677
同样的	-678
很多人	-679
她们	-680
病人	-681
每个人	-682
但是	-683
听到	-684
▁S	-685
”,	-686
在一个	-687
以前	-688
▁我们需要	-689
有关	-690
最终	-691
投资	-692
▁所有	-693
并且	-694
母亲	-695
▁C	-696
身上	-697
记录	-698
做出	-699
愿意	-700
一切	-701
离开	-702
传统	-703
▁说	-704
哪里	-705
一位	-706
仅仅是	-707
▁如	-708
第一次	-709
计算机	-710
▁那就是	-711
材料	-712
第一个	-713
en	-714
测试	-715
百分	-716
做到	-717
手机	-718
记得	-719
▁不是	-720
▁其中	-721
清楚	-722
100	-723
别人	-724
大概	-725
媒体	-726
用的	-727
角度	-728
▁作为	-729
错误	-730
图片	-731
速度	-732
▁今天	-733
也不	-734
NA	-735
▁给	-736
受到	-737
▁为了	-738
医疗	-739
得不	-740
▁当我们	-741
移动	-742
名字	-743
物质	-744
关键	-745
充满	-746
就在	-747
世界的	-748
英国	-749
仍然	-750
男人	-751
▁他说	-752
实验室	-753
▁B	-754
定的	-755
▁由	-756
谈论	-757
一天	-758
当你	-759
有个	-760
回答	-761
导致	-762
这就是	-763
试图	-764
▁大家	-765
你会	-766
每天	-767
领导	-768
有很多	-769
女人	-770
有效	-771
le	-772
父母	-773
面对	-774
而言	-775
父亲	-776
证明	-777
大约	-778
应用	-779
正确	-780
飞行	-781
后来	-782
在这个	-783
的世界	-784
相关	-785
设备	-786
并没有	-787
等等	-788
电视	-789
管理	-790
保持	-791
很好	-792
数学	-793
大多数	-794
增加	-795
我不	-796
直接	-797
一样的	-798
我们所	-799
植物	-800
人口	-801
足够	-802
连接	-803
▁我不	-804
是如何	-805
▁"	-806
下的	-807
也会	-808
至少	-809
简单的	-810
看见	-811
电子	-812
做什么	-813
在我	-814
内容	-815
建造	-816
想到	-817
不可能	-818
了我	-819
交流	-820
12	-821
物种	-822
十年	-823
探索	-824
气候	-825
▁我说	-826
例如	-827
老师	-828
我认为	-829
具有	-830
而且	-831
真正的	-832
or	-833
共同	-834
我是	-835
更好	-836
本身	-837
你知道	-838
民主	-839
物理	-840
放在	-841
现象	-842
▁首先	-843
利亚	-844
达到	-845
随着	-846
18	-847
创新	-848
用来	-849
减少	-850
儿童	-851
时代	-852
方向	-853
的情况	-854
永远	-855
给你们	-856
让人	-857
▁而不是	-858
给我	-859
范围	-860
▁第二	-861
40	-862
也有	-863
到底	-864
功能	-865
互联	-866
药物	-867
企业	-868
团队	-869
看着	-870
表现	-871
的一部分	-872
。“	-873
▁当时	-874
之间的	-875
进化	-876
▁一些	-877
的原因	-878
▁A	-879
▁M	-880
网站	-881
最大的	-882
某些	-883
能量	-884
▁我是	-885
危险	-886
形式	-887
癌症	-888
▁我要	-889
▁因为我们	-890
明显	-891
子的	-892
突然	-893
是一种	-894
一张	-895
一步	-896
者的	-897
我会	-898
了这个	-899
告诉你	-900
上去	-901
体的	-902
▁让我	-903
▁我觉得	-904
▁想	-905
刚刚	-906
快乐	-907
面的	-908
我就	-909
基本上	-910
分析	-911
很难	-912
很有	-913
人员	-914
会有	-915
困难	-916
来看	-917
经常	-918
其它	-919
欧洲	-920
60	-921
周围	-922
开发	-923
斯坦	-924
ic	-925
以后	-926
规模	-927
飞机	-928
坐在	-929
数量	-930
不要	-931
公共	-932
▁你的	-933
▁已经	-934
商业	-935
▁尽管	-936
▁但我们	-937
百分之	-938
▁有些	-939
型的	-940
让你	-941
▁我会	-942
▁即使	-943
互联网	-944
严重	-945
难以	-946
▁下	-947
位置	-948
心理	-949
▁虽然	-950
▁因为我	-951
各位	-952
方案	-953
不再	-954
告诉我	-955
相同	-956
▁你知道	-957
个月	-958
梦想	-959
▁除	-960
地图	-961
地的	-962
有着	-963
11	-964
尼亚	-965
调查	-966
消息	-967
预测	-968
加入	-969
手术	-970
程序	-971
表达	-972
给你	-973
...	-974
如果我们	-975
DNA	-976
▁在我	-977
当我	-978
过来	-979
最好的	-980
▁美国	-981
拍摄	-982
根据	-983
▁能够	-984
其他的	-985
大部分	-986
更好的	-987
对我	-988
要求	-989
记忆	-990
担心	-991
全世界	-992
▁他们的	-993
肯定	-994
上帝	-995
在于	-996
收入	-997
也可以	-998
发生在	-999
体验	-1000
▁可能	-1001
来到	-1002
那种	-1003
▁请	-1004
▁直到	-1005
事物	-1006
行的	-1007
▁那是	-1008
el	-1009
传播	-1010
眼睛	-1011
妈妈	-1012
at	-1013
确定	-1014
▁结果	-1015
我们需要	-1016
▁却	-1017
只能	-1018
国际	-1019
▁它是	-1020
任务	-1021
状态	-1022
过去的	-1023
▁-	-1024
形成	-1025
现代	-1026
石油	-1027
过程中	-1028
经过	-1029
一年	-1030
参加	-1031
最近	-1032
人类的	-1033
似乎	-1034
暴力	-1035
系列	-1036
住在	-1037
化学	-1038
定义	-1039
称为	-1040
▁还是	-1041
生活在	-1042
从来	-1043
提高	-1044
其他人	-1045
这一点	-1046
医院	-1047
面临	-1048
所有人	-1049
问题是	-1050
它是	-1051
样子	-1052
它们的	-1053
it	-1054
感受	-1055
经验	-1056
▁都是	-1057
▁”	-1058
平均	-1059
法律	-1060
25	-1061
描述	-1062
目的	-1063
软件	-1064
国家的	-1065
有什么	-1066
你在	-1067
思想	-1068
▁我知道	-1069
宗教	-1070
一段	-1071
道德	-1072
正常	-1073
出来的	-1074
多么	-1075
值得	-1076
尤其	-1077
收集	-1078
比如	-1079
相互	-1080
试着	-1081
▁只有	-1082
好像	-1083
生存	-1084
生的	-1085
▁在这个	-1086
事件	-1087
子里	-1088
带着	-1089
阶段	-1090
一条	-1091
信号	-1092
长的	-1093
▁我希望	-1094
▁例如	-1095
感兴趣	-1096
风险	-1097
▁但是我	-1098
和我	-1099
发生的	-1100
is	-1101
▁无论	-1102
全部	-1103
是很	-1104
奇怪	-1105
聪明	-1106
你能	-1107
本书	-1108
标准	-1109
发现了	-1110
幸福	-1111
了我们	-1112
▁—	-1113
训练	-1114
的孩子	-1115
新闻	-1116
普通	-1117
▁人	-1118
因素	-1119
不需要	-1120
很快	-1121
房间	-1122
我们要	-1123
效果	-1124
完美	-1125
试验	-1126
说过	-1127
▁做	-1128
生态	-1129
行星	-1130
我们有	-1131
▁但这	-1132
里斯	-1133
80	-1134
失败	-1135
革命	-1136
我们能	-1137
▁♪	-1138
意思是	-1139
打开	-1140
专家	-1141
不仅	-1142
后的	-1143
这张	-1144
回来	-1145
自身	-1146
看到了	-1147
森林	-1148
表演	-1149
▁一种	-1150
▁又	-1151
以为	-1152
图像	-1153
美丽	-1154
得到了	-1155
是有	-1156
兴奋	-1157
吸引	-1158
恐怖	-1159
糟糕	-1160
▁接着	-1161
水平	-1162
每一个	-1163
我所	-1164
用于	-1165
我们就	-1166
▁假	-1167
不过	-1168
恐惧	-1169
问题的	-1170
好了	-1171
在那	-1172
了很多	-1173
当我们	-1174
妇女	-1175
星期	-1176
▁我们要	-1177
会议	-1178
绝对	-1179
都不	-1180
▁我们有	-1181
显然	-1182
介绍	-1183
政策	-1184
上了	-1185
消失	-1186
▁只是	-1187
的研究	-1188
英尺	-1189
都知道	-1190
一只	-1191
下去	-1192
高的	-1193
鼓掌	-1194
告诉我们	-1195
重要的是	-1196
al	-1197
▁J	-1198
▁R	-1199
不起	-1200
视觉	-1201
oo	-1202
是的	-1203
▁如何	-1204
的最	-1205
需求	-1206
的一切	-1207
▁他的	-1208
是怎么	-1209
句话	-1210
心的	-1211
这项	-1212
危机	-1213
这是一个	-1214
am	-1215
创作	-1216
时的	-1217
运作	-1218
▁很多	-1219
两种	-1220
开放	-1221
神奇	-1222
表明	-1223
▁D	-1224
允许	-1225
某个	-1226
结合	-1227
说明	-1228
▁另外	-1229
▁我也	-1230
,”	-1231
基于	-1232
伟大的	-1233
改变了	-1234
以来	-1235
星球	-1236
都能	-1237
几年	-1238
成本	-1239
▁它的	-1240
▁P	-1241
不错	-1242
▁那个	-1243
一名	-1244
中间	-1245
责任	-1246
进步	-1247
很重要	-1248
▁我们必须	-1249
es	-1250
▁我可以	-1251
细菌	-1252
复杂的	-1253
权利	-1254
男孩	-1255
或许	-1256
....	-1257
▁开始	-1258
70	-1259
90	-1260
先生	-1261
边的	-1262
会说	-1263
▁看看	-1264
不多	-1265
▁这就	-1266
艺术家	-1267
▁她们	-1268
到达	-1269
一件	-1270
心脏	-1271
距离	-1272
运用	-1273
接触	-1274
这样做	-1275
空气	-1276
▁不管	-1277
▁但是我们	-1278
的数据	-1279
种族	-1280
医学	-1281
正是	-1282
可能是	-1283
▁我们也	-1284
土地	-1285
平等	-1286
的生活	-1287
真是	-1288
花费	-1289
之为	-1290
类的	-1291
动作	-1292
一般	-1293
投入	-1294
些什么	-1295
女士	-1296
英里	-1297
站在	-1298
▁或是	-1299
处于	-1300
联合	-1301
▁最终	-1302
的信息	-1303
这么做	-1304
▁我们会	-1305
有多	-1306
消费	-1307
il	-1308
幸运	-1309
智慧	-1310
▁人类	-1311
称之为	-1312
给我们	-1313
给大家	-1314
▁T	-1315
▁没	-1316
感染	-1317
的想法	-1318
▁克	-1319
动的	-1320
压力	-1321
工业	-1322
▁19	-1323
有一些	-1324
▁相	-1325
特殊	-1326
规则	-1327
▁只要	-1328
▁G	-1329
提出	-1330
不得不	-1331
很好的	-1332
去做	-1333
男性	-1334
未来的	-1335
▁因为他们	-1336
▁你能	-1337
▁正如	-1338
没有人	-1339
都可以	-1340
▁这是个	-1341
办公	-1342
婴儿	-1343
监狱	-1344
▁我们现在	-1345
▁跟	-1346
▁我们还	-1347
不用	-1348
同事	-1349
状况	-1350
在我们	-1351
之中	-1352
当地	-1353
西方	-1354
转变	-1355
体系	-1356
取得	-1357
让他们	-1358
▁我们能	-1359
建议	-1360
威胁	-1361
或是	-1362
痛苦	-1363
角色	-1364
二十	-1365
银行	-1366
降低	-1367
工作的	-1368
一直在	-1369
公民	-1370
条件	-1371
表面	-1372
ac	-1373
我可以	-1374
的照片	-1375
彼此	-1376
形状	-1377
每年	-1378
艾滋	-1379
表示	-1380
装置	-1381
这一切	-1382
告诉你们	-1383
害怕	-1384
情绪	-1385
我也	-1386
了一些	-1387
▁自	-1388
从未	-1389
总统	-1390
晚上	-1391
的那	-1392
▁那时	-1393
设计的	-1394
期的	-1395
在那里	-1396
▁非常感谢	-1397
思维	-1398
这些人	-1399
ou	-1400
很大	-1401
专业	-1402
对吧	-1403
那时	-1404
▁之后	-1405
大量的	-1406
别的	-1407
动力	-1408
小孩	-1409
属于	-1410
高兴	-1411
找到了	-1412
生命的	-1413
▁我们就	-1414
房子	-1415
所在	-1416
讲述	-1417
▁好吧	-1418
世界各	-1419
......	-1420
刚才	-1421
学会	-1422
▁我就	-1423
使得	-1424
出去	-1425
把它们	-1426
▁然后我们	-1427
▁1	-1428
回家	-1429
疯狂	-1430
见的	-1431
学的	-1432
▁来自	-1433
年轻人	-1434
这件事	-1435
as	-1436
▁这是我	-1437
内部	-1438
患者	-1439
是最	-1440
▁后来	-1441
是非常	-1442
出生	-1443
避免	-1444
其中的	-1445
的能力	-1446
还没有	-1447
大量	-1448
很大的	-1449
情况下	-1450
积极	-1451
适应	-1452
我觉得	-1453
交通	-1454
他人	-1455
保证	-1456
博物	-1457
爱的	-1458
和平	-1459
是不	-1460
职业	-1461
▁包括	-1462
▁在这	-1463
对话	-1464
蛋白	-1465
▁想象	-1466
博物馆	-1467
的影响	-1468
名的	-1469
质量	-1470
还在	-1471
还要	-1472
颜色	-1473
对此	-1474
独立	-1475
冲突	-1476
可怕	-1477
塑料	-1478
下来的	-1479
地球上	-1480
▁两	-1481
你所	-1482
屏幕	-1483
得到的	-1484
▁上	-1485
你要	-1486
基金	-1487
阿拉	-1488
变成了	-1489
差不多	-1490
的国家	-1491
不想	-1492
有可能	-1493
美国人	-1494
▁L	-1495
当中	-1496
毫无	-1497
知的	-1498
组成	-1499
▁或许	-1500
价格	-1501
停止	-1502
限制	-1503
互相	-1504
快速	-1505
设计师	-1506
关心	-1507
我能	-1508
测量	-1509
他们在	-1510
有趣的	-1511
垃圾	-1512
竞争	-1513
资金	-1514
阅读	-1515
▁这一	-1516
▁需要	-1517
▁然后我	-1518
四个	-1519
文章	-1520
可以看到	-1521
家伙	-1522
广告	-1523
▁总	-1524
儿子	-1525
杂志	-1526
et	-1527
之外	-1528
只要	-1529
相似	-1530
把这些	-1531
失去	-1532
操作	-1533
氧化	-1534
警察	-1535
生活中	-1536
的结果	-1537
▁这样的	-1538
哪些	-1539
证据	-1540
▁任何	-1541
巨大	-1542
看来	-1543
绿色	-1544
而不是	-1545
不在	-1546
信任	-1547
度的	-1548
排放	-1549
▁尤其	-1550
他说	-1551
太空	-1552
花了	-1553
▁而这	-1554
也没有	-1555
什么是	-1556
分之一	-1557
▁我们已经	-1558
太多	-1559
过了	-1560
造成	-1561
程度上	-1562
行业	-1563
下降	-1564
信仰	-1565
▁我很	-1566
▁多	-1567
时刻	-1568
负责	-1569
▁K	-1570
▁有人	-1571
智能	-1572
比亚	-1573
的确	-1574
设施	-1575
逐渐	-1576
邀请	-1577
漂亮	-1578
听起来	-1579
年龄	-1580
引起	-1581
破坏	-1582
集中	-1583
都没有	-1584
▁我们将	-1585
家人	-1586
理由	-1587
的主	-1588
用了	-1589
你们的	-1590
情感	-1591
接近	-1592
那是	-1593
给他们	-1594
▁他们会	-1595
成长	-1596
▁几	-1597
发表	-1598
教授	-1599
本质	-1600
▁如今	-1601
▁每个	-1602
▁第一	-1603
注意到	-1604
并非	-1605
火星	-1606
利益	-1607
呼吸	-1608
很棒	-1609
模拟	-1610
你就	-1611
实在	-1612
武器	-1613
阻止	-1614
▁特别	-1615
▁那里	-1616
怎么样	-1617
的事物	-1618
▁此	-1619
千万	-1620
女儿	-1621
背景	-1622
带来的	-1623
▁接下来	-1624
▁这不是	-1625
▁现在我们	-1626
拯救	-1627
珊瑚	-1628
疫苗	-1629
神经元	-1630
社交	-1631
统计	-1632
▁从而	-1633
办公室	-1634
工程师	-1635
的声音	-1636
这样一个	-1637
我们会	-1638
▁比如说	-1639
▁我们知道	-1640
一场	-1641
你是	-1642
课程	-1643
同情	-1644
时期	-1645
是由	-1646
物体	-1647
财富	-1648
部门	-1649
年里	-1650
可能性	-1651
习惯	-1652
燃料	-1653
生长	-1654
面前	-1655
生活的	-1656
之处	-1657
结论	-1658
▁而我	-1659
正确的	-1660
惊讶	-1661
放弃	-1662
老鼠	-1663
鼓励	-1664
▁如果我	-1665
互动	-1666
差异	-1667
的新	-1668
身份	-1669
常常	-1670
所谓	-1671
放到	-1672
记住	-1673
爆炸	-1674
re	-1675
成员	-1676
对我们	-1677
有多少	-1678
仔细	-1679
假设	-1680
思议	-1681
才是	-1682
搜索	-1683
▁大约	-1684
日本	-1685
遇到	-1686
▁——	-1687
▁我相信	-1688
犯罪	-1689
▁是的	-1690
可以在	-1691
没有任何	-1692
一代	-1693
恢复	-1694
特的	-1695
▁我开始	-1696
平衡	-1697
来源	-1698
亿美元	-1699
把这个	-1700
的例子	-1701
一项	-1702
不了	-1703
都很	-1704
存在的	-1705
卫生	-1706
承认	-1707
马上	-1708
▁这也是	-1709
上升	-1710
了这	-1711
即使	-1712
摄影	-1713
我们现在	-1714
家里	-1715
岁的	-1716
报道	-1717
改善	-1718
文字	-1719
温度	-1720
猩猩	-1721
所做的	-1722
公开	-1723
来了	-1724
群体	-1725
诊断	-1726
太阳能	-1727
▁因为它	-1728
英语	-1729
认知	-1730
那儿	-1731
长大	-1732
我来说	-1733
旅行	-1734
产生的	-1735
公园	-1736
学院	-1737
▁正在	-1738
成功的	-1739
像是	-1740
理念	-1741
谷歌	-1742
!”	-1743
▁加	-1744
再次	-1745
循环	-1746
文明	-1747
演奏	-1748
而是	-1749
蚂蚁	-1750
▁我不知道	-1751
▁H	-1752
依赖	-1753
建设	-1754
的环境	-1755
我们已经	-1756
包含	-1757
原始	-1758
多样	-1759
终于	-1760
贫穷	-1761
资本	-1762
▁小	-1763
同意	-1764
培养	-1765
想想	-1766
报告	-1767
比赛	-1768
看待	-1769
500	-1770
▁大概	-1771
▁我将	-1772
必要	-1773
成果	-1774
▁目前	-1775
▁另一个	-1776
做的事情	-1777
om	-1778
享受	-1779
卫星	-1780
打算	-1781
成为了	-1782
免费	-1783
发生了什么	-1784
原则	-1785
富汗	-1786
熟悉	-1787
路上	-1788
▁我还	-1789
人们的	-1790
我知道	-1791
阿富汗	-1792
各个	-1793
坚持	-1794
见过	-1795
针对	-1796
艾滋病	-1797
会在	-1798
好吧	-1799
食品	-1800
二氧化	-1801
ad	-1802
是从	-1803
网上	-1804
观念	-1805
▁200	-1806
一家	-1807
下面	-1808
式的	-1809
贫困	-1810
▁20	-1811
▁同样	-1812
▁好的	-1813
也就是	-1814
在美国	-1815
扫描	-1816
星系	-1817
运行	-1818
重复	-1819
的力量	-1820
▁而我们	-1821
年后	-1822
谈谈	-1823
▁整个	-1824
▁这意味着	-1825
▁2	-1826
▁向	-1827
交易	-1828
障碍	-1829
▁许多	-1830
真实的	-1831
人民	-1832
体内	-1833
看法	-1834
说话	-1835
▁完全	-1836
是不是	-1837
来自于	-1838
ed	-1839
消耗	-1840
究竟	-1841
驾驶	-1842
的社会	-1843
这个世界	-1844
▁你可以看到	-1845
发出	-1846
外的	-1847
安德	-1848
咖啡	-1849
检测	-1850
污染	-1851
确保	-1852
节目	-1853
面包	-1854
▁就在	-1855
▁这张	-1856
%。	-1857
博士	-1858
左右	-1859
年来	-1860
拉克	-1861
▁所有的	-1862
▁谁	-1863
斯特	-1864
电池	-1865
走进	-1866
采取	-1867
▁但在	-1868
之所以	-1869
我们对	-1870
今年	-1871
做得	-1872
对的	-1873
找出	-1874
至于	-1875
不仅仅是	-1876
不可思议	-1877
16	-1878
一块	-1879
不管	-1880
位于	-1881
了这些	-1882
二氧化碳	-1883
▁3	-1884
气候变化	-1885
器官	-1886
巴西	-1887
置信	-1888
喜欢的	-1889
看上去	-1890
创建	-1891
早上	-1892
核心	-1893
满足	-1894
部的	-1895
出现在	-1896
的过程	-1897
▁是一个	-1898
作为一个	-1899
14	-1900
妻子	-1901
资料	-1902
▁世界	-1903
▁进行	-1904
下一个	-1905
帮助我们	-1906
▁谢谢大家	-1907
he	-1908
农业	-1909
往往	-1910
成就	-1911
笑声	-1912
▁第一个	-1913
会被	-1914
元素	-1915
好处	-1916
第三	-1917
相同的	-1918
os	-1919
反对	-1920
性恋	-1921
超级	-1922
▁三	-1923
理想	-1924
细节	-1925
身边	-1926
那样的	-1927
我们必须	-1928
是这样的	-1929
攻击	-1930
无论	-1931
而已	-1932
贡献	-1933
发展中	-1934
的感觉	-1935
▁他们在	-1936
▁是因为	-1937
创意	-1938
工厂	-1939
了我的	-1940
会发生	-1941
▁在我们	-1942
复制	-1943
比例	-1944
▁于是我	-1945
也能	-1946
十亿	-1947
使用的	-1948
这儿	-1949
▁F	-1950
▁马	-1951
上万	-1952
有所	-1953
附近	-1954
▁几乎	-1955
打印	-1956
深入	-1957
肿瘤	-1958
▁我和	-1959
▁我对	-1960
▁每个人	-1961
▁我们发现	-1962
▁全	-1963
居住	-1964
得以	-1965
德国	-1966
援助	-1967
漫画	-1968
阿拉伯	-1969
人在	-1970
展现	-1971
沟通	-1972
▁也是	-1973
变革	-1974
对待	-1975
存在于	-1976
难以置信	-1977
权力	-1978
秘密	-1979
美好	-1980
问我	-1981
变得更	-1982
进一步	-1983
区别	-1984
成千	-1985
自动	-1986
英雄	-1987
获取	-1988
ter	-1989
▁她说	-1990
▁我现在	-1991
这些东西	-1992
层面	-1993
皮肤	-1994
罗斯	-1995
话题	-1996
追求	-1997
▁不要	-1998
▁你就	-1999
可持续	-2000
接下来	-2001
ch	-2002
伦敦	-2003
提到	-2004
检查	-2005
的水	-2006
让它	-2007
一个小	-2008
什么呢	-2009
几个月	-2010
微生物	-2011
也在	-2012
制度	-2013
我很	-2014
特征	-2015
方面的	-2016
原子	-2017
如今	-2018
妙的	-2019
昆虫	-2020
约翰	-2021
组合	-2022
▁有时	-2023
▁由于	-2024
另一种	-2025
蛋白质	-2026
▁高	-2027
伤害	-2028
依然	-2029
普遍	-2030
灭绝	-2031
美金	-2032
除了	-2033
做的是	-2034
▁嗯	-2035
一半	-2036
克斯	-2037
平台	-2038
彻底	-2039
摄像	-2040
毕业	-2041
激励	-2042
自行	-2043
▁希望	-2044
准确	-2045
在座	-2046
者们	-2047
▁通常	-2048
这个词	-2049
,"	-2050
将要	-2051
的技术	-2052
成为一个	-2053
看到的是	-2054
▁也就是说	-2055
ol	-2056
日常	-2057
由于	-2058
▁研究	-2059
怎么做	-2060
迅速	-2061
的一些	-2062
说的是	-2063
17	-2064
ot	-2065
▁举	-2066
▁随	-2067
相反	-2068
相机	-2069
虚拟	-2070
邮件	-2071
▁使用	-2072
范围内	-2073
人生	-2074
这次	-2075
▁创造	-2076
怎样的	-2077
需要的	-2078
▁有一个	-2079
▁新	-2080
慢慢	-2081
提醒	-2082
用户	-2083
给予	-2084
我想要	-2085
联合国	-2086
不够	-2087
个体	-2088
完整	-2089
很长	-2090
得多	-2091
现场	-2092
见到	-2093
和其他	-2094
所有这些	-2095
下了	-2096
兄弟	-2097
密码	-2098
态度	-2099
性别	-2100
恐龙	-2101
机制	-2102
购买	-2103
▁除了	-2104
一部分	-2105
强大的	-2106
我们是	-2107
内心	-2108
原理	-2109
广泛	-2110
我对	-2111
穿过	-2112
说法	-2113
途径	-2114
▁每天	-2115
出现了	-2116
足够的	-2117
ha	-2118
员工	-2119
案例	-2120
灾难	-2121
的地	-2122
的高	-2123
▁我从	-2124
▁我们都	-2125
▁或者是	-2126
us	-2127
▁E	-2128
丰富	-2129
后面	-2130
收到	-2131
衣服	-2132
释放	-2133
任何人	-2134
▁这是我们	-2135
▁海	-2136
旅程	-2137
早期	-2138
翻译	-2139
这类	-2140
进去	-2141
这是个	-2142
13	-2143
图书	-2144
法国	-2145
流行	-2146
爸爸	-2147
这条	-2148
▁假如	-2149
基因组	-2150
的设计	-2151
2000	-2152
▁并不是	-2153
怀疑	-2154
▁你要	-2155
很容易	-2156
我有	-2157
蓝色	-2158
趋势	-2159
为止	-2160
极端	-2161
公司的	-2162
等待	-2163
▁全球	-2164
▁它会	-2165
他们会	-2166
现在的	-2167
▁基本上	-2168
岁的时候	-2169
▁W	-2170
期间	-2171
有意思	-2172
▁他们说	-2173
从来没有	-2174
成千上万	-2175
他在	-2176
公众	-2177
州的	-2178
技能	-2179
给了	-2180
蜜蜂	-2181
错了	-2182
▁一旦	-2183
不仅仅	-2184
另外一个	-2185
ra	-2186
中有	-2187
期待	-2188
金融	-2189
▁可是	-2190
的人生	-2191
真的是	-2192
▁有时候	-2193
利的	-2194
浪费	-2195
▁不仅	-2196
▁什么	-2197
▁看到	-2198
▁换	-2199
写的	-2200
博客	-2201
掌握	-2202
主义者	-2203
历史上	-2204
的发展	-2205
一群	-2206
优秀	-2207
墨西	-2208
热情	-2209
看不	-2210
简直	-2211
辩论	-2212
还能	-2213
黑人	-2214
墨西哥	-2215
▁我当时	-2216
解决方案	-2217
刺激	-2218
在你	-2219
欢迎	-2220
输入	-2221
重点	-2222
孩子的	-2223
生物学	-2224
开心	-2225
执行	-2226
拒绝	-2227
走了	-2228
选举	-2229
一些人	-2230
个小时	-2231
▁我的意思是	-2232
分布	-2233
启发	-2234
强烈	-2235
机械	-2236
没人	-2237
▁他是	-2238
▁我有	-2239
▁至少	-2240
系统的	-2241
认识到	-2242
▁反	-2243
从事	-2244
199	-2245
▁另一	-2246
同性恋	-2247
我们都	-2248
这个项目	-2249
5%	-2250
不太	-2251
判断	-2252
最好	-2253
相对	-2254
记者	-2255
黑暗	-2256
▁克里斯	-2257
▁在这里	-2258
便宜	-2259
取决	-2260
应对	-2261
按照	-2262
走到	-2263
部落	-2264
▁不同	-2265
做的事	-2266
各种各	-2267
的人口	-2268
▁我们对	-2269
发挥	-2270
很少	-2271
缺乏	-2272
▁但它	-2273
的时刻	-2274
的机会	-2275
▁大多数	-2276
非常重要	-2277
伊斯	-2278
名为	-2279
来做	-2280
聚集	-2281
能在	-2282
舞台	-2283
道路	-2284
难民	-2285
id	-2286
传递	-2287
激动	-2288
适合	-2289
麻烦	-2290
▁他在	-2291
也不会	-2292
来看看	-2293
错误的	-2294
世界各地	-2295
我们应该	-2296
一旦	-2297
去年	-2298
团体	-2299
播放	-2300
改革	-2301
进来	-2302
有些人	-2303
地说	-2304
报纸	-2305
苹果	-2306
出一个	-2307
感觉到	-2308
第二个	-2309
▁他们是	-2310
万人	-2311
你想	-2312
合理	-2313
走向	-2314
▁中国	-2315
▁她的	-2316
▁就会	-2317
一系列	-2318
我自己	-2319
?“	-2320
伊朗	-2321
具体	-2322
合适	-2323
就有	-2324
期望	-2325
画面	-2326
▁你看	-2327
呈现	-2328
幻灯	-2329
我将	-2330
版本	-2331
玩具	-2332
红色	-2333
面积	-2334
所谓的	-2335
有一天	-2336
相当于	-2337
军队	-2338
学到	-2339
曲线	-2340
脆弱	-2341
取决于	-2342
我开始	-2343
▁我发现	-2344
每个人都	-2345
24	-2346
做过	-2347
到处	-2348
寿命	-2349
恒星	-2350
玻璃	-2351
血管	-2352
间的	-2353
伊拉克	-2354
是这样	-2355
没什么	-2356
不好	-2357
从中	-2358
回事	-2359
我和	-2360
望远	-2361
维持	-2362
采用	-2363
▁社会	-2364
伊斯兰	-2365
使我们	-2366
这不是	-2367
▁尤其是	-2368
▁N	-2369
▁年	-2370
一片	-2371
技巧	-2372
把这	-2373
涉及	-2374
粒子	-2375
▁好了	-2376
做一个	-2377
发展的	-2378
这么多	-2379
世界上最	-2380
▁天	-2381
▁才	-2382
做法	-2383
相比	-2384
▁才能	-2385
失去了	-2386
望远镜	-2387
的时代	-2388
黑猩猩	-2389
的情况下	-2390
出版	-2391
每次	-2392
潜水	-2393
我已经	-2394
▁我们不	-2395
渴望	-2396
用它	-2397
我们将	-2398
美国的	-2399
▁这就是为什么	-2400
哪个	-2401
极其	-2402
超越	-2403
隐藏	-2404
▁一直	-2405
他们是	-2406
可能的	-2407
在哪里	-2408
了吗	-2409
后果	-2410
士兵	-2411
旁边	-2412
海岸	-2413
袭击	-2414
遗传	-2415
顺便	-2416
▁根据	-2417
▁第三	-2418
今天的	-2419
我们不	-2420
对我来说	-2421
伟大	-2422
供应	-2423
手段	-2424
的学生	-2425
真的很	-2426
▁在一个	-2427
我还	-2428
有时	-2429
沙漠	-2430
评论	-2431
产生了	-2432
件事情	-2433
同一个	-2434
的速度	-2435
▁我喜欢	-2436
这些问题	-2437
▁于是我们	-2438
▁《	-2439
全国	-2440
古老	-2441
大众	-2442
大气	-2443
居民	-2444
设想	-2445
都要	-2446
个例子	-2447
1000	-2448
▁阿	-2449
丈夫	-2450
乐观	-2451
同一	-2452
慈善	-2453
探测	-2454
色列	-2455
长期	-2456
只需要	-2457
想知道	-2458
一个问题	-2459
。"	-2460
则是	-2461
好奇	-2462
客户	-2463
接着	-2464
无线	-2465
标志	-2466
把他们	-2467
一份	-2468
对象	-2469
忘记	-2470
把我	-2471
斯林	-2472
演示	-2473
电力	-2474
症状	-2475
看了	-2476
稳定	-2477
调整	-2478
▁成为	-2479
创造力	-2480
那就是	-2481
农民	-2482
回去	-2483
字母	-2484
感知	-2485
混合	-2486
远的	-2487
逻辑	-2488
▁仅仅	-2489
了不起	-2490
应该是	-2491
有效的	-2492
穆斯林	-2493
开车	-2494
强大	-2495
物品	-2496
角落	-2497
震惊	-2498
到一个	-2499
发现的	-2500
主意	-2501
埃及	-2502
气体	-2503
起了	-2504
▁随着	-2505
如果我	-2506
惊人的	-2507
▁但他们	-2508
前面	-2509
受害	-2510
死了	-2511
着的	-2512
▁最近	-2513
▁突然	-2514
临床	-2515
代码	-2516
估计	-2517
图表	-2518
将来	-2519
闭症	-2520
基本的	-2521
美丽的	-2522
▁想象一下	-2523
不幸	-2524
提升	-2525
照顾	-2526
行走	-2527
说服	-2528
▁下面	-2529
段时间	-2530
让人们	-2531
▁在那里	-2532
这些数据	-2533
名叫	-2534
哪儿	-2535
得了	-2536
效率	-2537
深刻	-2538
覆盖	-2539
谈话	-2540
透明	-2541
ing	-2542
全新的	-2543
我们也	-2544
▁对我来说	-2545
▁我们应该	-2546
21	-2547
交谈	-2548
教学	-2549
毒品	-2550
边缘	-2551
这点	-2552
▁过去	-2553
不一样	-2554
动物的	-2555
所说的	-2556
注意力	-2557
的项目	-2558
自行车	-2559
更有	-2560
综合	-2561
致力	-2562
识别	-2563
在我的	-2564
告诉他们	-2565
▁放	-2566
▁爱	-2567
不停	-2568
共享	-2569
外面	-2570
富有	-2571
就要	-2572
死去	-2573
生意	-2574
矛盾	-2575
▁是否	-2576
我希望	-2577
有没有	-2578
▁你需要	-2579
某种程度上	-2580
伙伴	-2581
启动	-2582
回应	-2583
左边	-2584
灵感	-2585
疑问	-2586
▁使得	-2587
唯一的	-2588
是关于	-2589
是我的	-2590
▁因为这	-2591
倾向	-2592
前进	-2593
发布	-2594
指数	-2595
最初	-2596
瞬间	-2597
紧张	-2598
纳米	-2599
规划	-2600
▁是在	-2601
的行为	-2602
▁我们把	-2603
ur	-2604
两年	-2605
会儿	-2606
的书	-2607
转化	-2608
都被	-2609
幻灯片	-2610
▁很多人	-2611
▁作为一个	-2612
▁这是一种	-2613
一生	-2614
寻常	-2615
穿着	-2616
策略	-2617
▁CA	-2618
▁一位	-2619
听说过	-2620
基金会	-2621
大脑的	-2622
▁这些人	-2623
一边	-2624
公平	-2625
印象	-2626
在的	-2627
尊重	-2628
杉矶	-2629
演员	-2630
重建	-2631
一件事	-2632
充满了	-2633
洛杉矶	-2634
的事实	-2635
▁我是说	-2636
我们自己	-2637
依靠	-2638
实践	-2639
带到	-2640
教堂	-2641
标记	-2642
艰难	-2643
邻居	-2644
领袖	-2645
▁这也	-2646
向你们	-2647
▁我们从	-2648
寻求	-2649
手指	-2650
象征	-2651
这位	-2652
▁发现	-2653
就开始	-2654
很简单	-2655
自然的	-2656
,000	-2657
▁因为在	-2658
▁让他们	-2659
大多数人	-2660
每一个人	-2661
▁I	-2662
投票	-2663
有机	-2664
特定	-2665
种植	-2666
街道	-2667
转移	-2668
▁其他	-2669
传统的	-2670
打电话	-2671
的概念	-2672
的重要	-2673
▁大部分	-2674
▁而这些	-2675
ay	-2676
不足	-2677
合法	-2678
影片	-2679
措施	-2680
赋予	-2681
▁大脑	-2682
▁观众	-2683
不只是	-2684
▁这是一	-2685
▁数	-2686
一刻	-2687
形态	-2688
愤怒	-2689
文件	-2690
着手	-2691
金属	-2692
▁叫做	-2693
?"	-2694
hr	-2695
一致	-2696
人工	-2697
华盛	-2698
将其	-2699
少年	-2700
斗争	-2701
▁提供	-2702
▁每年	-2703
▁而在	-2704
必须要	-2705
的生物	-2706
▁我们所	-2707
人士	-2708
动机	-2709
品牌	-2710
是你	-2711
重大	-2712
高中	-2713
▁政府	-2714
他们说	-2715
华盛顿	-2716
▁然后你	-2717
基础设施	-2718
主题	-2719
商品	-2720
很久	-2721
成年	-2722
效应	-2723
最大	-2724
创造了	-2725
的所有	-2726
的部分	-2727
类似的	-2728
致力于	-2729
▁这些都是	-2730
人和	-2731
奖励	-2732
婚姻	-2733
强调	-2734
成立	-2735
改进	-2736
特性	-2737
直觉	-2738
看过	-2739
真相	-2740
送到	-2741
的第一	-2742
的角度	-2743
进行了	-2744
im	-2745
作家	-2746
决策	-2747
右边	-2748
围绕	-2749
教师	-2750
没法	-2751
活跃	-2752
移民	-2753
肌肉	-2754
说是	-2755
▁拥有	-2756
一开始	-2757
▁我们希望	-2758
发展中国家	-2759
ab	-2760
▁开	-2761
关联	-2762
去看	-2763
志愿	-2764
总结	-2765
意见	-2766
推动	-2767
样本	-2768
玩耍	-2769
结婚	-2770
了解到	-2771
完美的	-2772
小小的	-2773
▁「	-2774
传染	-2775
地上	-2776
无所	-2777
片段	-2778
▁在那	-2779
▁帮助	-2780
感受到	-2781
朋友们	-2782
相关的	-2783
▁在美国	-2784
ub	-2785
人群	-2786
奇迹	-2787
存活	-2788
算法	-2789
精确	-2790
血液	-2791
视角	-2792
建筑师	-2793
研究的	-2794
肯尼亚	-2795
严肃	-2796
事业	-2797
前的	-2798
化石	-2799
南非	-2800
符合	-2801
进展	-2802
安德森	-2803
知道的	-2804
▁,	-2805
两者	-2806
保留	-2807
子上	-2808
录像	-2809
舞蹈	-2810
衡量	-2811
怎么办	-2812
是怎样	-2813
▁但是在	-2814
▁这些是	-2815
没有什么	-2816
这个故事	-2817
iP	-2818
一台	-2819
抓住	-2820
无人	-2821
来讲	-2822
流感	-2823
轨道	-2824
还会	-2825
陌生	-2826
300	-2827
城市的	-2828
被称为	-2829
最重要的	-2830
得更	-2831
明确	-2832
本来	-2833
美洲	-2834
观看	-2835
非洲的	-2836
我们能够	-2837
专注	-2838
为何	-2839
便是	-2840
单词	-2841
所需	-2842
是谁	-2843
跟我	-2844
量子	-2845
销售	-2846
你自己	-2847
还可以	-2848
生态系统	-2849
在了	-2850
对方	-2851
展开	-2852
布鲁	-2853
承诺	-2854
抑郁	-2855
转换	-2856
阳光	-2857
▁我能	-2858
在这些	-2859
造成的	-2860
非常有	-2861
▁现在我	-2862
接下来的	-2863
▁我们正在	-2864
▁亚	-2865
分裂	-2866
律师	-2867
睡眠	-2868
谈到	-2869
费用	-2870
预防	-2871
ill	-2872
▁想想	-2873
和我们	-2874
大规模	-2875
对我说	-2876
的一点	-2877
的人类	-2878
部电影	-2879
ow	-2880
修复	-2881
意大	-2882
放大	-2883
村庄	-2884
背后	-2885
▁改变	-2886
一点点	-2887
因斯坦	-2888
图书馆	-2889
自闭症	-2890
▁当他们	-2891
▁我已经	-2892
就是这样	-2893
un	-2894
地位	-2895
培训	-2896
处在	-2897
差别	-2898
愿望	-2899
旋转	-2900
祖先	-2901
至今	-2902
gle	-2903
时间的	-2904
组织的	-2905
▁我记得	-2906
▁我们认为	-2907
eb	-2908
上有	-2909
地下	-2910
地点	-2911
打破	-2912
拿着	-2913
死于	-2914
混乱	-2915
环保	-2916
▁正是	-2917
▁自己	-2918
万美元	-2919
做一些	-2920
▁艾	-2921
专利	-2922
为此	-2923
之内	-2924
好事	-2925
它会	-2926
德里	-2927
清晰	-2928
犹太	-2929
给他	-2930
葡萄	-2931
道理	-2932
像这样	-2933
特别的	-2934
社会的	-2935
让你们	-2936
▁我们想	-2937
▁特别是	-2938
人体	-2939
人物	-2940
像我	-2941
场景	-2942
宣传	-2943
损失	-2944
数的	-2945
私人	-2946
采访	-2947
难道	-2948
▁确实	-2949
以色列	-2950
年轻的	-2951
拥有的	-2952
的位置	-2953
什么时候	-2954
做些什么	-2955
仪器	-2956
优势	-2957
充分	-2958
尼日	-2959
忽略	-2960
流动	-2961
笔记	-2962
达尔	-2963
进了	-2964
世纪的	-2965
企业家	-2966
干细胞	-2967
很有趣	-2968
飞行器	-2969
一百	-2970
争论	-2971
加州	-2972
变的	-2973
听说	-2974
大型	-2975
才会	-2976
称作	-2977
严重的	-2978
更大的	-2979
特定的	-2980
▁因为你	-2981
▁它可以	-2982
再生	-2983
冒险	-2984
加速	-2985
即将	-2986
平方	-2987
情形	-2988
指出	-2989
提取	-2990
极了	-2991
神秘	-2992
陷入	-2993
高度	-2994
▁去年	-2995
地球的	-2996
技术的	-2997
提到的	-2998
非常的	-2999
▁看起来	-3000
▁该	-3001
不对	-3002
发射	-3003
岁时	-3004
应当	-3005
猴子	-3006
健康的	-3007
在这儿	-3008
▁你可能	-3009
▁我们是	-3010
▁我们用	-3011
▁我们开始	-3012
你可以看到	-3013
%,	-3014
夏天	-3015
多了	-3016
患有	-3017
摆脱	-3018
模仿	-3019
远远	-3020
金钱	-3021
400	-3022
为我们	-3023
的城市	-3024
组成的	-3025
▁世界上	-3026
▁我不是	-3027
▁这是在	-3028
▁你会发现	-3029
▁前	-3030
一遍	-3031
上学	-3032
专门	-3033
图案	-3034
将它	-3035
尔的	-3036
展览	-3037
正如	-3038
贵的	-3039
马拉	-3040
也不是	-3041
完成的	-3042
带来了	-3043
的关系	-3044
ia	-3045
▁哦	-3046
倾听	-3047
营养	-3048
难题	-3049
是一名	-3050
的这个	-3051
告诉大家	-3052
▁但是他们	-3053
45	-3054
ul	-3055
三十	-3056
奴隶	-3057
成分	-3058
浏览	-3059
现状	-3060
精彩	-3061
听到的	-3062
因为我	-3063
我们如何	-3064
当作	-3065
改造	-3066
标签	-3067
突破	-3068
联邦	-3069
靠近	-3070
▁但你	-3071
▁应该	-3072
▁我把	-3073
多样性	-3074
的内容	-3075
许多人	-3076
那么多	-3077
▁因为他	-3078
其中一个	-3079
▁[	-3080
制定	-3081
地理	-3082
场的	-3083
大陆	-3084
澳大	-3085
热爱	-3086
着我	-3087
研发	-3088
这段	-3089
▁印度	-3090
不喜欢	-3091
大学的	-3092
我现在	-3093
这个人	-3094
▁你必须	-3095
ir	-3096
ob	-3097
五十	-3098
产业	-3099
公里	-3100
制的	-3101
引发	-3102
惊奇	-3103
扮演	-3104
符号	-3105
▁就能	-3106
▁显然	-3107
▁有着	-3108
价值观	-3109
此同时	-3110
oogle	-3111
▁在过去的	-3112
发电	-3113
希腊	-3114
年了	-3115
引擎	-3116
得很	-3117
拿到	-3118
整体	-3119
留下	-3120
空中	-3121
老年	-3122
还没	-3123
▁利用	-3124
其实是	-3125
开始的	-3126
▁有些人	-3127
澳大利亚	-3128
解决问题	-3129
不知	-3130
中最	-3131
五个	-3132
你有	-3133
加上	-3134
反馈	-3135
地面	-3136
大小	-3137
疟疾	-3138
稍微	-3139
立刻	-3140
级的	-3141
▁10	-3142
▁事实	-3143
▁将会	-3144
▁顺便	-3145
的变化	-3146
美好的	-3147
▁所有这些	-3148
各种各样的	-3149
出发	-3150
合成	-3151
天然	-3152
屋顶	-3153
所能	-3154
秒钟	-3155
练习	-3156
致命	-3157
达成	-3158
---	-3159
▁真的	-3160
做这个	-3161
很多的	-3162
▁我想要	-3163
我们知道	-3164
▁先	-3165
▁水	-3166
争议	-3167
企鹅	-3168
作出	-3169
如同	-3170
短信	-3171
说到	-3172
预算	-3173
▁上面	-3174
句话说	-3175
宇宙的	-3176
这张照片	-3177
传感	-3178
头脑	-3179
对吗	-3180
层次	-3181
成绩	-3182
诞生	-3183
黑客	-3184
好消息	-3185
的空间	-3186
的那些	-3187
▁所以他们	-3188
ik	-3189
上千	-3190
分离	-3191
禁止	-3192
穿越	-3193
遭受	-3194
▁两个	-3195
受害者	-3196
学生们	-3197
尼日利亚	-3198
中央	-3199
吃惊	-3200
商店	-3201
娱乐	-3202
实施	-3203
少的	-3204
带有	-3205
平面	-3206
很小	-3207
擅长	-3208
氧气	-3209
▁建立	-3210
已经被	-3211
是为了	-3212
代价	-3213
保健	-3214
信念	-3215
几天	-3216
发光	-3217
回报	-3218
小说	-3219
工人	-3220
形象	-3221
手臂	-3222
沮丧	-3223
追踪	-3224
▁除非	-3225
心脏病	-3226
▁问题是	-3227
层的	-3228
想的	-3229
掉了	-3230
班牙	-3231
看出	-3232
腐败	-3233
运输	-3234
都没	-3235
随机	-3236
▁经济	-3237
▁设计	-3238
你需要	-3239
展示了	-3240
看不到	-3241
获得了	-3242
西班牙	-3243
▁每一个	-3244
的问题是	-3245
给你们看	-3246
▁等	-3247
一小	-3248
中东	-3249
保存	-3250
家的	-3251
得出	-3252
敏感	-3253
构建	-3254
激情	-3255
点子	-3256
纤维	-3257
脑海	-3258
蚊子	-3259
规律	-3260
集体	-3261
高速	-3262
▁必须	-3263
发明了	-3264
完成了	-3265
是可以	-3266
是如此	-3267
死亡率	-3268
▁或者说	-3269
te	-3270
▁9	-3271
不久	-3272
了个	-3273
五年	-3274
加拿	-3275
我去	-3276
火箭	-3277
着迷	-3278
表情	-3279
意大利	-3280
著名的	-3281
我不知道	-3282
光线	-3283
动画	-3284
回顾	-3285
塑造	-3286
奇妙	-3287
想像	-3288
我最	-3289
承担	-3290
支付	-3291
激发	-3292
纪录	-3293
驱动	-3294
and	-3295
俄罗斯	-3296
别人的	-3297
原因是	-3298
特殊的	-3299
的一种	-3300
科医生	-3301
▁孩子们	-3302
一段时间	-3303
任何一个	-3304
在我们的	-3305
写作	-3306
开展	-3307
影像	-3308
教室	-3309
昨天	-3310
这场	-3311
雕塑	-3312
▁每次	-3313
安全的	-3314
的样子	-3315
的经济	-3316
这两个	-3317
做的就是	-3318
▁听	-3319
一辆	-3320
南极	-3321
意外	-3322
无限	-3323
潜力	-3324
移植	-3325
饮食	-3326
麦克	-3327
son	-3328
▁一切	-3329
奇怪的	-3330
▁t	-3331
以下	-3332
尔夫	-3333
忽视	-3334
生理	-3335
的前	-3336
紧密	-3337
编辑	-3338
重视	-3339
▁真正	-3340
▁经过	-3341
▁超过	-3342
意义上	-3343
运动员	-3344
▁在这些	-3345
."	-3346
▁5	-3347
几百	-3348
变暖	-3349
回收	-3350
少数	-3351
形的	-3352
懂得	-3353
显著	-3354
最高	-3355
穷人	-3356
起源	-3357
▁变成	-3358
▁问题	-3359
意义的	-3360
的女性	-3361
为什么要	-3362
什么样的	-3363
免疫	-3364
国会	-3365
土壤	-3366
它在	-3367
感情	-3368
更为	-3369
沿着	-3370
玩笑	-3371
里有	-3372
▁主要	-3373
主义的	-3374
做到的	-3375
▁他们都	-3376
非常非常	-3377
他们自己的	-3378
个性	-3379
也很	-3380
体会	-3381
北极	-3382
所未	-3383
指导	-3384
数以	-3385
格兰	-3386
民众	-3387
点击	-3388
论文	-3389
那天	-3390
▁你在	-3391
▁这项	-3392
▁重新	-3393
消费者	-3394
的观点	-3395
经历了	-3396
.5	-3397
▁四	-3398
分开	-3399
分配	-3400
定律	-3401
推广	-3402
构造	-3403
灵魂	-3404
节奏	-3405
街上	-3406
首歌	-3407
▁科学	-3408
有时候	-3409
了我们的	-3410
发生的事情	-3411
使我	-3412
原本	-3413
发达	-3414
哺乳	-3415
安装	-3416
定位	-3417
异常	-3418
当今	-3419
拉斯	-3420
景象	-3421
民族	-3422
注射	-3423
石头	-3424
繁殖	-3425
肥胖	-3426
贸易	-3427
这只	-3428
▁女性	-3429
▁用来	-3430
不是吗	-3431
可以用	-3432
大家都	-3433
学到的	-3434
有能力	-3435
的工具	-3436
的经历	-3437
能看到	-3438
这里的	-3439
面临的	-3440
只是一个	-3441
ie	-3442
▁理	-3443
▁过	-3444
为你	-3445
之下	-3446
单位	-3447
原来	-3448
取代	-3449
对称	-3450
愚蠢	-3451
欣赏	-3452
每一	-3453
▁但是这	-3454
▁所以你	-3455
▁然后他	-3456
我的工作	-3457
▁您	-3458
单一	-3459
小组	-3460
扩大	-3461
毕竟	-3462
洞穴	-3463
清洁	-3464
评估	-3465
诊所	-3466
▁但他	-3467
不平等	-3468
传感器	-3469
当地的	-3470
的演讲	-3471
的话题	-3472
▁所以说	-3473
因为我们	-3474
SA	-3475
▁斯	-3476
促进	-3477
反映	-3478
基督	-3479
探讨	-3480
教会	-3481
步骤	-3482
的呢	-3483
▁到了	-3484
不断地	-3485
很明显	-3486
有两个	-3487
看一下	-3488
达尔文	-3489
▁但是你	-3490
想象一下	-3491
▁因此我们	-3492
崩溃	-3493
巴基	-3494
房屋	-3495
承受	-3496
解放	-3497
魔术	-3498
黑洞	-3499
▁不能	-3500
可怕的	-3501
有一种	-3502
疾病的	-3503
的公司	-3504
的数量	-3505
他们可以	-3506
▁其中一个	-3507
三维	-3508
吸收	-3509
尔斯	-3510
差距	-3511
延伸	-3512
替代	-3513
气球	-3514
礼物	-3515
融合	-3516
贝尔	-3517
▁我问	-3518
的动物	-3519
答案是	-3520
进行的	-3521
▁你就会	-3522
▁我今天	-3523
▁第二个	-3524
中的一个	-3525
物理学家	-3526
av	-3527
勇气	-3528
安排	-3529
引导	-3530
更高	-3531
贷款	-3532
鲨鱼	-3533
▁怎么	-3534
一定要	-3535
个国家	-3536
已经在	-3537
开始了	-3538
认为是	-3539
▁是我们	-3540
▁没有人	-3541
生物学家	-3542
▁太	-3543
受伤	-3544
可是	-3545
和你	-3546
国的	-3547
处的	-3548
局限	-3549
快的	-3550
探险	-3551
申请	-3552
的外	-3553
药品	-3554
连续	-3555
198	-3556
▁不会	-3557
个人的	-3558
女性的	-3559
是一位	-3560
有机会	-3561
▁所以在	-3562
保险	-3563
姐妹	-3564
密度	-3565
感官	-3566
抽象	-3567
描绘	-3568
整合	-3569
杀死	-3570
海豚	-3571
满意	-3572
克里斯	-3573
在座的	-3574
或者是	-3575
更好地	-3576
▁长	-3577
不少	-3578
住了	-3579
农场	-3580
想过	-3581
游泳	-3582
爆发	-3583
盒子	-3584
种类	-3585
认同	-3586
讨厌	-3587
讲的	-3588
防止	-3589
这本书	-3590
▁我只是	-3591
巴基斯坦	-3592
与人	-3593
世上	-3594
停车	-3595
却是	-3596
哈佛	-3597
天文	-3598
头发	-3599
白人	-3600
统治	-3601
美的	-3602
腺癌	-3603
越多	-3604
跟踪	-3605
链接	-3606
频率	-3607
骨骼	-3608
one	-3609
▁一起	-3610
▁里面	-3611
不应该	-3612
典型的	-3613
提供了	-3614
的未来	-3615
▁它们是	-3616
▁我需要	-3617
这个想法	-3618
▁既	-3619
不去	-3620
先进	-3621
学术	-3622
护士	-3623
温室	-3624
特点	-3625
观的	-3626
进程	-3627
镜头	-3628
▁不论	-3629
▁把它	-3630
创造出	-3631
志愿者	-3632
病人的	-3633
领导者	-3634
不是一个	-3635
▁然后他们	-3636
ma	-3637
▁外	-3638
信心	-3639
公正	-3640
内的	-3641
大楼	-3642
对比	-3643
微笑	-3644
恰恰	-3645
显微	-3646
种子	-3647
贫民	-3648
资助	-3649
▁我被	-3650
▁自然	-3651
▁这位	-3652
▁这对	-3653
他们所	-3654
成一个	-3655
我们从	-3656
我们还	-3657
政府的	-3658
的食物	-3659
离开了	-3660
起来的	-3661
运动的	-3662
▁有很多	-3663
▁我意识到	-3664
不安	-3665
亚洲	-3666
人都	-3667
去世	-3668
在一	-3669
我从	-3670
携带	-3671
染色	-3672
棒了	-3673
玩家	-3674
设置	-3675
这幅	-3676
▁假设	-3677
也许会	-3678
我没有	-3679
op	-3680
▁写	-3681
▁带	-3682
体现	-3683
得知	-3684
战斗	-3685
指挥	-3686
捕捉	-3687
老人	-3688
胜利	-3689
▁认为	-3690
十年代	-3691
在那儿	-3692
摄像机	-3693
消失了	-3694
▁换句话说	-3695
35	-3696
▁别	-3697
▁及	-3698
分之	-3699
固定	-3700
强的	-3701
性和	-3702
旧金	-3703
治愈	-3704
生素	-3705
祖母	-3706
而来	-3707
芯片	-3708
跨越	-3709
辐射	-3710
远离	-3711
马斯	-3712
ook	-3713
▁它能	-3714
▁无法	-3715
之前的	-3716
几年前	-3717
旧金山	-3718
的朋友	-3719
▁也可以	-3720
▁同样的	-3721
▁就可以	-3722
▁我一直	-3723
▁我们如何	-3724
乔治	-3725
坚信	-3726
天空	-3727
她说	-3728
委员	-3729
对抗	-3730
日子	-3731
棒的	-3732
舒服	-3733
走出	-3734
阿尔	-3735
▁想要	-3736
▁找到	-3737
做到了	-3738
在你的	-3739
漂亮的	-3740
笔记本	-3741
变得更加	-3742
的是什么	-3743
非常感谢	-3744
▁他们可以	-3745
▁6	-3746
交互	-3747
保守	-3748
分辨	-3749
小心	-3750
庆祝	-3751
推特	-3752
无聊	-3753
植入	-3754
残疾	-3755
火车	-3756
罪犯	-3757
▁回到	-3758
▁非洲	-3759
存在着	-3760
建筑物	-3761
用一个	-3762
▁我看到	-3763
▁有一天	-3764
▁这一切	-3765
一座	-3766
交换	-3767
仪式	-3768
军事	-3769
家长	-3770
推进	-3771
查德	-3772
编程	-3773
运转	-3774
骨头	-3775
You	-3776
▁笑声	-3777
停下来	-3778
就像是	-3779
形成的	-3780
▁在我的	-3781
▁所以这	-3782
▁如果他们	-3783
▁我们没有	-3784
▁我们能够	-3785
▁这就是我们	-3786
他是	-3787
众人	-3788
作业	-3789
各自	-3790
对你	-3791
广场	-3792
无关	-3793
更大	-3794
灵活	-3795
精力	-3796
自杀	-3797
认真	-3798
让他	-3799
课堂	-3800
▁医生	-3801
▁它在	-3802
▁相反	-3803
地区的	-3804
当他们	-3805
青少年	-3806
hris	-3807
▁就好像	-3808
ig	-3809
协调	-3810
墙上	-3811
就被	-3812
忘了	-3813
焦虑	-3814
瑞典	-3815
确信	-3816
风格	-3817
▁我曾	-3818
▁有趣	-3819
▁这次	-3820
学到了	-3821
尽可能	-3822
科学的	-3823
这么说	-3824
这些事情	-3825
▁但事实上	-3826
意味着什么	-3827
▁发	-3828
▁现	-3829
一大	-3830
亿人	-3831
分散	-3832
加哥	-3833
厕所	-3834
听过	-3835
是用	-3836
树木	-3837
水中	-3838
活着	-3839
ard	-3840
▁并不	-3841
▁曾经	-3842
▁进入	-3843
从一个	-3844
同情心	-3845
和一个	-3846
是这个	-3847
独特的	-3848
的名字	-3849
站起来	-3850
芝加哥	-3851
遇到了	-3852
▁同	-3853
举手	-3854
具备	-3855
分类	-3856
动态	-3857
史蒂	-3858
团结	-3859
家族	-3860
岩石	-3861
扩展	-3862
没错	-3863
法案	-3864
波士	-3865
生涯	-3866
繁荣	-3867
航空	-3868
退休	-3869
▁学习	-3870
▁我只	-3871
▁解决	-3872
古老的	-3873
就这样	-3874
▁我没有	-3875
做了一个	-3876
我们的生活	-3877
Google	-3878
保罗	-3879
哲学	-3880
宣布	-3881
帮我	-3882
干净	-3883
接收	-3884
方便	-3885
视为	-3886
赢得	-3887
▁令人	-3888
▁地球	-3889
▁都在	-3890
▁都有	-3891
之类的	-3892
大自然	-3893
将这些	-3894
想要的	-3895
珊瑚礁	-3896
的作品	-3897
的作用	-3898
▁我们看到	-3899
▁因	-3900
一句	-3901
不止	-3902
两倍	-3903
乐队	-3904
付出	-3905
单独	-3906
合物	-3907
噪音	-3908
天的	-3909
是被	-3910
法则	-3911
牺牲	-3912
疗法	-3913
疼痛	-3914
粮食	-3915
脊髓	-3916
自主	-3917
质疑	-3918
鱼类	-3919
▁都会	-3920
女士们	-3921
我相信	-3922
波士顿	-3923
的目标	-3924
的那个	-3925
身体的	-3926
进化的	-3927
▁以至于	-3928
▁我曾经	-3929
ag	-3930
冰川	-3931
听众	-3932
命运	-3933
法官	-3934
目睹	-3935
蜘蛛	-3936
转向	-3937
非凡	-3938
黄金	-3939
ick	-3940
ube	-3941
▁有关	-3942
太阳系	-3943
宇宙中	-3944
我们想	-3945
创造一个	-3946
就是一个	-3947
经济学家	-3948
偏见	-3949
厨房	-3950
后代	-3951
孤独	-3952
戏剧	-3953
监控	-3954
美妙	-3955
至关	-3956
诗歌	-3957
过滤	-3958
隐私	-3959
餐厅	-3960
饥饿	-3961
鸟类	-3962
你必须	-3963
我需要	-3964
的历史	-3965
的基础	-3966
一些东西	-3967
因为他们	-3968
▁但如果你	-3969
▁我们不能	-3970
▁这就是我	-3971
:”	-3972
▁已	-3973
▁打	-3974
▁问	-3975
作者	-3976
关闭	-3977
否则	-3978
栖息	-3979
深深	-3980
燃烧	-3981
赚钱	-3982
马逊	-3983
高效	-3984
150	-3985
▁那种	-3986
刚开始	-3987
因为它	-3988
工作者	-3989
星球上	-3990
有点像	-3991
环境中	-3992
的系统	-3993
▁但如果	-3994
▁几年前	-3995
▁4	-3996
▁真	-3997
你不	-3998
利润	-3999
回忆	-4000
安静	-4001
拿出	-4002
激素	-4003
的路	-4004
编码	-4005
而易	-4006
边界	-4007
这两	-4008
▁相信	-4009
▁知道	-4010
▁这么	-4011
▁这儿	-4012
准备好	-4013
就不会	-4014
显微镜	-4015
有许多	-4016
本质上	-4017
▁TED	-4018
▁而这个	-4019
▁这里是	-4020
最后一个	-4021
越来越多	-4022
还有一个	-4023
▁二	-4024
▁罗	-4025
人性	-4026
传达	-4027
心灵	-4028
掌控	-4029
斯的	-4030
框架	-4031
爱情	-4032
百科	-4033
的海	-4034
网页	-4035
花园	-4036
采集	-4037
▁这时	-4038
幸的是	-4039
意识的	-4040
找到的	-4041
的就是	-4042
▁不仅仅是	-4043
▁它是一个	-4044
▁这是我的	-4045
ap	-4046
nd	-4047
▁中	-4048
一本	-4049
三角	-4050
不像	-4051
保障	-4052
含义	-4053
方的	-4054
炸弹	-4055
用在	-4056
自豪	-4057
讲话	-4058
身处	-4059
▁似乎	-4060
▁导致	-4061
▁感谢	-4062
▁我所	-4063
▁我来	-4064
▁生命	-4065
加拿大	-4066
委员会	-4067
着我们	-4068
▁它们的	-4069
三分之一	-4070
不可能的	-4071
▁你可能会	-4072
ip	-4073
▁O	-4074
▁仅	-4075
一想	-4076
一部	-4077
做好	-4078
出于	-4079
劳动	-4080
北部	-4081
巴马	-4082
强迫	-4083
有限	-4084
查看	-4085
椅子	-4086
歧视	-4087
热带	-4088
理性	-4089
睡觉	-4090
词汇	-4091
试试	-4092
野生	-4093
▁试图	-4094
▁音乐	-4095
人们在	-4096
你就会	-4097
完整的	-4098
普通的	-4099
正常的	-4100
类型的	-4101
我们发现	-4102
我们开始	-4103
的过程中	-4104
变得越来越	-4105
▁据	-4106
三种	-4107
久的	-4108
以外	-4109
众多	-4110
午餐	-4111
协议	-4112
告知	-4113
大会	-4114
将是	-4115
屠杀	-4116
成像	-4117
战略	-4118
扩张	-4119
正义	-4120
水的	-4121
渐渐	-4122
理工	-4123
绝望	-4124
非法	-4125
art	-4126
创造的	-4127
建立一个	-4128
科学家们	-4129
▁所以我想	-4130
75	-4131
:"	-4132
ey	-4133
um	-4134
一千	-4135
上来	-4136
书籍	-4137
伯特	-4138
印刷	-4139
多久	-4140
液体	-4141
莱坞	-4142
规定	-4143
通讯	-4144
部件	-4145
顺利	-4146
优秀的	-4147
先生们	-4148
困难的	-4149
大脑中	-4150
太棒了	-4151
想象的	-4152
我一直	-4153
把自己	-4154
▁我非常	-4155
▁有一些	-4156
实际上是	-4157
永远不会	-4158
▁你们知道	-4159
▁如果你想	-4160
▁主	-4161
▁光	-4162
三年	-4163
了的	-4164
以上	-4165
会是	-4166
体育	-4167
在线	-4168
天才	-4169
序列	-4170
悲剧	-4171
抗议	-4172
模糊	-4173
经营	-4174
说了	-4175
▁一般	-4176
▁要么	-4177
信息的	-4178
出现的	-4179
和他们	-4180
和他的	-4181
对这个	-4182
的一面	-4183
第三个	-4184
糟糕的	-4185
给我的	-4186
现在我们	-4187
联系起来	-4188
▁举个例子	-4189
od	-4190
▁五	-4191
▁十	-4192
▁奥	-4193
事故	-4194
做些	-4195
克服	-4196
共和	-4197
前往	-4198
周期	-4199
圣诞	-4200
学者	-4201
尺寸	-4202
敌人	-4203
河流	-4204
眼镜	-4205
竟然	-4206
缺陷	-4207
脑袋	-4208
蝙蝠	-4209
跟你	-4210
跟着	-4211
车的	-4212
重的	-4213
钢琴	-4214
飞船	-4215
▁有个	-4216
下一代	-4217
不错的	-4218
其它的	-4219
危险的	-4220
美元的	-4221
自身的	-4222
▁我是一个	-4223
▁每个人都	-4224
▁卡	-4225
▁本	-4226
双手	-4227
在想	-4228
惊人	-4229
感应	-4230
掌声	-4231
有两	-4232
消除	-4233
深处	-4234
的光	-4235
花粉	-4236
要去	-4237
见了	-4238
遵循	-4239
部位	-4240
部队	-4241
重量	-4242
▁此外	-4243
世界里	-4244
他人的	-4245
和你们	-4246
房间里	-4247
▁是关于	-4248
大家分享	-4249
体制	-4250
作物	-4251
写了	-4252
多年	-4253
多种	-4254
天气	-4255
始终	-4256
拉丁	-4257
放进	-4258
整整	-4259
沉默	-4260
的几	-4261
自信	-4262
融入	-4263
证实	-4264
鼓舞	-4265
ian	-4266
中的一	-4267
事物的	-4268
屏幕上	-4269
展示的	-4270
把我们	-4271
时代的	-4272
的运动	-4273
▁就这样	-4274
▁哪	-4275
万个	-4276
为人	-4277
人心	-4278
令我	-4279
们的	-4280
利福	-4281
圣经	-4282
开了	-4283
板上	-4284
欺骗	-4285
源于	-4286
组装	-4287
负担	-4288
走路	-4289
过于	-4290
雨林	-4291
顾客	-4292
▁了解	-4293
▁城市	-4294
你不能	-4295
倾向于	-4296
想象力	-4297
着一个	-4298
▁我必须	-4299
▁这只是	-4300
只有一个	-4301
▁那么我们	-4302
▁埃	-4303
两次	-4304
克林	-4305
加拉	-4306
向前	-4307
字典	-4308
心里	-4309
明天	-4310
是对	-4311
机遇	-4312
毁灭	-4313
生成	-4314
界面	-4315
白色	-4316
皮层	-4317
讽刺	-4318
降落	-4319
雇佣	-4320
▁在座	-4321
▁尝试	-4322
▁得到	-4323
▁有点	-4324
▁那就	-4325
不断的	-4326
世界中	-4327
张照片	-4328
领域的	-4329
▁在过去	-4330
心理学家	-4331
99	-4332
PS	-4333
▁。	-4334
▁受	-4335
▁叫	-4336
储存	-4337
区的	-4338
反复	-4339
天堂	-4340
形容	-4341
惩罚	-4342
成熟	-4343
时报	-4344
月球	-4345
聊天	-4346
街头	-4347
魅力	-4348
▁即便	-4349
▁看着	-4350
▁随后	-4351
前所未	-4352
实现的	-4353
指的是	-4354
让大家	-4355
陌生人	-4356
▁你不能	-4357
我们没有	-4358
毫无疑问	-4359
▁起	-4360
不行	-4361
发送	-4362
国内	-4363
在他	-4364
场所	-4365
外星	-4366
大象	-4367
威尔	-4368
生日	-4369
的开	-4370
祈祷	-4371
立即	-4372
膨胀	-4373
英文	-4374
观测	-4375
▁如此	-4376
▁科技	-4377
创新的	-4378
回到了	-4379
我发现	-4380
我喜欢	-4381
的区域	-4382
的反应	-4383
类似于	-4384
说什么	-4385
▁他们有	-4386
▁这张照片	-4387
▁这是因为	-4388
DP	-4389
▁且	-4390
为我	-4391
使你	-4392
剩下	-4393
勇敢	-4394
反射	-4395
广播	-4396
度过	-4397
我被	-4398
有过	-4399
概率	-4400
美分	-4401
见证	-4402
追溯	-4403
遭遇	-4404
▁在你	-4405
▁在此	-4406
▁生物	-4407
个孩子	-4408
到一起	-4409
就没有	-4410
找不到	-4411
是多么	-4412
的人的	-4413
选择的	-4414
▁他们也	-4415
他们自己	-4416
并不知道	-4417
改变世界	-4418
还有很多	-4419
)。	-4420
ak	-4421
ve	-4422
乐趣	-4423
做成	-4424
南部	-4425
姆斯	-4426
学科	-4427
宝宝	-4428
干预	-4429
海底	-4430
结尾	-4431
统一	-4432
阻碍	-4433
页面	-4434
鲸鱼	-4435
▁参与	-4436
干什么	-4437
形成了	-4438
明白了	-4439
的一天	-4440
聪明的	-4441
讲故事	-4442
跟你们	-4443
非常好	-4444
领导人	-4445
aceb	-4446
▁因此我	-4447
▁而现在	-4448
▁要知道	-4449
恐怖分子	-4450
acebook	-4451
22	-4452
▁8	-4453
▁若	-4454
公寓	-4455
区分	-4456
司机	-4457
失望	-4458
幽默	-4459
意料	-4460
所说	-4461
正好	-4462
独特	-4463
相连	-4464
福利	-4465
线上	-4466
联盟	-4467
荷兰	-4468
迈克	-4469
遗憾	-4470
错的	-4471
随时	-4472
▁原因	-4473
不确定	-4474
用这个	-4475
的建筑	-4476
▁不幸的是	-4477
会发生什么	-4478
是什么样的	-4479
st	-4480
》,	-4481
仿佛	-4482
公路	-4483
变为	-4484
台上	-4485
困境	-4486
增强	-4487
完善	-4488
引用	-4489
挣扎	-4490
的手	-4491
种种	-4492
窗户	-4493
脂肪	-4494
舒适	-4495
设立	-4496
ell	-4497
▁政治	-4498
制作的	-4499
剩下的	-4500
又一次	-4501
它们是	-4502
我们把	-4503
有意义	-4504
物理学	-4505
现有的	-4506
自然界	-4507
任何东西	-4508
我们认为	-4509
世界各地的	-4510
上下	-4511
与众	-4512
乐器	-4513
争取	-4514
你看	-4515
去过	-4516
哈拉	-4517
在此	-4518
实时	-4519
康复	-4520
我得	-4521
抱怨	-4522
摧毁	-4523
无比	-4524
月份	-4525
权威	-4526
构成	-4527
玩意	-4528
眼前	-4529
老板	-4530
足以	-4531
集团	-4532
首次	-4533
600	-4534
▁时间	-4535
▁网络	-4536
▁这在	-4537
在印度	-4538
最重要	-4539
的不同	-4540
篇文章	-4541
高尔夫	-4542
经济增长	-4543
▁重	-4544
共有	-4545
参观	-4546
向我	-4547
喜剧	-4548
四处	-4549
外交	-4550
巴黎	-4551
悲伤	-4552
收获	-4553
瑞士	-4554
耳朵	-4555
货币	-4556
首诗	-4557
ber	-4558
▁30	-4559
▁数据	-4560
中心的	-4561
可以被	-4562
比如说	-4563
的主题	-4564
的形式	-4565
的方向	-4566
神奇的	-4567
蓝色的	-4568
谢谢你	-4569
hone	-4570
▁不仅仅	-4571
▁也不是	-4572
任何地方	-4573
资本主义	-4574
▁与此同时	-4575
难以置信的	-4576
非常重要的	-4577
解决这个问题	-4578
▁分	-4579
了它	-4580
产物	-4581
体重	-4582
刚果	-4583
可行	-4584
家乡	-4585
平常	-4586
折叠	-4587
抱歉	-4588
排列	-4589
点的	-4590
算是	-4591
管道	-4592
类型	-4593
80%	-4594
▁50	-4595
▁基于	-4596
▁故事	-4597
他们就	-4598
微小的	-4599
成功了	-4600
根本上	-4601
的事件	-4602
绿色的	-4603
▁然后再	-4604
▁而且我	-4605
我们正在	-4606
▁男	-4607
传输	-4608
大了	-4609
成人	-4610
我来	-4611
折磨	-4612
环绕	-4613
监视	-4614
绘画	-4615
聚会	-4616
计的	-4617
起的	-4618
轻松	-4619
▁一天	-4620
▁也有	-4621
▁当他	-4622
▁新的	-4623
▁没人	-4624
减少了	-4625
可行的	-4626
已经有	-4627
拍摄的	-4628
摄影师	-4629
系统中	-4630
▁但是它	-4631
▁但现在	-4632
▁并没有	-4633
▁然后在	-4634
其他地方	-4635
很有意思	-4636
这样的人	-4637
ah	-4638
▁布	-4639
。(	-4640
一幅	-4641
也没	-4642
借助	-4643
农村	-4644
几千	-4645
只会	-4646
困扰	-4647
媒介	-4648
年中	-4649
开启	-4650
某人	-4651
法庭	-4652
灯泡	-4653
留在	-4654
的说	-4655
神话	-4656
航天	-4657
荧光	-4658
跳舞	-4659
▁决定	-4660
▁这会	-4661
万年前	-4662
专注于	-4663
同时也	-4664
多少人	-4665
心理学	-4666
的结构	-4667
精神病	-4668
让自己	-4669
跟我说	-4670
这也是	-4671
适用于	-4672
▁我真的	-4673
一个例子	-4674
是我们的	-4675
休息	-4676
假如	-4677
偶然	-4678
变异	-4679
可爱	-4680
天花	-4681
就不	-4682
帮忙	-4683
底部	-4684
本地	-4685
气味	-4686
清理	-4687
满了	-4688
独自	-4689
用水	-4690
纪念	-4691
罗马	-4692
详细	-4693
这座	-4694
遍布	-4695
酒店	-4696
队伍	-4697
面部	-4698
革新	-4699
man	-4700
▁以便	-4701
▁关键	-4702
▁怎样	-4703
使用了	-4704
出来了	-4705
和我的	-4706
想一下	-4707
染色体	-4708
的另一	-4709
的存在	-4710
那时候	-4711
▁第一次	-4712
▁这里有	-4713
一个新的	-4714
一种新的	-4715
幸运的是	-4716
恐怖主义	-4717
我们不能	-4718
的人来说	-4719
的可能性	-4720
越来越多的	-4721
65	-4722
ff	-4723
▁噢	-4724
▁简	-4725
下午	-4726
何时	-4727
使命	-4728
创立	-4729
占据	-4730
地震	-4731
太平	-4732
好好	-4733
年间	-4734
数码	-4735
最佳	-4736
机场	-4737
欲望	-4738
的钱	-4739
确认	-4740
营销	-4741
访问	-4742
评价	-4743
调节	-4744
▁不再	-4745
▁今年	-4746
▁他会	-4747
▁你得	-4748
▁宇宙	-4749
▁带着	-4750
▁并在	-4751
▁生活	-4752
▁继续	-4753
与我们	-4754
庞大的	-4755
抗生素	-4756
红色的	-4757
良好的	-4758
▁这里的	-4759
伊斯兰教	-4760
利福尼亚	-4761
▁因为这是	-4762
▁有趣的是	-4763
27	-4764
▁7	-4765
》。	-4766
一套	-4767
一把	-4768
下载	-4769
之类	-4770
乡村	-4771
做个	-4772
即兴	-4773
又是	-4774
含有	-4775
土耳	-4776
应的	-4777
很不	-4778
怀孕	-4779
打击	-4780
批评	-4781
抵抗	-4782
提议	-4783
收益	-4784
放入	-4785
有用	-4786
激进	-4787
过度	-4788
隔离	-4789
▁在他	-4790
▁用于	-4791
▁的确	-4792
▁英国	-4793
中国的	-4794
会怎样	-4795
做这些	-4796
土耳其	-4797
影响力	-4798
很可能	-4799
我还是	-4800
比我们	-4801
的地区	-4802
的基因	-4803
结束了	-4804
▁甚至是	-4805
▁那时候	-4806
世界上的	-4807
发生什么	-4808
oh	-4809
一周	-4810
公布	-4811
写着	-4812
口袋	-4813
可靠	-4814
多个	-4815
我都	-4816
拥抱	-4817
按钮	-4818
搭建	-4819
无数	-4820
水下	-4821
注入	-4822
经典	-4823
走上	-4824
车祸	-4825
▁它将	-4826
▁而你	-4827
一定会	-4828
但是我	-4829
六个月	-4830
数学家	-4831
明显的	-4832
是一件	-4833
更容易	-4834
给了我	-4835
▁顺便说	-4836
一个非常	-4837
年的时间	-4838
找到一个	-4839
▁V	-4840
▁于	-4841
▁拿	-4842
人数	-4843
例外	-4844
创业	-4845
创伤	-4846
到来	-4847
原型	-4848
啤酒	-4849
囚犯	-4850
图形	-4851
夜晚	-4852
巧克	-4853
我又	-4854
振奋	-4855
捐赠	-4856
数千	-4857
服用	-4858
玉米	-4859
看的	-4860
碰到	-4861
童年	-4862
糖尿	-4863
荣幸	-4864
诚实	-4865
▁你是	-4866
▁其次	-4867
▁未来	-4868
为他们	-4869
主要的	-4870
亚马逊	-4871
代表着	-4872
向大家	-4873
她们的	-4874
的同时	-4875
的大小	-4876
的实验	-4877
的科学	-4878
的能量	-4879
英里的	-4880
遇到的	-4881
长时间	-4882
▁我不想	-4883
▁所以他	-4884
哺乳动物	-4885
帮助他们	-4886
来到这里	-4887
爱因斯坦	-4888
给我们的	-4889
ck	-4890
▁则	-4891
▁女	-4892
▁特	-4893
一同	-4894
势力	-4895
匹配	-4896
句子	-4897
可见	-4898
喜爱	-4899
好玩	-4900
学位	-4901
对了	-4902
意的	-4903
我才	-4904
电路	-4905
的心	-4906
祖父	-4907
笑话	-4908
维护	-4909
▁国家	-4910
▁是由	-4911
了下来	-4912
全球化	-4913
对他们	-4914
教育的	-4915
研究中	-4916
2010	-4917
实验室里	-4918
所有人都	-4919
的重要性	-4920
这种方式	-4921
▁但是如果	-4922
▁在我们的	-4923
),	-4924
0.	-4925
▁手	-4926
▁时	-4927
代谢	-4928
六个	-4929
年级	-4930
微软	-4931
病的	-4932
约会	-4933
行了	-4934
视野	-4935
许可	-4936
醒来	-4937
风暴	-4938
鼻子	-4939
▁到底	-4940
▁各种	-4941
▁平均	-4942
▁根本	-4943
▁男人	-4944
不会有	-4945
合适的	-4946
它可以	-4947
小时候	-4948
想到的	-4949
的土地	-4950
的意义	-4951
考虑到	-4952
3000	-4953
▁就像是	-4954
▁当时我	-4955
什么东西	-4956
你知道吗	-4957
这些信息	-4958
▁我们甚至	-4959
▁直	-4960
▁老	-4961
亲密	-4962
以往	-4963
优雅	-4964
协作	-4965
和他	-4966
国王	-4967
完了	-4968
尽量	-4969
引入	-4970
新鲜	-4971
是要	-4972
显得	-4973
演出	-4974
灯光	-4975
猜测	-4976
碎片	-4977
神圣	-4978
缩小	-4979
群岛	-4980
色彩	-4981
解答	-4982
认可	-4983
论者	-4984
说说	-4985
集合	-4986
90%	-4987
▁它也	-4988
▁相比	-4989
以一种	-4990
几分钟	-4991
几十年	-4992
受欢迎	-4993
可不是	-4994
对自己	-4995
小时的	-4996
年之后	-4997
必要的	-4998
接受了	-4999
显而易	-5000
的生命	-5001
科技的	-5002
▁是一种	-5003
最喜欢的	-5004
▁那是一个	-5005
完全不同的	-5006
ud	-5007
一根	-5008
上一	-5009
今晚	-5010
代替	-5011
众笑	-5012
依旧	-5013
决心	-5014
卡车	-5015
尼斯	-5016
工资	-5017
幻想	-5018
幻觉	-5019
感激	-5020
撞击	-5021
文学	-5022
更快	-5023
深海	-5024
点是	-5025
爱好	-5026
用到	-5027
维基	-5028
缓慢	-5029
能否	-5030
能让	-5031
道的	-5032
部长	-5033
预期	-5034
▁寻找	-5035
▁工作	-5036
▁感觉	-5037
亲爱的	-5038
到这里	-5039
只是在	-5040
太平洋	-5041
就是在	-5042
常见的	-5043
数百万	-5044
的活动	-5045
的病人	-5046
5000	-5047
▁我不会	-5048
▁所以当	-5049
▁无论是	-5050
▁这个是	-5051
可以通过	-5052
有趣的是	-5053
看到这个	-5054
▁因为它们	-5055
iPhone	-5056
1.	-5057
一来	-5058
从而	-5059
凌晨	-5060
外界	-5061
存储	-5062
实话	-5063
尴尬	-5064
山脉	-5065
挖掘	-5066
是吧	-5067
极度	-5068
格斯	-5069
桌子	-5070
的不	-5071
轮椅	-5072
通信	-5073
验证	-5074
黄色	-5075
GDP	-5076
▁18	-5077
▁一次	-5078
▁不用	-5079
▁制造	-5080
▁好像	-5081
▁自从	-5082
不是很	-5083
哲学家	-5084
文化的	-5085
生命中	-5086
的组织	-5087
的角色	-5088
证明了	-5089
贫民窟	-5090
选择了	-5091
▁我们得	-5092
▁我决定	-5093
一起工作	-5094
你们知道	-5095
的是一个	-5096
▁这个问题	-5097
某种意义上	-5098
▁但是如果你	-5099
化了	-5100
去找	-5101
司法	-5102
困惑	-5103
字体	-5104
干扰	-5105
情景	-5106
惊叹	-5107
指标	-5108
活力	-5109
消灭	-5110
演化	-5111
看作	-5112
等于	-5113
诗人	-5114
购物	-5115
身为	-5116
还不	-5117
这份	-5118
▁15	-5119
▁你将	-5120
▁总是	-5121
▁是我	-5122
▁更加	-5123
会这样	-5124
保护区	-5125
免费的	-5126
增加了	-5127
实在是	-5128
巧克力	-5129
形式的	-5130
我应该	-5131
改变的	-5132
的人群	-5133
该如何	-5134
运作的	-5135
那个人	-5136
都不会	-5137
▁很明显	-5138
看到这些	-5139
这项技术	-5140
▁花	-5141
下一	-5142
九十	-5143
你将	-5144
依据	-5145
出售	-5146
去到	-5147
向你	-5148
基地	-5149
多元	-5150
实质	-5151
审视	-5152
操纵	-5153
生气	-5154
着陆	-5155
聆听	-5156
雄性	-5157
青年	-5158
韩国	-5159
顶端	-5160
▁不断	-5161
▁之前	-5162
▁你也	-5163
▁否则	-5164
不再是	-5165
史以来	-5166
极大的	-5167
的状态	-5168
研究所	-5169
稳定的	-5170
经历过	-5171
造成了	-5172
▁所有人	-5173
▁百分之	-5174
▁这两个	-5175
像这样的	-5176
化学物质	-5177
我自己的	-5178
有多少人	-5179
▁因为这些	-5180
▁如果你们	-5181
▁而且他们	-5182
"。	-5183
▁·	-5184
一看	-5185
不出	-5186
人权	-5187
你也	-5188
公交	-5189
几周	-5190
博拉	-5191
厉害	-5192
它能	-5193
宇航	-5194
录音	-5195
想着	-5196
成百	-5197
把你	-5198
昂贵	-5199
枪鱼	-5200
游行	-5201
真理	-5202
确切	-5203
第四	-5204
精英	-5205
般的	-5206
要在	-5207
视力	-5208
运营	-5209
透过	-5210
顺序	-5211
额外	-5212
麻痹	-5213
▁产生	-5214
▁对吧	-5215
▁很快	-5216
▁技术	-5217
▁是个	-5218
▁直接	-5219
一百万	-5220
学会了	-5221
的态度	-5222
而来的	-5223
音乐家	-5224
▁这一点	-5225
▁这并不是	-5226
23	-5227
th	-5228
上班	-5229
做点	-5230
地表	-5231
坏了	-5232
大卫	-5233
安慰	-5234
实体	-5235
帝国	-5236
常规	-5237
惊喜	-5238
我爱	-5239
扩散	-5240
拍照	-5241
拜访	-5242
数目	-5243
标题	-5244
棒球	-5245
激活	-5246
男子	-5247
的头	-5248
积累	-5249
被人	-5250
触摸	-5251
财政	-5252
随之	-5253
黑色	-5254
wit	-5255
▁但却	-5256
▁十分	-5257
▁唯一	-5258
▁我得	-5259
▁没错	-5260
▁这条	-5261
不到的	-5262
了他们	-5263
学校的	-5264
数据库	-5265
疯狂的	-5266
起作用	-5267
金枪鱼	-5268
▁什么是	-5269
▁当我在	-5270
你们可以	-5271
笔记本电脑	-5272
26	-5273
。」	-5274
一万	-5275
准则	-5276
将近	-5277
德拉	-5278
意图	-5279
捕食	-5280
支撑	-5281
教徒	-5282
无知	-5283
早晨	-5284
最有	-5285
此刻	-5286
海报	-5287
牙齿	-5288
狮子	-5289
监管	-5290
考试	-5291
西洋	-5292
com	-5293
▁也会	-5294
▁你想	-5295
▁就算	-5296
▁毕竟	-5297
▁由此	-5298
▁那天	-5299
为自己	-5300
了所有	-5301
化合物	-5302
我们用	-5303
的中心	-5304
的使用	-5305
确实是	-5306
这是我	-5307
进入了	-5308
▁但这些	-5309
▁对我们	-5310
▁我甚至	-5311
▁这个人	-5312
是什么呢	-5313
生活方式	-5314
不可思议的	-5315
──	-5316
▁d	-5317
▁非	-5318
举办	-5319
于此	-5320
剧院	-5321
哥伦	-5322
失明	-5323
手里	-5324
捕鱼	-5325
推测	-5326
旅游	-5327
极为	-5328
极限	-5329
永恒	-5330
清单	-5331
特质	-5332
直升	-5333
脱离	-5334
苏联	-5335
萨斯	-5336
这会	-5337
青春	-5338
ich	-5339
▁简单	-5340
▁这将	-5341
参与到	-5342
向我们	-5343
太多的	-5344
年前的	-5345
强烈的	-5346
的大脑	-5347
的核心	-5348
的模式	-5349
的资源	-5350
看不见	-5351
知道了	-5352
那里的	-5353
▁一个是	-5354
▁同时也	-5355
很长时间	-5356
觉得自己	-5357
这种情况	-5358
witter	-5359
RI	-5360
之上	-5361
内在	-5362
单纯	-5363
味道	-5364
哈顿	-5365
岗位	-5366
幸存	-5367
性质	-5368
挪威	-5369
教训	-5370
档案	-5371
法院	-5372
爵士	-5373
绘制	-5374
街区	-5375
足球	-5376
那位	-5377
阶级	-5378
org	-5379
▁Al	-5380
▁你不	-5381
▁视频	-5382
▁这很	-5383
不停地	-5384
了一点	-5385
叙利亚	-5386
我之前	-5387
我必须	-5388
早期的	-5389
最后的	-5390
有一点	-5391
病毒的	-5392
的理解	-5393
问自己	-5394
▁他们把	-5395
▁你现在	-5396
▁全世界	-5397
▁让我来	-5398
纽约时报	-5399
绝大多数	-5400
需要一个	-5401
非常简单	-5402
▁这样我们	-5403
加利福尼亚	-5404
生活在一个	-5405
一无	-5406
不通	-5407
分解	-5408
可乐	-5409
咨询	-5410
四十	-5411
好吗	-5412
富裕	-5413
尔兰	-5414
年内	-5415
打交	-5416
抑制	-5417
抛弃	-5418
指令	-5419
整理	-5420
方块	-5421
无处	-5422
最多	-5423
流程	-5424
温暖	-5425
激光	-5426
照明	-5427
版权	-5428
螺旋	-5429
设定	-5430
谈判	-5431
资产	-5432
镜子	-5433
麻省	-5434
▁像是	-5435
▁我用	-5436
印度的	-5437
史蒂夫	-5438
大小的	-5439
对这些	-5440
曼哈顿	-5441
的一半	-5442
给自己	-5443
网络上	-5444
背后的	-5445
▁我不能	-5446
▁我们正	-5447
岁的孩子	-5448
之间的关系	-5449
▁巴	-5450
▁讲	-5451
上传	-5452
上网	-5453
严格	-5454
乐意	-5455
全身	-5456
典型	-5457
小型	-5458
尾巴	-5459
开源	-5460
想起	-5461
愉快	-5462
撒谎	-5463
来临	-5464
歌曲	-5465
每周	-5466
比喻	-5467
浪漫	-5468
紧急	-5469
脑中	-5470
英寸	-5471
读者	-5472
辈子	-5473
骄傲	-5474
20%	-5475
▁告诉	-5476
你可能	-5477
围绕着	-5478
我今天	-5479
提供的	-5480
潜在的	-5481
环境的	-5482
的人民	-5483
的价值	-5484
纽约市	-5485
美妙的	-5486
起来了	-5487
▁他们不	-5488
一些事情	-5489
为什么不	-5490
你会发现	-5491
所看到的	-5492
没有一个	-5493
▁出	-5494
主导	-5495
了他	-5496
任意	-5497
伴侣	-5498
大大	-5499
她在	-5500
官员	-5501
尼克	-5502
岁了	-5503
微型	-5504
界限	-5505
而不	-5506
请求	-5507
负面	-5508
超市	-5509
这边	-5510
面上	-5511
197	-5512
一无所	-5513
大问题	-5514
学校里	-5515
家公司	-5516
成功地	-5517
我正在	-5518
打印机	-5519
探测器	-5520
的图片	-5521
的效果	-5522
研究了	-5523
是一样的	-5524
▁你们可以	-5525
▁这是一张	-5526
EO	-5527
▁帕	-5528
▁越	-5529
▁近	-5530
一颗	-5531
上百	-5532
交配	-5533
你去	-5534
你得	-5535
像个	-5536
全力	-5537
写道	-5538
外部	-5539
室内	-5540
对手	-5541
床上	-5542
当成	-5543
彗星	-5544
想去	-5545
教导	-5546
果蝇	-5547
核能	-5548
热的	-5549
特网	-5550
著名	-5551
蔬菜	-5552
说道	-5553
轨迹	-5554
餐馆	-5555
▁她在	-5556
▁我又	-5557
▁终于	-5558
三个月	-5559
乳腺癌	-5560
他们能	-5561
众人笑	-5562
你们能	-5563
俄比亚	-5564
做出的	-5565
决定了	-5566
到我们	-5567
听到了	-5568
周围的	-5569
开玩笑	-5570
我不能	-5571
排放量	-5572
收到了	-5573
栖息地	-5574
独立的	-5575
用这些	-5576
的最后	-5577
还记得	-5578
都不是	-5579
▁而他们	-5580
准备好了	-5581
我们希望	-5582
▁但实际上	-5583
▁还有一个	-5584
▁这就意味着	-5585
Al	-5586
ri	-5587
▁买	-5588
人造	-5589
共鸣	-5590
医师	-5591
和谐	-5592
国民	-5593
大海	-5594
它就	-5595
家园	-5596
居然	-5597
开关	-5598
扭曲	-5599
搜寻	-5600
操控	-5601
救援	-5602
时常	-5603
案件	-5604
毫不	-5605
水里	-5606
独裁	-5607
的好	-5608
的长	-5609
等着	-5610
解读	-5611
▁以此	-5612
▁你有	-5613
▁更多	-5614
▁获得	-5615
全球的	-5616
合理的	-5617
在他们	-5618
在未来	-5619
在过去	-5620
工作中	-5621
弄清楚	-5622
政治家	-5623
的事业	-5624
的产品	-5625
的意思	-5626
身上的	-5627
▁但我想	-5628
塞俄比亚	-5629
非常好的	-5630
▁如果你在	-5631
与之	-5632
事的	-5633
伦理	-5634
审查	-5635
对着	-5636
屋子	-5637
底下	-5638
心中	-5639
想说	-5640
把他	-5641
收藏	-5642
最为	-5643
朝鲜	-5644
沃尔	-5645
火山	-5646
火虫	-5647
烹饪	-5648
生病	-5649
瘫痪	-5650
硬件	-5651
良好	-5652
虐待	-5653
血压	-5654
赞助	-5655
这就	-5656
那就	-5657
那边	-5658
邪恶	-5659
酒吧	-5660
▁一定	-5661
▁对此	-5662
▁难道	-5663
丰富的	-5664
参与者	-5665
发生过	-5666
居住在	-5667
撒哈拉	-5668
甚至是	-5669
的主要	-5670
的语言	-5671
社区的	-5672
萤火虫	-5673
NASA	-5674
电子游戏	-5675
聚在一起	-5676
为之	-5677
亲眼	-5678
他会	-5679
入侵	-5680
协会	-5681
发起	-5682
布朗	-5683
当下	-5684
根源	-5685
消极	-5686
短的	-5687
给出	-5688
表格	-5689
要做	-5690
读书	-5691
车辆	-5692
长达	-5693
han	-5694
▁不久	-5695
▁选择	-5696
▁面对	-5697
不存在	-5698
不是在	-5699
了一场	-5700
他们有	-5701
加入了	-5702
却没有	-5703
发出的	-5704
大约有	-5705
建筑的	-5706
是否能	-5707
是没有	-5708
的家庭	-5709
目标是	-5710
糖尿病	-5711
网站上	-5712
詹姆斯	-5713
▁100	-5714
▁他们就	-5715
▁和我们	-5716
做了什么	-5717
就是我们	-5718
种不同的	-5719
这个过程	-5720
▁你可以在	-5721
向你们展示	-5722
联系在一起	-5723
if	-5724
ry	-5725
▁万	-5726
▁左	-5727
▁性	-5728
▁西	-5729
似的	-5730
但我	-5731
再来	-5732
包装	-5733
原料	-5734
头上	-5735
妹妹	-5736
导师	-5737
就业	-5738
年纪	-5739
很酷	-5740
意愿	-5741
截然	-5742
损伤	-5743
树林	-5744
棵树	-5745
永久	-5746
激烈	-5747
现今	-5748
盯着	-5749
群人	-5750
翅膀	-5751
肢体	-5752
蚊帐	-5753
询问	-5754
这片	-5755
震撼	-5756
▁只能	-5757
▁试着	-5758
了什么	-5759
了起来	-5760
伴随着	-5761
坏消息	-5762
大概是	-5763
把你的	-5764
把我的	-5765
样子的	-5766
的唯一	-5767
的网络	-5768
经济学	-5769
能做到	-5770
诸如此	-5771
诺贝尔	-5772
转化为	-5773
▁当人们	-5774
▁我父亲	-5775
全球变暖	-5776
几个小时	-5777
变成一个	-5778
目前为止	-5779
这个国家	-5780
▁而且我们	-5781
我们自己的	-5782
1%	-5783
▁查	-5784
▁电	-5785
▁离	-5786
▁走	-5787
▁转	-5788
主流	-5789
冲击	-5790
分成	-5791
厌恶	-5792
只需	-5793
可怜	-5794
同步	-5795
在做	-5796
地带	-5797
坦白	-5798
家具	-5799
强奸	-5800
手中	-5801
政客	-5802
数百	-5803
暗示	-5804
武装	-5805
添加	-5806
用途	-5807
的电	-5808
目光	-5809
纯粹	-5810
经理	-5811
蔓延	-5812
▁孩子	-5813
▁比起	-5814
▁还要	-5815
了他的	-5816
反应堆	-5817
希格斯	-5818
建立了	-5819
很棒的	-5820
打交道	-5821
斯坦福	-5822
是通过	-5823
死亡的	-5824
的一位	-5825
的游戏	-5826
的看法	-5827
这些小	-5828
重大的	-5829
已经开始	-5830
精神疾病	-5831
解释一下	-5832
那个时候	-5833
▁你会看到	-5834
▁我们就会	-5835
▁我们就能	-5836
▁这个项目	-5837
▁这是我们的	-5838
一所	-5839
也就	-5840
公式	-5841
刚好	-5842
包围	-5843
卢旺	-5844
吃的	-5845
名声	-5846
呼吁	-5847
外线	-5848
大多	-5849
天赋	-5850
姿势	-5851
尊严	-5852
情报	-5853
打造	-5854
挽救	-5855
洛克	-5856
短期	-5857
脑部	-5858
装备	-5859
警告	-5860
谎言	-5861
▁海洋	-5862
一切都	-5863
上百万	-5864
了一下	-5865
了许多	-5866
劳动力	-5867
勒斯坦	-5868
医学院	-5869
卢旺达	-5870
在上面	-5871
大西洋	-5872
成年人	-5873
棒极了	-5874
的增长	-5875
的改变	-5876
的文化	-5877
第二天	-5878
艺术品	-5879
2008	-5880
你就可以	-5881
成为一名	-5882
温室气体	-5883
▁我们都知道	-5884
ev	-5885
ut	-5886
▁w	-5887
▁安	-5888
▁远	-5889
丧失	-5890
买到	-5891
亿个	-5892
共振	-5893
内战	-5894
十二	-5895
反抗	-5896
受益	-5897
含量	-5898
室里	-5899
市长	-5900
忍受	-5901
想出	-5902
手工	-5903
折纸	-5904
整天	-5905
斯卡	-5906
未知	-5907
比尔	-5908
特里	-5909
竞赛	-5910
缺少	-5911
者和	-5912
言论	-5913
遥远	-5914
随便	-5915
随意	-5916
马里	-5917
GPS	-5918
▁仍然	-5919
▁发展	-5920
▁变得	-5921
▁它有	-5922
▁约翰	-5923
▁艺术	-5924
一分钟	-5925
完全是	-5926
将他们	-5927
并不能	-5928
当时的	-5929
提出了	-5930
的时期	-5931
的选择	-5932
看着我	-5933
▁也没有	-5934
发达国家	-5935
对我们的	-5936
职业生涯	-5937
这个数字	-5938
▁我们就可以	-5939
IT	-5940
og	-5941
qu	-5942
▁书	-5943
▁拉	-5944
▁曾	-5945
与我	-5946
主动	-5947
低的	-5948
北美	-5949
发育	-5950
土星	-5951
坏事	-5952
坐着	-5953
姐姐	-5954
带上	-5955
带领	-5956
开来	-5957
当做	-5958
往下	-5959
必然	-5960
担忧	-5961
拍的	-5962
挑选	-5963
新生	-5964
方说	-5965
星星	-5966
晶体	-5967
消防	-5968
终结	-5969
给她	-5970
西亚	-5971
要比	-5972
议题	-5973
讲讲	-5974
谋杀	-5975
鼠标	-5976
50%	-5977
▁Br	-5978
▁具有	-5979
▁声音	-5980
▁所谓	-5981
▁接受	-5982
▁显示	-5983
▁让人	-5984
一会儿	-5985
也一样	-5986
依赖于	-5987
到这个	-5988
副作用	-5989
告诉他	-5990
大气层	-5991
小女孩	-5992
德里克	-5993
无线电	-5994
的目的	-5995
2007	-5996
▁是不是	-5997
▁第三个	-5998
你自己的	-5999
全世界的	-6000
解决方法	-6001
麻省理工	-6002
Facebook	-6003
28	-6004
▁便	-6005
为例	-6006
信用	-6007
公斤	-6008
出口	-6009
品质	-6010
大战	-6011
好比	-6012
对它	-6013
尔德	-6014
废弃	-6015
引力	-6016
放射	-6017
明智	-6018
晚餐	-6019
杀害	-6020
某一	-6021
潜能	-6022
男女	-6023
画的	-6024
的总	-6025
盖茨	-6026
维度	-6027
苍蝇	-6028
蚁群	-6029
越大	-6030
轻易	-6031
逃离	-6032
10%	-6033
ica	-6034
▁12	-6035
▁总之	-6036
▁我去	-6037
你现在	-6038
做任何	-6039
可以说	-6040
在纽约	-6041
城市里	-6042
完全不	-6043
并不会	-6044
很小的	-6045
我决定	-6046
我是个	-6047
所需的	-6048
摄像头	-6049
有力的	-6050
没办法	-6051
的物种	-6052
真正地	-6053
类动物	-6054
细胞的	-6055
Tube	-6056
▁在这种	-6057
一个故事	-6058
电子邮件	-6059
的事情是	-6060
相互作用	-6061
▁他们认为	-6062
▁因为如果	-6063
▁我们只是	-6064
YouTube	-6065
▁Z	-6066
▁各	-6067
▁杰	-6068
不上	-6069
之地	-6070
乌干	-6071
交叉	-6072
今日	-6073
半球	-6074
场合	-6075
声明	-6076
巨型	-6077
常见	-6078
所见	-6079
护理	-6080
早就	-6081
有益	-6082
本能	-6083
模块	-6084
死的	-6085
海水	-6086
牛奶	-6087
猜想	-6088
碰撞	-6089
给它	-6090
耐心	-6091
装饰	-6092
要么	-6093
课题	-6094
车上	-6095
运算	-6096
遭到	-6097
里约	-6098
银河	-6099
马克	-6100
▁从来	-6101
▁位于	-6102
▁放在	-6103
▁电脑	-6104
不过是	-6105
乌干达	-6106
人们会	-6107
从这个	-6108
原来的	-6109
和社会	-6110
学生的	-6111
它们在	-6112
我不会	-6113
这句话	-6114
额外的	-6115
▁不只是	-6116
▁发生在	-6117
哥伦比亚	-6118
很重要的	-6119
我不得不	-6120
的一件事	-6121
的时间里	-6122
神经系统	-6123
这些都是	-6124
这意味着	-6125
对我们来说	-6126
▁你们可以看到	-6127
▁啊	-6128
上方	-6129
使它	-6130
储蓄	-6131
冠军	-6132
包容	-6133
在乎	-6134
处境	-6135
字塔	-6136
季节	-6137
布什	-6138
很高	-6139
旧的	-6140
更深	-6141
理所	-6142
短片	-6143
米的	-6144
衰老	-6145
要素	-6146
议会	-6147
账户	-6148
这件	-6149
196	-6150
ent	-6151
▁事情	-6152
▁和我	-6153
▁教育	-6154
▁有了	-6155
▁让你	-6156
价值的	-6157
你已经	-6158
受到了	-6159
在非洲	-6160
失败了	-6161
奇妙的	-6162
小孩子	-6163
帮我们	-6164
最喜欢	-6165
最近的	-6166
来源于	-6167
的人数	-6168
的关键	-6169
的小孩	-6170
的理论	-6171
的疾病	-6172
目的是	-6173
社会中	-6174
解决了	-6175
让它们	-6176
金字塔	-6177
面对的	-6178
▁但同时	-6179
▁意味着	-6180
▁是什么	-6181
几个星期	-6182
我的朋友	-6183
正是我们	-6184
▁你也可以	-6185
▁我们想要	-6186
▁爱因斯坦	-6187
最重要的是	-6188
▁更重要的是	-6189
▁U	-6190
▁单	-6191
一组	-6192
上述	-6193
业务	-6194
两天	-6195
之心	-6196
交给	-6197
你好	-6198
列表	-6199
史上	-6200
向上	-6201
听见	-6202
唱歌	-6203
对付	-6204
情境	-6205
意志	-6206
战士	-6207
把手	-6208
指示	-6209
汽油	-6210
派对	-6211
深度	-6212
漂浮	-6213
秩序	-6214
立法	-6215
而非	-6216
肥皂	-6217
脸书	-6218
见面	-6219
跑步	-6220
阴影	-6221
预料	-6222
ine	-6223
▁大卫	-6224
▁永远	-6225
了一条	-6226
决定的	-6227
坐下来	-6228
建立在	-6229
我而言	-6230
我说的	-6231
现实中	-6232
的一次	-6233
的人物	-6234
看这个	-6235
研究生	-6236
▁它们在	-6237
▁看上去	-6238
医疗保健	-6239
▁但是现在	-6240
▁你就可以	-6241
▁没有任何	-6242
▁这个故事	-6243
不同的方式	-6244
“。	-6245
▁试	-6246
三倍	-6247
冬天	-6248
力学	-6249
匿名	-6250
参考	-6251
发言	-6252
叔叔	-6253
因子	-6254
塞尔	-6255
市民	-6256
弯曲	-6257
恐怕	-6258
戈尔	-6259
旅途	-6260
更新	-6261
格林	-6262
玛丽	-6263
监测	-6264
直线	-6265
科研	-6266
规范	-6267
误解	-6268
财产	-6269
走过	-6270
路线	-6271
通道	-6272
零件	-6273
震动	-6274
食用	-6275
▁但当	-6276
▁但那	-6277
▁再次	-6278
▁控制	-6279
▁自由	-6280
一个月	-6281
你怎么	-6282
做出了	-6283
制造的	-6284
取得了	-6285
好莱坞	-6286
导致了	-6287
小部分	-6288
工作了	-6289
数字化	-6290
涉及到	-6291
玩游戏	-6292
的功能	-6293
的发现	-6294
的女人	-6295
的帮助	-6296
的这些	-6297
语言的	-6298
质量的	-6299
非洲人	-6300
▁他们将	-6301
▁可能会	-6302
▁它们会	-6303
▁当然了	-6304
不可避免	-6305
完全不同	-6306
无处不在	-6307
看起来很	-6308
▁你能看到	-6309
▁我们通过	-6310
3%	-6311
▁回	-6312
与你	-6313
业的	-6314
众所	-6315
假装	-6316
入了	-6317
关节	-6318
到我	-6319
号码	-6320
善于	-6321
封闭	-6322
座椅	-6323
彼得	-6324
提琴	-6325
摩托	-6326
曲子	-6327
检验	-6328
殖民	-6329
水源	-6330
沉浸	-6331
生殖	-6332
股票	-6333
脸上	-6334
蘑菇	-6335
讲座	-6336
迹象	-6337
问你	-6338
阐述	-6339
降到	-6340
青蛙	-6341
ion	-6342
▁并非	-6343
▁建造	-6344
▁影响	-6345
▁此时	-6346
▁老师	-6347
不愿意	-6348
共同的	-6349
复杂性	-6350
大概有	-6351
失败的	-6352
将它们	-6353
尝试着	-6354
我刚才	-6355
爱尔兰	-6356
的细胞	-6357
的那样	-6358
的需求	-6359
解释了	-6360
过去了	-6361
这只是	-6362
面临着	-6363
▁听起来	-6364
▁和其他	-6365
▁并且在	-6366
▁结果是	-6367
再生能源	-6368
地球上的	-6369
得到一个	-6370
放在一起	-6371
机器人的	-6372
科学研究	-6373
▁他们需要	-6374
▁谢谢你们	-6375
▁Chris	-6376
二的	-6377
促使	-6378
俱乐	-6379
做着	-6380
共识	-6381
加纳	-6382
医药	-6383
十五	-6384
发掘	-6385
地铁	-6386
塔利	-6387
夸张	-6388
它为	-6389
延续	-6390
放松	-6391
替换	-6392
柏林	-6393
欧盟	-6394
死刑	-6395
滑雪	-6396
潜在	-6397
短暂	-6398
礼拜	-6399
竞选	-6400
花在	-6401
躺在	-6402
遇见	-6403
键盘	-6404
颠覆	-6405
飓风	-6406
▁保护	-6407
▁做出	-6408
▁如同	-6409
▁那样	-6410
一个新	-6411
一般的	-6412
两个人	-6413
之一是	-6414
你是否	-6415
内心的	-6416
写了一	-6417
层面上	-6418
我们去	-6419
我当时	-6420
托马斯	-6421
的风险	-6422
第二次	-6423
自己是	-6424
达到了	-6425
▁人类的	-6426
▁我感到	-6427
▁计算机	-6428
令人兴奋	-6429
就是这个	-6430
整个世界	-6431
▁另一方面	-6432
▁另外一个	-6433
前所未有的	-6434
▁如果我们能	-6435
29	-6436
yn	-6437
万年	-6438
不如	-6439
代人	-6440
叫它	-6441
四周	-6442
大声	-6443
密切	-6444
帮你	-6445
干嘛	-6446
强度	-6447
性格	-6448
性能	-6449
排除	-6450
教练	-6451
早的	-6452
构想	-6453
橄榄	-6454
步行	-6455
每秒	-6456
涂鸦	-6457
热衷	-6458
种群	-6459
脑子	-6460
▁各位	-6461
▁它就	-6462
▁形成	-6463
▁很难	-6464
▁持续	-6465
▁观察	-6466
▁这幅	-6467
以上的	-6468
再一次	-6469
可以从	-6470
可以让	-6471
右边的	-6472
大型的	-6473
将会是	-6474
市中心	-6475
很喜欢	-6476
我只是	-6477
我非常	-6478
无人机	-6479
是完全	-6480
每天都	-6481
理查德	-6482
用它来	-6483
的现象	-6484
的视频	-6485
磁共振	-6486
觉得这	-6487
超过了	-6488
追溯到	-6489
那些人	-6490
那些在	-6491
▁他们想	-6492
▁但是他	-6493
▁你不会	-6494
▁我们被	-6495
▁更多的	-6496
▁答案是	-6497
▁过去的	-6498
▁那我们	-6499
我们无法	-6500
正在发生	-6501
生活中的	-6502
的方式来	-6503
结合起来	-6504
这个系统	-6505
这些照片	-6506
▁我不得不	-6507
▁所以现在	-6508
8%	-6509
ee	-6510
ro	-6511
▁六	-6512
▁连	-6513
一间	-6514
中产	-6515
买了	-6516
事儿	-6517
体积	-6518
助于	-6519
单元	-6520
危害	-6521
名单	-6522
周末	-6523
周边	-6524
四种	-6525
场上	-6526
局的	-6527
当的	-6528
性地	-6529
我只	-6530
我把	-6531
战胜	-6532
手的	-6533
拿起	-6534
搜集	-6535
斯科	-6536
是以	-6537
景观	-6538
桌上	-6539
楼梯	-6540
正式	-6541
由此	-6542
白天	-6543
纸上	-6544
线索	-6545
羞耻	-6546
迁移	-6547
预言	-6548
麻醉	-6549
40%	-6550
▁建筑	-6551
▁很好	-6552
▁真是	-6553
▁记录	-6554
▁都能	-6555
人们对	-6556
众所周	-6557
历史的	-6558
可能有	-6559
我想到	-6560
理性的	-6561
的发生	-6562
结果是	-6563
获得的	-6564
▁一开始	-6565
▁他们被	-6566
▁但这是	-6567
▁你应该	-6568
▁因为她	-6569
▁我还是	-6570
▁真正的	-6571
▁这让我	-6572
▁那是在	-6573
了一系列	-6574
巴勒斯坦	-6575
很感兴趣	-6576
成百上千	-6577
更多的人	-6578
看到一个	-6579
站在这里	-6580
这种方法	-6581
▁但我认为	-6582
▁如果没有	-6583
",	-6584
32	-6585
▁古	-6586
▁得	-6587
▁飞	-6588
万物	-6589
两周	-6590
中去	-6591
乳房	-6592
五千	-6593
候选	-6594
全面	-6595
几次	-6596
初期	-6597
十字	-6598
协助	-6599
卓越	-6600
历山	-6601
压缩	-6602
各地	-6603
味的	-6604
命令	-6605
哥哥	-6606
垂直	-6607
头的	-6608
射线	-6609
尼尔	-6610
所作	-6611
提问	-6612
智力	-6613
术语	-6614
极大	-6615
滥用	-6616
牛津	-6617
特兰	-6618
男士	-6619
相处	-6620
硅谷	-6621
读到	-6622
车里	-6623
辆车	-6624
边境	-6625
队员	-6626
雌性	-6627
顶部	-6628
首席	-6629
高级	-6630
all	-6631
ohn	-6632
▁以前	-6633
▁有的	-6634
一本书	-6635
之后的	-6636
他们都	-6637
回来了	-6638
处理器	-6639
很高兴	-6640
想一想	-6641
或者说	-6642
抑郁症	-6643
提出的	-6644
数量的	-6645
最高的	-6646
的价格	-6647
的办法	-6648
跟我们	-6649
还不够	-6650
项目的	-6651
▁大家都	-6652
▁我并不	-6653
▁我想说	-6654
▁把它们	-6655
▁现在你	-6656
公共空间	-6657
应用程序	-6658
我们看到	-6659
所有东西	-6660
的原因是	-6661
高尔夫球	-6662
▁他们没有	-6663
更重要的是	-6664
▁后	-6665
不大	-6666
不清	-6667
丛林	-6668
以此	-6669
优先	-6670
供给	-6671
偶尔	-6672
及其	-6673
大厦	-6674
天哪	-6675
官方	-6676
实用	-6677
封信	-6678
尊敬	-6679
尚未	-6680
尸体	-6681
已有	-6682
引领	-6683
揭示	-6684
效益	-6685
斯拉	-6686
权的	-6687
棉花	-6688
没能	-6689
点儿	-6690
痴呆	-6691
社群	-6692
突变	-6693
解剖	-6694
追寻	-6695
避孕	-6696
那一	-6697
顾问	-6698
ind	-6699
▁国际	-6700
▁基因	-6701
▁她是	-6702
▁民主	-6703
▁现代	-6704
▁要是	-6705
▁让它	-6706
一定是	-6707
也不能	-6708
了解的	-6709
你没有	-6710
做不到	-6711
在很多	-6712
好奇心	-6713
对我的	-6714
弄明白	-6715
怎么说	-6716
想办法	-6717
我们又	-6718
最多的	-6719
环境下	-6720
的一生	-6721
的人都	-6722
的音乐	-6723
相似的	-6724
这方面	-6725
领导力	-6726
▁199	-6727
▁仅仅是	-6728
▁科学家	-6729
也是如此	-6730
外科医生	-6731
它是一个	-6732
有这样的	-6733
社交媒体	-6734
至关重要	-6735
这么做了	-6736
▁作为一名	-6737
▁在我看来	-6738
▁我有一个	-6739
做到这一点	-6740
pp	-6741
▁早	-6742
三明	-6743
不住	-6744
也被	-6745
从没	-6746
减轻	-6747
几何	-6748
卡片	-6749
同学	-6750
否认	-6751
回复	-6752
奋斗	-6753
奶奶	-6754
寄生	-6755
布拉	-6756
幼儿	-6757
延长	-6758
思路	-6759
损害	-6760
方程	-6761
无穷	-6762
暂时	-6763
架构	-6764
泡沫	-6765
注册	-6766
测序	-6767
渠道	-6768
灰质	-6769
监禁	-6770
盲人	-6771
看得	-6772
西部	-6773
要花	-6774
议员	-6775
贩卖	-6776
选项	-6777
里达	-6778
错觉	-6779
▁基本	-6780
▁我跟	-6781
▁欧洲	-6782
▁答案	-6783
什么的	-6784
你应该	-6785
包含了	-6786
帮助我	-6787
开始在	-6788
开放的	-6789
很清楚	-6790
想法是	-6791
用一种	-6792
的机器	-6793
的科技	-6794
经历的	-6795
而言之	-6796
自己在	-6797
被称作	-6798
还需要	-6799
重要性	-6800
飞行员	-6801
2009	-6802
▁其他的	-6803
不一样的	-6804
不幸的是	-6805
二十世纪	-6806
在过去的	-6807
开始思考	-6808
很有可能	-6809
▁因为这个	-6810
埃塞俄比亚	-6811
▁我们不知道	-6812
St	-6813
▁Y	-6814
不及	-6815
不论	-6816
亲自	-6817
介入	-6818
仍在	-6819
会上	-6820
低于	-6821
修建	-6822
修改	-6823
克拉	-6824
双方	-6825
反而	-6826
吃饭	-6827
多次	-6828
察觉	-6829
废物	-6830
开采	-6831
校园	-6832
汉堡	-6833
海滩	-6834
牧师	-6835
生育	-6836
病菌	-6837
痕迹	-6838
知觉	-6839
膝盖	-6840
节约	-6841
讯息	-6842
辅助	-6843
通往	-6844
阴道	-6845
鞋子	-6846
700	-6847
800	-6848
▁信息	-6849
▁公司	-6850
▁既然	-6851
▁是从	-6852
三明治	-6853
了一种	-6854
人口的	-6855
从来没	-6856
吸引力	-6857
在他的	-6858
地图上	-6859
太好了	-6860
我不想	-6861
接受的	-6862
文化中	-6863
方式来	-6864
更高的	-6865
有多大	-6866
玩意儿	-6867
的决定	-6868
种类的	-6869
结束后	-6870
行不通	-6871
长大的	-6872
问他们	-6873
▁And	-6874
▁不管是	-6875
▁他们能	-6876
▁我们先	-6877
▁然后把	-6878
为什么会	-6879
举个例子	-6880
另一方面	-6881
我的演讲	-6882
这个话题	-6883
这件事情	-6884
▁就是这个	-6885
HI	-6886
iv	-6887
产量	-6888
催产	-6889
到你	-6890
印第	-6891
嫉妒	-6892
孤儿	-6893
强制	-6894
当初	-6895
慷慨	-6896
新兴	-6897
明星	-6898
显现	-6899
球员	-6900
电线	-6901
疯了	-6902
看成	-6903
硬币	-6904
结局	-6905
荣誉	-6906
补充	-6907
设法	-6908
词语	-6909
说出	-6910
这也	-6911
这块	-6912
陆地	-6913
雨水	-6914
风景	-6915
风能	-6916
ert	-6917
ran	-6918
▁代表	-6919
▁女人	-6920
▁学校	-6921
人心的	-6922
他们也	-6923
你就能	-6924
使用它	-6925
共同点	-6926
天然气	-6927
存在了	-6928
实现了	-6929
就是我	-6930
年时间	-6931
很奇怪	-6932
我不是	-6933
暗物质	-6934
最后一	-6935
服务器	-6936
每小时	-6937
的女孩	-6938
的电影	-6939
的社区	-6940
的能源	-6941
表现出	-6942
要做的	-6943
认为的	-6944
里面的	-6945
▁他们对	-6946
▁在他们	-6947
▁最大的	-6948
▁机器人	-6949
▁这就像	-6950
▁那里的	-6951
任何时候	-6952
对于我们	-6953
我的生活	-6954
治疗方法	-6955
理所当然	-6956
维基百科	-6957
成千上万的	-6958
我们的大脑	-6959
ug	-6960
▁个	-6961
▁取	-6962
▁哈	-6963
▁画	-6964
不受	-6965
二战	-6966
吃了	-6967
对应	-6968
底层	-6969
得上	-6970
普及	-6971
暴露	-6972
次的	-6973
正面	-6974
比我	-6975
的有	-6976
简化	-6977
肉眼	-6978
航行	-6979
要把	-6980
诉讼	-6981
amp	-6982
▁他就	-6983
▁保持	-6984
▁制作	-6985
▁当今	-6986
▁某些	-6987
▁每当	-6988
▁汽车	-6989
▁等等	-6990
▁说到	-6991
催产素	-6992
印第安	-6993
孟加拉	-6994
我父亲	-6995
拥有了	-6996
故事的	-6997
是真的	-6998
条件下	-6999
来到了	-7000
深刻的	-7001
犹太人	-7002
理解的	-7003
的理念	-7004
给人们	-7005
舞台上	-7006
行为的	-7007
见过的	-7008
让这些	-7009
际关系	-7010
集中在	-7011
非政府	-7012
4000	-7013
▁下一个	-7014
▁不同的	-7015
▁你看到	-7016
▁很显然	-7017
▁我是个	-7018
▁是如何	-7019
▁这些都	-7020
▁这并不	-7021
与众不同	-7022
交通工具	-7023
他们没有	-7024
唯一一个	-7025
就是这么	-7026
所带来的	-7027
拉丁美洲	-7028
电视节目	-7029
的孩子们	-7030
精神分裂	-7031
这是一种	-7032
这是什么	-7033
▁所以我就	-7034
▁我们称之为	-7035
47	-7036
PA	-7037
▁地	-7038
▁超	-7039
。。	-7040
一头	-7041
不着	-7042
乘客	-7043
了吧	-7044
代的	-7045
仿生	-7046
倾斜	-7047
光的	-7048
分数	-7049
前景	-7050
北京	-7051
古怪	-7052
启示	-7053
图画	-7054
在家	-7055
复活	-7056
姥鲨	-7057
客观	-7058
尽力	-7059
感恩	-7060
慈悲	-7061
我曾	-7062
投影	-7063
排序	-7064
文本	-7065
斯顿	-7066
方形	-7067
残酷	-7068
热量	-7069
特技	-7070
甲烷	-7071
称呼	-7072
组建	-7073
能为	-7074
自私	-7075
节省	-7076
西兰	-7077
访谈	-7078
逮捕	-7079
阶层	-7080
高达	-7081
120	-7082
ers	-7083
▁St	-7084
▁但也	-7085
▁但她	-7086
▁媒体	-7087
▁实际	-7088
▁家庭	-7089
▁往往	-7090
▁照片	-7091
为基础	-7092
会产生	-7093
具体的	-7094
可以是	-7095
我想说	-7096
更喜欢	-7097
有用的	-7098
来这里	-7099
核武器	-7100
直升机	-7101
罗里达	-7102
脑海中	-7103
自我的	-7104
苏格兰	-7105
见到了	-7106
转移到	-7107
▁DNA	-7108
▁不知道	-7109
▁但它们	-7110
▁另一种	-7111
▁和一个	-7112
▁地球上	-7113
▁而且它	-7114
▁许多人	-7115
你会看到	-7116
做了一些	-7117
工作人员	-7118
非常有趣	-7119
▁我并不是	-7120
▁我第一次	-7121
▁所以如果你	-7122
Twitter	-7123
▁找	-7124
▁按	-7125
▁约	-7126
▁进	-7127
两位	-7128
中所	-7129
主人	-7130
之旅	-7131
之路	-7132
乐团	-7133
人均	-7134
全是	-7135
养殖	-7136
冰箱	-7137
分别	-7138
创办	-7139
十万	-7140
受过	-7141
培育	-7142
始于	-7143
子和	-7144
射击	-7145
就算	-7146
引人	-7147
拿走	-7148
持人	-7149
捕捞	-7150
文献	-7151
演唱	-7152
演说	-7153
煤炭	-7154
畏惧	-7155
的车	-7156
看似	-7157
穿上	-7158
线路	-7159
终极	-7160
融化	-7161
语音	-7162
诱惑	-7163
适用	-7164
造就	-7165
重力	-7166
问道	-7167
250	-7168
▁一只	-7169
▁他被	-7170
▁允许	-7171
▁几年	-7172
▁坐在	-7173
▁我爱	-7174
▁比尔	-7175
▁注意	-7176
▁语言	-7177
▁达到	-7178
▁针对	-7179
一半的	-7180
固定的	-7181
大爆炸	-7182
奥巴马	-7183
女人的	-7184
年代的	-7185
建立起	-7186
新技术	-7187
转变为	-7188
这个小	-7189
▁不需要	-7190
▁可能是	-7191
▁女士们	-7192
▁让人们	-7193
兄弟姐妹	-7194
全球性的	-7195
各种各样	-7196
大部分人	-7197
我们人类	-7198
我们想要	-7199
我是一个	-7200
现在已经	-7201
的世界里	-7202
的大部分	-7203
看起来像	-7204
组成部分	-7205
该怎么办	-7206
野生动物	-7207
是一个非常	-7208
▁最重要的是	-7209
▁弗	-7210
一支	-7211
不必	-7212
两千	-7213
你从	-7214
分支	-7215
卡通	-7216
向下	-7217
回了	-7218
图上	-7219
坐下	-7220
多德	-7221
大厅	-7222
失业	-7223
封面	-7224
尔特	-7225
带给	-7226
录制	-7227
得起	-7228
总值	-7229
恶劣	-7230
恶心	-7231
提及	-7232
放置	-7233
是指	-7234
氏度	-7235
深远	-7236
理智	-7237
粪便	-7238
维亚	-7239
编织	-7240
耶稣	-7241
草原	-7242
荒谬	-7243
行驶	-7244
让她	-7245
转折	-7246
这台	-7247
通用	-7248
遗产	-7249
钥匙	-7250
饥荒	-7251
▁按照	-7252
▁提高	-7253
▁理解	-7254
▁经常	-7255
▁运用	-7256
▁这只	-7257
▁连接	-7258
一点儿	-7259
两件事	-7260
也同样	-7261
事实是	-7262
你想要	-7263
停车场	-7264
关键的	-7265
它们会	-7266
工作室	-7267
我真的	-7268
投资者	-7269
最初的	-7270
独一无	-7271
的家伙	-7272
的联系	-7273
空间的	-7274
简单地	-7275
联系的	-7276
花费了	-7277
英格兰	-7278
都是在	-7279
银河系	-7280
▁the	-7281
▁你也许	-7282
▁如果有	-7283
▁我们再	-7284
▁然后是	-7285
▁这件事	-7286
一个国家	-7287
一无所知	-7288
一系列的	-7289
其他国家	-7290
工业革命	-7291
显而易见	-7292
每个人的	-7293
的机器人	-7294
统计数据	-7295
▁我们怎么	-7296
▁这样一来	-7297
到底是什么	-7298
em	-7299
▁–	-7300
▁某	-7301
。)	-7302
三天	-7303
不堪	-7304
不已	-7305
中被	-7306
交响	-7307
兰克	-7308
前提	-7309
十个	-7310
可不	-7311
命名	-7312
回头	-7313
回归	-7314
审判	-7315
寒冷	-7316
对其	-7317
就此	-7318
峡谷	-7319
干旱	-7320
廉价	-7321
恶化	-7322
接到	-7323
推荐	-7324
提示	-7325
教科	-7326
更像	-7327
更少	-7328
有毒	-7329
气泡	-7330
洗衣	-7331
电流	-7332
登上	-7333
磁场	-7334
简洁	-7335
粗糙	-7336
肤色	-7337
行道	-7338
转动	-7339
输出	-7340
马丁	-7341
Mar	-7342
ack	-7343
har	-7344
▁努力	-7345
▁发生	-7346
▁学生	-7347
▁神经	-7348
▁记住	-7349
下一步	-7350
不仅是	-7351
个世纪	-7352
了出来	-7353
从这里	-7354
俱乐部	-7355
关注的	-7356
出色的	-7357
制造出	-7358
学习的	-7359
小行星	-7360
把所有	-7361
提一下	-7362
搞清楚	-7363
是否有	-7364
普通人	-7365
没有被	-7366
没问题	-7367
白色的	-7368
的男人	-7369
能够在	-7370
自由的	-7371
表面上	-7372
讲的是	-7373
马拉松	-7374
1960	-7375
avid	-7376
▁一个人	-7377
▁人们在	-7378
▁只需要	-7379
▁来自于	-7380
▁生活在	-7381
宗教信仰	-7382
我的同事	-7383
研究人员	-7384
▁可以看到	-7385
▁幸运的是	-7386
▁我们将会	-7387
▁所以如果	-7388
▁所以这个	-7389
▁还有一些	-7390
是什么样子	-7391
▁我们可以看到	-7392
CA	-7393
业余	-7394
何处	-7395
兰经	-7396
在哪	-7397
孩童	-7398
宝贝	-7399
害的	-7400
岛上	-7401
异的	-7402
征服	-7403
怀特	-7404
总会	-7405
持有	-7406
搞笑	-7407
摩尔	-7408
无需	-7409
既然	-7410
早已	-7411
明年	-7412
桥梁	-7413
沼泽	-7414
率的	-7415
约束	-7416
致的	-7417
蛋糕	-7418
返回	-7419
遵守	-7420
里克	-7421
零和	-7422
70%	-7423
▁它被	-7424
▁我猜	-7425
▁确保	-7426
▁绝对	-7427
了一项	-7428
区域的	-7429
去了解	-7430
和你的	-7431
在那个	-7432
埃博拉	-7433
塔利班	-7434
就在于	-7435
应用到	-7436
是对的	-7437
生产力	-7438
的几率	-7439
的美国	-7440
设计了	-7441
这两种	-7442
这些是	-7443
黄色的	-7444
▁你怎么	-7445
刚刚开始	-7446
最基本的	-7447
给了我们	-7448
这部电影	-7449
采取行动	-7450
▁这个世界	-7451
▁这些东西	-7452
我们的孩子	-7453
▁这也是为什么	-7454
48	-7455
aw	-7456
▁心	-7457
▁恩	-7458
▁美	-7459
一层	-7460
不动	-7461
不良	-7462
书的	-7463
剑桥	-7464
加强	-7465
加快	-7466
加热	-7467
又会	-7468
可视	-7469
大胆	-7470
夫妇	-7471
女子	-7472
小学	-7473
应付	-7474
庞大	-7475
当前	-7476
微博	-7477
总体	-7478
患上	-7479
成效	-7480
提前	-7481
支出	-7482
故意	-7483
旅馆	-7484
月的	-7485
杀了	-7486
来回	-7487
板球	-7488
此类	-7489
水果	-7490
滑板	-7491
病例	-7492
真空	-7493
科幻	-7494
空白	-7495
立场	-7496
营利	-7497
藏在	-7498
被迫	-7499
要用	-7500
觅食	-7501
说不	-7502
赢了	-7503
走廊	-7504
防御	-7505
频繁	-7506
马达	-7507
魔法	-7508
▁一边	-7509
▁马克	-7510
低成本	-7511
你觉得	-7512
十年里	-7513
原始的	-7514
实际的	-7515
寻常的	-7516
就有了	-7517
市场的	-7518
帮助你	-7519
我们正	-7520
战争的	-7521
有一位	-7522
有效地	-7523
此之外	-7524
癌症的	-7525
的儿童	-7526
的学校	-7527
称它为	-7528
经济的	-7529
网络的	-7530
这里有	-7531
食物链	-7532
高科技	-7533
麦克风	-7534
▁他们还	-7535
▁而那些	-7536
▁这正是	-7537
一件事情	-7538
做得更好	-7539
到另一个	-7540
在我看来	-7541
我在这里	-7542
拥有一个	-7543
解决办法	-7544
这个东西	-7545
▁我在这里	-7546
▁我认为这	-7547
▁而是因为	-7548
可再生能源	-7549
1,	-7550
In	-7551
▁伊	-7552
▁传	-7553
」。	-7554
上说	-7555
不得	-7556
丢失	-7557
临时	-7558
举行	-7559
事务	-7560
从我	-7561
他就	-7562
出自	-7563
剥夺	-7564
发了	-7565
听听	-7566
听着	-7567
和她	-7568
圆形	-7569
声称	-7570
好多	-7571
妥协	-7572
子弹	-7573
家们	-7574
容忍	-7575
很像	-7576
想让	-7577
把握	-7578
有利	-7579
有很	-7580
机的	-7581
海啸	-7582
海地	-7583
温和	-7584
灵长	-7585
电极	-7586
画画	-7587
留言	-7588
等同	-7589
聚焦	-7590
肩膀	-7591
脊椎	-7592
蒙特	-7593
跨国	-7594
过头	-7595
逆转	-7596
遥控	-7597
那条	-7598
音符	-7599
首要	-7600
▁25	-7601
▁共同	-7602
▁哪怕	-7603
▁当地	-7604
▁想像	-7605
▁我为	-7606
▁身体	-7607
会不会	-7608
你们都	-7609
全球性	-7610
发现在	-7611
合作的	-7612
外星人	-7613
已经是	-7614
希望的	-7615
我去了	-7616
放弃了	-7617
暴力的	-7618
最新的	-7619
机构的	-7620
来说是	-7621
演讲者	-7622
现实的	-7623
的成功	-7624
目的地	-7625
程度的	-7626
观察到	-7627
角度看	-7628
▁一方面	-7629
▁互联网	-7630
▁我以为	-7631
▁突然间	-7632
▁这其实	-7633
你知道的	-7634
发生的事	-7635
国家安全	-7636
墨西哥湾	-7637
怎样才能	-7638
有更多的	-7639
生产总值	-7640
这个地方	-7641
这样一种	-7642
erson	-7643
▁以及其他	-7644
▁但是这些	-7645
▁它是一种	-7646
▁在接下来的	-7647
▁如果我们可以	-7648
-3	-7649
▁七	-7650
▁八	-7651
▁贝	-7652
一堆	-7653
一对	-7654
一模	-7655
一路	-7656
两条	-7657
中文	-7658
举动	-7659
也要	-7660
书中	-7661
亚当	-7662
付诸	-7663
借口	-7664
发行	-7665
叙述	-7666
善良	-7667
器的	-7668
复兴	-7669
够了	-7670
姑娘	-7671
宣称	-7672
岛屿	-7673
帐篷	-7674
必需	-7675
感动	-7676
愿景	-7677
戴着	-7678
托邦	-7679
无可	-7680
泡泡	-7681
消化	-7682
清醒	-7683
用作	-7684
用品	-7685
盈利	-7686
细微	-7687
置于	-7688
触及	-7689
诠释	-7690
资讯	-7691
车库	-7692
随后	-7693
骨架	-7694
195	-7695
▁也能	-7696
▁动物	-7697
▁至于	-7698
▁要求	-7699
不好的	-7700
你认为	-7701
变化的	-7702
可以把	-7703
可爱的	-7704
向他们	-7705
如此之	-7706
宇航员	-7707
开始做	-7708
引起了	-7709
很好地	-7710
总是在	-7711
成长的	-7712
提到了	-7713
数据的	-7714
是多少	-7715
熟悉的	-7716
癌细胞	-7717
的知识	-7718
积极的	-7719
能不能	-7720
▁之所以	-7721
▁但其实	-7722
▁因为那	-7723
▁就是说	-7724
▁那是我	-7725
一个朋友	-7726
中的一些	-7727
合作伙伴	-7728
有史以来	-7729
角度来看	-7730
谢谢大家	-7731
这样的事	-7732
▁我一直在	-7733
▁还有很多	-7734
▁顺便说一下	-7735
2%	-7736
▁教	-7737
一篇	-7738
一道	-7739
一面	-7740
不被	-7741
乐高	-7742
人为	-7743
人是	-7744
人道	-7745
作曲	-7746
你对	-7747
写下	-7748
分为	-7749
加以	-7750
动手	-7751
升级	-7752
发作	-7753
发的	-7754
同伴	-7755
后悔	-7756
呆在	-7757
城镇	-7758
太太	-7759
实地	-7760
实行	-7761
导演	-7762
就越	-7763
帽子	-7764
弟弟	-7765
我用	-7766
抉择	-7767
抵达	-7768
拇指	-7769
指责	-7770
授权	-7771
探究	-7772
接种	-7773
搬到	-7774
放下	-7775
明的	-7776
此时	-7777
渔业	-7778
相遇	-7779
笔钱	-7780
累积	-7781
线条	-7782
经费	-7783
结核	-7784
肝脏	-7785
船上	-7786
蟑螂	-7787
论点	-7788
都市	-7789
重塑	-7790
,20	-7791
les	-7792
▁为何	-7793
▁也不	-7794
▁他还	-7795
▁布鲁	-7796
▁我真	-7797
▁环境	-7798
▁站在	-7799
▁简直	-7800
▁西方	-7801
▁还能	-7802
为一个	-7803
也知道	-7804
也许是	-7805
产品的	-7806
你不会	-7807
出生的	-7808
在全球	-7809
接触到	-7810
是否会	-7811
是来自	-7812
显示了	-7813
男人的	-7814
百万人	-7815
的教育	-7816
的权利	-7817
科学和	-7818
第一步	-7819
纪录片	-7820
脑子里	-7821
这一个	-7822
这样说	-7823
青春期	-7824
▁但这个	-7825
▁你就能	-7826
▁即使是	-7827
▁在那个	-7828
▁好消息	-7829
▁有没有	-7830
▁然后就	-7831
▁现在是	-7832
▁这都是	-7833
从根本上	-7834
知道如何	-7835
这个概念	-7836
非常简单的	-7837
▁让我们看看	-7838
2.	-7839
▁卖	-7840
▁生	-7841
专辑	-7842
中来	-7843
乌鸦	-7844
人才	-7845
仍旧	-7846
从前	-7847
充斥	-7848
八十	-7849
冰山	-7850
变了	-7851
和水	-7852
品种	-7853
唱片	-7854
地址	-7855
多大	-7856
奥斯	-7857
广阔	-7858
强壮	-7859
当代	-7860
我没	-7861
挂在	-7862
排名	-7863
推出	-7864
推断	-7865
法的	-7866
焦点	-7867
疫情	-7868
诸如	-7869
财务	-7870
路径	-7871
远程	-7872
逐步	-7873
造出	-7874
郊区	-7875
问了	-7876
骆驼	-7877
▁为此	-7878
▁加上	-7879
▁当它	-7880
▁电子	-7881
▁纽约	-7882
▁这不	-7883
一定的	-7884
下面的	-7885
了一件	-7886
从哪里	-7887
以至于	-7888
共和党	-7889
到现在	-7890
参加了	-7891
发明的	-7892
名字是	-7893
回到家	-7894
因特网	-7895
在英国	-7896
就已经	-7897
工程学	-7898
是人类	-7899
来进行	-7900
每一天	-7901
给你的	-7902
解决的	-7903
迈克尔	-7904
附近的	-7905
▁事实是	-7906
▁但不是	-7907
▁你觉得	-7908
▁再一次	-7909
▁在这一	-7910
▁我们只	-7911
▁我总是	-7912
▁我正在	-7913
▁我看着	-7914
▁这对于	-7915
做什么呢	-7916
到我们的	-7917
变得更好	-7918
就像这样	-7919
我们今天	-7920
是怎样的	-7921
远的地方	-7922
▁你知道吗	-7923
▁我们相信	-7924
在座的各位	-7925
,3	-7926
BM	-7927
▁s	-7928
▁米	-7929
▁路	-7930
▁黑	-7931
不信	-7932
不然	-7933
不该	-7934
从头	-7935
优化	-7936
克的	-7937
冰层	-7938
分割	-7939
切的	-7940
卡尔	-7941
国防	-7942
在上	-7943
在意	-7944
地在	-7945
坏的	-7946
外国	-7947
奇的	-7948
孤立	-7949
巴胺	-7950
微小	-7951
感的	-7952
指向	-7953
榜样	-7954
泄漏	-7955
洗手	-7956
灌输	-7957
状物	-7958
状的	-7959
短短	-7960
线的	-7961
肖像	-7962
苦难	-7963
货物	-7964
足的	-7965
难度	-7966
预计	-7967
首都	-7968
高峰	-7969
▁与其	-7970
▁人口	-7971
▁他把	-7972
▁到处	-7973
▁完成	-7974
▁展示	-7975
▁左边	-7976
▁讨论	-7977
一起来	-7978
中国人	-7979
什么样	-7980
传染病	-7981
先进的	-7982
十年前	-7983
回答说	-7984
好朋友	-7985
年开始	-7986
幸存者	-7987
建立的	-7988
感到很	-7989
昂贵的	-7990
有人说	-7991
样东西	-7992
演讲的	-7993
照相机	-7994
的一段	-7995
的形状	-7996
的挑战	-7997
相应的	-7998
看到它	-7999
要知道	-8000
重点是	-8001
长期的	-8002
降低了	-8003
2006	-8004
▁他是个	-8005
▁在座的	-8006
▁差不多	-8007
▁有一次	-8008
▁而这是	-8009
一个孩子	-8010
一样东西	-8011
临床试验	-8012
之一就是	-8013
什么地方	-8014
任何事情	-8015
你的身体	-8016
使用这些	-8017
其他人的	-8018
利用这些	-8019
参与其中	-8020
怎么可能	-8021
我意识到	-8022
所有人的	-8023
所需要的	-8024
诸如此类	-8025
还有一些	-8026
这些孩子	-8027
这是我的	-8028
▁你们可能	-8029
▁就是我们	-8030
可持续发展	-8031
ne	-8032
▁红	-8033
▁达	-8034
五百	-8035
党派	-8036
全新	-8037
关乎	-8038
冷却	-8039
几种	-8040
出色	-8041
华尔	-8042
占领	-8043
又有	-8044
右手	-8045
图的	-8046
小镇	-8047
摇滚	-8048
救助	-8049
是吗	-8050
智商	-8051
更长	-8052
朝着	-8053
残忍	-8054
毫米	-8055
汤姆	-8056
濒临	-8057
牛顿	-8058
男生	-8059
监督	-8060
直径	-8061
瞄准	-8062
砍伐	-8063
等到	-8064
等级	-8065
职责	-8066
船只	-8067
起点	-8068
越南	-8069
这将	-8070
高于	-8071
鸿沟	-8072
60%	-8073
911	-8074
ore	-8075
▁KB	-8076
▁一点	-8077
▁儿童	-8078
▁全部	-8079
▁收集	-8080
▁最初	-8081
▁石油	-8082
▁而当	-8083
一个大	-8084
为你们	-8085
了一份	-8086
些时候	-8087
人生的	-8088
从来不	-8089
准确的	-8090
历山大	-8091
在哪儿	-8092
增长的	-8093
完全的	-8094
对那些	-8095
就好像	-8096
就是个	-8097
灰质炎	-8098
的政治	-8099
的艺术	-8100
都不能	-8101
非常棒	-8102
▁Mar	-8103
▁但是当	-8104
▁它不是	-8105
▁我们和	-8106
▁我们说	-8107
了自己的	-8108
你看到的	-8109
做的一切	-8110
参与进来	-8111
怎么做呢	-8112
无论如何	-8113
有不同的	-8114
根本没有	-8115
▁我们一直	-8116
我们就可以	-8117
是很重要的	-8118
百分之九十	-8119
脊髓灰质炎	-8120
解决的问题	-8121
“,	-8122
▁:	-8123
▁X	-8124
▁m	-8125
▁麦	-8126
三次	-8127
买的	-8128
人人	-8129
人说	-8130
以南	-8131
伯格	-8132
伸出	-8133
侵蚀	-8134
假肢	-8135
制药	-8136
加仑	-8137
厚的	-8138
名人	-8139
名词	-8140
哪种	-8141
在她	-8142
大使	-8143
头痛	-8144
威廉	-8145
尺度	-8146
崛起	-8147
弹奏	-8148
德克	-8149
懂的	-8150
批准	-8151
收缩	-8152
新型	-8153
无神	-8154
日益	-8155
最低	-8156
杀手	-8157
束缚	-8158
树上	-8159
气的	-8160
注视	-8161
爷爷	-8162
现有	-8163
要是	-8164
起到	-8165
越好	-8166
足迹	-8167
跑到	-8168
过后	-8169
过时	-8170
过渡	-8171
铁路	-8172
锻炼	-8173
静止	-8174
顶尖	-8175
ley	-8176
▁不可	-8177
▁在于	-8178
▁太阳	-8179
▁带来	-8180
▁思考	-8181
▁数学	-8182
▁某种	-8183
▁游戏	-8184
▁而非	-8185
▁记得	-8186
了一切	-8187
了一张	-8188
你们会	-8189
像我们	-8190
分钟内	-8191
和其它	-8192
太多了	-8193
尤其是	-8194
屋子里	-8195
左边的	-8196
幼儿园	-8197
战争中	-8198
投入到	-8199
方法是	-8200
是一只	-8201
有一条	-8202
有点儿	-8203
构成的	-8204
每一位	-8205
毕业生	-8206
现在是	-8207
留下的	-8208
的任务	-8209
的来说	-8210
的现实	-8211
的答案	-8212
表面的	-8213
被发现	-8214
认真的	-8215
道德的	-8216
那些有	-8217
▁其实是	-8218
▁在他的	-8219
▁我们为	-8220
▁我们很	-8221
▁我感觉	-8222
▁第二天	-8223
▁这使得	-8224
▁那里有	-8225
介绍一下	-8226
佛罗里达	-8227
做了很多	-8228
展示一下	-8229
我们一直	-8230
所有的人	-8231
这么一个	-8232
重新定义	-8233
Chris	-8234
▁他们发现	-8235
▁他们正在	-8236
▁但是我想	-8237
▁我们真的	-8238
建立了一个	-8239
日常生活中	-8240
是什么意思	-8241
这样的事情	-8242
▁我们发现了	-8243
▁这就是我的	-8244
33	-8245
oy	-8246
▁成	-8247
一架	-8248
万亿	-8249
中期	-8250
举起	-8251
体型	-8252
倍的	-8253
充电	-8254
切割	-8255
制品	-8256
前行	-8257
动脉	-8258
协同	-8259
取出	-8260
受损	-8261
变形	-8262
喜悦	-8263
嘲笑	-8264
圈子	-8265
在地	-8266
在说	-8267
天使	-8268
实习	-8269
实说	-8270
宠物	-8271
对他	-8272
对照	-8273
巴拉	-8274
带走	-8275
平凡	-8276
开头	-8277
得的	-8278
患病	-8279
悬崖	-8280
所知	-8281
旗帜	-8282
春天	-8283
木头	-8284
村子	-8285
根廷	-8286
棘手	-8287
水母	-8288
特权	-8289
眼光	-8290
碰巧	-8291
紧紧	-8292
缺失	-8293
罢了	-8294
而出	-8295
职位	-8296
胳膊	-8297
脉冲	-8298
花钱	-8299
落在	-8300
认出	-8301
读过	-8302
谨慎	-8303
都将	-8304
重组	-8305
门口	-8306
飞过	-8307
马路	-8308
CEO	-8309
ang	-8310
▁公共	-8311
▁关注	-8312
▁哪些	-8313
▁支持	-8314
▁类似	-8315
主要是	-8316
南极洲	-8317
去理解	-8318
名字叫	-8319
和大家	-8320
基督教	-8321
如此的	-8322
导致的	-8323
工作时	-8324
快乐的	-8325
所以我	-8326
杰出的	-8327
活动的	-8328
流行病	-8329
的基本	-8330
的开始	-8331
的药物	-8332
立学校	-8333
结束时	-8334
综合征	-8335
能找到	-8336
转化成	-8337
这些事	-8338
难民营	-8339
1500	-8340
2004	-8341
2005	-8342
▁198	-8343
▁于是他	-8344
▁从一个	-8345
▁几个月	-8346
▁只不过	-8347
▁在很多	-8348
▁意思是	-8349
▁是为了	-8350
▁有一种	-8351
▁然后她	-8352
▁这样做	-8353
做这件事	-8354
创造力的	-8355
另外一种	-8356
我有一个	-8357
最伟大的	-8358
现实世界	-8359
的第一个	-8360
还有其他	-8361
这一问题	-8362
这些地方	-8363
阿拉伯语	-8364
▁所以这是	-8365
变成了一个	-8366
问题的答案	-8367
▁内	-8368
▁深	-8369
▁玩	-8370
▁绝	-8371
产出	-8372
会把	-8373
低估	-8374
作弊	-8375
加密	-8376
升高	-8377
卡罗	-8378
即时	-8379
却不	-8380
后期	-8381
四年	-8382
填充	-8383
墙壁	-8384
天啊	-8385
女权	-8386
安置	-8387
定了	-8388
心态	-8389
恰好	-8390
悲惨	-8391
愉悦	-8392
成一	-8393
找寻	-8394
时尚	-8395
有三	-8396
比这	-8397
水面	-8398
测验	-8399
特律	-8400
直播	-8401
研制	-8402
窗口	-8403
线性	-8404
终点	-8405
考察	-8406
而被	-8407
胰岛	-8408
能用	-8409
脚趾	-8410
蒂芬	-8411
要有	-8412
言语	-8413
譬如	-8414
说起	-8415
诸位	-8416
质的	-8417
跟随	-8418
身于	-8419
这很	-8420
违反	-8421
雕像	-8422
飞到	-8423
饼干	-8424
”——	-8425
▁一条	-8426
▁你所	-8427
▁加入	-8428
▁听到	-8429
▁实验	-8430
▁我再	-8431
▁来到	-8432
▁至今	-8433
一生中	-8434
不舒服	-8435
与他人	-8436
与他们	-8437
两个月	-8438
事情的	-8439
做过的	-8440
关系的	-8441
几乎是	-8442
几年里	-8443
医院的	-8444
只是个	-8445
在家里	-8446
在里面	-8447
对不对	-8448
幸福的	-8449
影响了	-8450
我们得	-8451
扫描仪	-8452
把一个	-8453
控制的	-8454
数十亿	-8455
曼德拉	-8456
有关的	-8457
有兴趣	-8458
有多么	-8459
海洋的	-8460
痴呆症	-8461
的一项	-8462
的文章	-8463
的确是	-8464
的讨论	-8465
翻译成	-8466
脑海里	-8467
致命的	-8468
英尺的	-8469
赢得了	-8470
达到的	-8471
飞机上	-8472
▁这其中	-8473
▁这可能	-8474
▁这时候	-8475
一些问题	-8476
令人惊叹	-8477
众所周知	-8478
化石燃料	-8479
大部分的	-8480
如果你想	-8481
对我而言	-8482
感到非常	-8483
改变我们	-8484
的环境中	-8485
这并不是	-8486
这样做了	-8487
这项工作	-8488
▁但是它们	-8489
▁但是这个	-8490
▁如果你是	-8491
▁如果你的	-8492
▁我们无法	-8493
我们的世界	-8494
是怎么回事	-8495
每个人都有	-8496
▁我认为这是	-8497
很长一段时间	-8498
ce	-8499
ph	-8500
中学	-8501
主张	-8502
买卖	-8503
住房	-8504
像素	-8505
光明	-8506
出乎	-8507
包裹	-8508
厨师	-8509
可归	-8510
可笑	-8511
合同	-8512
听觉	-8513
国界	-8514
地去	-8515
子女	-8516
实的	-8517
密集	-8518
山顶	-8519
干燥	-8520
平静	-8521
心情	-8522
我再	-8523
打个	-8524
易斯	-8525
来找	-8526
案子	-8527
横跨	-8528
漏洞	-8529
照射	-8530
环节	-8531
琼斯	-8532
群落	-8533
胞胎	-8534
触动	-8535
辅导	-8536
追随	-8537
随处	-8538
鲁士	-8539
30%	-8540
HIV	-8541
▁一年	-8542
▁个人	-8543
▁其它	-8544
▁具体	-8545
▁分享	-8546
▁刚刚	-8547
▁创新	-8548
▁处理	-8549
▁成功	-8550
▁我先	-8551
▁我叫	-8552
▁战争	-8553
▁掌声	-8554
▁某个	-8555
▁病人	-8556
▁那儿	-8557
不那么	-8558
乌托邦	-8559
件事是	-8560
使用者	-8561
听上去	-8562
在网上	-8563
基础上	-8564
多少钱	-8565
岁的人	-8566
我曾经	-8567
我看到	-8568
时期的	-8569
是一项	-8570
更重要	-8571
生产的	-8572
生存的	-8573
生物的	-8574
的出现	-8575
移动的	-8576
紫外线	-8577
肯定的	-8578
艺术的	-8579
让我来	-8580
说明了	-8581
进化论	-8582
2003	-8583
▁一些人	-8584
▁在未来	-8585
▁在非洲	-8586
▁我们让	-8587
▁我无法	-8588
▁联合国	-8589
了他们的	-8590
人们可以	-8591
人工智能	-8592
令人惊讶	-8593
以及其他	-8594
会怎么样	-8595
完全没有	-8596
并非如此	-8597
恐怖袭击	-8598
意识形态	-8599
有了一个	-8600
行动起来	-8601
这个目标	-8602
这个观点	-8603
这么做的	-8604
这样做的	-8605
▁他们只是	-8606
▁它们可以	-8607
▁我们把它	-8608
▁我的工作	-8609
▁现在我想	-8610
▁那是因为	-8611
▁重要的是	-8612
太阳能电池	-8613
我们的工作	-8614
结合在一起	-8615
非政府组织	-8616
▁乔	-8617
▁吃	-8618
▁建	-8619
▁快	-8620
」,	-8621
一人	-8622
上角	-8623
义务	-8624
之时	-8625
付钱	-8626
使人	-8627
信赖	-8628
光谱	-8629
入口	-8630
养活	-8631
削减	-8632
加工	-8633
北方	-8634
千年	-8635
卡路	-8636
历程	-8637
原油	-8638
和人	-8639
哭泣	-8640
图中	-8641
土著	-8642
圣战	-8643
坦桑	-8644
复合	-8645
夏威	-8646
大师	-8647
天生	-8648
女生	-8649
对立	-8650
属性	-8651
布莱	-8652
并未	-8653
战场	-8654
手提	-8655
才华	-8656
抚养	-8657
报导	-8658
族群	-8659
时光	-8660
曾是	-8661
林肯	-8662
泄露	-8663
注重	-8664
淡水	-8665
犯错	-8666
疑惑	-8667
眼神	-8668
签署	-8669
群众	-8670
菲利	-8671
要多	-8672
赛车	-8673
适宜	-8674
长久	-8675
隔绝	-8676
▁上帝	-8677
▁传统	-8678
▁你还	-8679
▁准备	-8680
▁刚才	-8681
▁别人	-8682
▁原来	-8683
▁反而	-8684
▁市场	-8685
▁我才	-8686
▁相当	-8687
▁系统	-8688
▁这场	-8689
▁这点	-8690
不同于	-8691
使他们	-8692
到那里	-8693
力量的	-8694
加起来	-8695
和那些	-8696
夏威夷	-8697
患者的	-8698
或其他	-8699
显示出	-8700
电视台	-8701
的时光	-8702
的材料	-8703
的来源	-8704
着我的	-8705
确定的	-8706
肯定会	-8707
胰岛素	-8708
能力的	-8709
这东西	-8710
2011	-8711
▁Ste	-8712
▁他们从	-8713
▁其他人	-8714
▁可以说	-8715
▁存在于	-8716
▁我把它	-8717
▁我自己	-8718
▁甚至在	-8719
▁而是在	-8720
▁这可以	-8721
不同的人	-8722
办公室里	-8723
可持续性	-8724
大规模的	-8725
智能手机	-8726
这个实验	-8727
连接起来	-8728
▁他们甚至	-8729
▁如果你能	-8730
▁它看起来	-8731
▁我们决定	-8732
了一段时间	-8733
42	-8734
Sh	-8735
七个	-8736
与其	-8737
仅有	-8738
仍有	-8739
你说	-8740
动词	-8741
原先	-8742
口号	-8743
古典	-8744
叫声	-8745
名言	-8746
吸烟	-8747
响应	-8748
地质	-8749
复苏	-8750
大幅	-8751
头部	-8752
它将	-8753
宏观	-8754
尽快	-8755
巴嫩	-8756
年到	-8757
度假	-8758
手上	-8759
抗争	-8760
推移	-8761
政权	-8762
施加	-8763
旁白	-8764
服装	-8765
次数	-8766
歌手	-8767
比特	-8768
演变	-8769
白宫	-8770
的画	-8771
粉丝	-8772
繁衍	-8773
绳子	-8774
考验	-8775
蒸汽	-8776
要好	-8777
评级	-8778
读了	-8779
走来	-8780
辨别	-8781
这部	-8782
追逐	-8783
那年	-8784
问他	-8785
香蕉	-8786
MIT	-8787
ord	-8788
▁我都	-8789
▁探索	-8790
▁这让	-8791
人民的	-8792
他们想	-8793
例来说	-8794
分之二	-8795
和美国	-8796
在其中	-8797
家可归	-8798
底特律	-8799
很快地	-8800
很长的	-8801
快速的	-8802
方式的	-8803
智慧的	-8804
未知的	-8805
物种的	-8806
生物体	-8807
电脑上	-8808
电视上	-8809
的一员	-8810
的一年	-8811
的经验	-8812
的非洲	-8813
监狱里	-8814
花时间	-8815
葡萄牙	-8816
被告知	-8817
资源的	-8818
通常是	-8819
问题了	-8820
黎巴嫩	-8821
2001	-8822
▁他认为	-8823
▁在印度	-8824
▁我们又	-8825
亿美元的	-8826
但是我们	-8827
工作的人	-8828
很多事情	-8829
意义上的	-8830
我一直在	-8831
我所说的	-8832
我的父亲	-8833
更进一步	-8834
的一点是	-8835
的另一个	-8836
社交网络	-8837
被认为是	-8838
这个游戏	-8839
▁他们开始	-8840
▁我的父亲	-8841
▁毫无疑问	-8842
▁现在我要	-8843
▁这个想法	-8844
同样的事情	-8845
很大程度上	-8846
我们有一个	-8847
,「	-8848
6%	-8849
Ar	-8850
ct	-8851
ky	-8852
sh	-8853
主宰	-8854
亮的	-8855
使其	-8856
侵犯	-8857
修理	-8858
全都	-8859
占了	-8860
卧室	-8861
原谅	-8862
呆了	-8863
商人	-8864
地狱	-8865
大于	-8866
奶酪	-8867
子孙	-8868
少了	-8869
局面	-8870
心智	-8871
息息	-8872
捕获	-8873
掉的	-8874
揭露	-8875
收音	-8876
斯加	-8877
暂停	-8878
样品	-8879
根除	-8880
歌颂	-8881
比起	-8882
波斯	-8883
注定	-8884
牛仔	-8885
猜猜	-8886
病情	-8887
病房	-8888
破碎	-8889
立方	-8890
继承	-8891
维尔	-8892
肯尼	-8893
能从	-8894
英镑	-8895
见解	-8896
话说	-8897
跳伞	-8898
身后	-8899
连结	-8900
金森	-8901
限于	-8902
除非	-8903
雇员	-8904
鳄鱼	-8905
▁一名	-8906
▁三个	-8907
▁从中	-8908
▁他也	-8909
▁情况	-8910
▁电影	-8911
▁细胞	-8912
▁这真	-8913
下降了	-8914
个性化	-8915
了一只	-8916
五分钟	-8917
他们对	-8918
传播的	-8919
如何去	-8920
小男孩	-8921
应用于	-8922
建造的	-8923
影响到	-8924
忽略了	-8925
持续的	-8926
有三个	-8927
来完成	-8928
查尔斯	-8929
海洋中	-8930
电视机	-8931
的地图	-8932
的程度	-8933
的领域	-8934
碳排放	-8935
给那些	-8936
英国的	-8937
见到的	-8938
过一个	-8939
还不是	-8940
这里是	-8941
那么大	-8942
那以后	-8943
都已经	-8944
----	-8945
▁也不会	-8946
▁大量的	-8947
▁我应该	-8948
▁给我们	-8949
▁美国人	-8950
▁那时我	-8951
作为一名	-8952
像我一样	-8953
可以改变	-8954
商业模式	-8955
坦桑尼亚	-8956
大脑皮层	-8957
如果他们	-8958
对他们的	-8959
就像一个	-8960
年的时候	-8961
我们不会	-8962
我们还是	-8963
这些国家	-8964
量子力学	-8965
▁为什么呢	-8966
▁对于那些	-8967
▁就是这样	-8968
▁我们不会	-8969
▁我们今天	-8970
▁我们可能	-8971
▁我们并不	-8972
我们称之为	-8973
艺术博物馆	-8974
▁我们有一个	-8975
▁现在让我们	-8976
▁这里有一个	-8977
?」	-8978
CD	-8979
SP	-8980
▁p	-8981
▁亿	-8982
一副	-8983
一番	-8984
一的	-8985
不懂	-8986
亲近	-8987
人会	-8988
份子	-8989
伤心	-8990
余的	-8991
修正	-8992
做事	-8993
克利	-8994
冲浪	-8995
分歧	-8996
分泌	-8997
去的	-8998
及时	-8999
发声	-9000
坐标	-9001
塔斯	-9002
外科	-9003
大致	-9004
失调	-9005
头条	-9006
头骨	-9007
存的	-9008
它也	-9009
宪法	-9010
导航	-9011
将在	-9012
市的	-9013
带入	-9014
影子	-9015
情节	-9016
所为	-9017
所处	-9018
打败	-9019
拉罕	-9020
效的	-9021
是无	-9022
歌唱	-9023
沙特	-9024
流浪	-9025
浮游	-9026
涌现	-9027
深的	-9028
游客	-9029
物的	-9030
瑞克	-9031
电梯	-9032
病症	-9033
的性	-9034
禁忌	-9035
空的	-9036
立体	-9037
管用	-9038
行政	-9039
西斯	-9040
谁是	-9041
配合	-9042
雇主	-9043
音频	-9044
领悟	-9045
频道	-9046
Ste	-9047
ana	-9048
▁21	-9049
▁不知	-9050
▁亚当	-9051
▁会有	-9052
▁因而	-9053
▁就如	-9054
▁并把	-9055
▁当她	-9056
▁给予	-9057
▁警察	-9058
▁这段	-9059
▁这类	-9060
一个更	-9061
不相信	-9062
与其他	-9063
为大家	-9064
互动的	-9065
人与人	-9066
人性的	-9067
代表了	-9068
会导致	-9069
你们在	-9070
制造商	-9071
华尔街	-9072
变得很	-9073
口袋里	-9074
地发现	-9075
就是要	-9076
崭新的	-9077
带到了	-9078
当然是	-9079
得不到	-9080
持续了	-9081
时间里	-9082
来解决	-9083
汽车的	-9084
现在在	-9085
用的是	-9086
留下了	-9087
的人会	-9088
的最佳	-9089
第一位	-9090
等同于	-9091
结构的	-9092
被认为	-9093
许许多	-9094
跟大家	-9095
身体里	-9096
运行的	-9097
▁你认为	-9098
▁在那些	-9099
▁它就会	-9100
▁相当于	-9101
▁这真是	-9102
▁首先是	-9103
了不起的	-9104
你的大脑	-9105
我们有了	-9106
核磁共振	-9107
注意到了	-9108
热带雨林	-9109
百分之一	-9110
的年轻人	-9111
给大家看	-9112
诺贝尔奖	-9113
这个事实	-9114
▁于是他们	-9115
我的意思是	-9116
至关重要的	-9117
▁但是我认为	-9118
BC	-9119
ta	-9120
▁史	-9121
▁哇	-9122
▁学	-9123
▁整	-9124
一月	-9125
上课	-9126
不算	-9127
中风	-9128
亨利	-9129
享有	-9130
亲身	-9131
会的	-9132
伤口	-9133
何种	-9134
倡导	-9135
停滞	-9136
光是	-9137
前列	-9138
加油	-9139
南亚	-9140
南方	-9141
即便	-9142
友好	-9143
各国	-9144
同等	-9145
学金	-9146
它了	-9147
它有	-9148
开的	-9149
意想	-9150
担任	-9151
持久	-9152
提交	-9153
支架	-9154
散步	-9155
杀人	-9156
条约	-9157
概括	-9158
活在	-9159
海豹	-9160
海里	-9161
淹没	-9162
用处	-9163
登陆	-9164
福特	-9165
穿梭	-9166
色情	-9167
节点	-9168
花朵	-9169
英亩	-9170
被问	-9171
论坛	-9172
证书	-9173
起诉	-9174
迷人	-9175
逃避	-9176
那张	-9177
里士	-9178
钱的	-9179
长寿	-9180
间接	-9181
高潮	-9182
ast	-9183
▁BG	-9184
▁他想	-9185
▁充满	-9186
▁女孩	-9187
▁婴儿	-9188
▁打开	-9189
▁找出	-9190
▁谷歌	-9191
严肃的	-9192
了解了	-9193
像一个	-9194
利比亚	-9195
半小时	-9196
双胞胎	-9197
另一只	-9198
因为他	-9199
在世界	-9200
女孩子	-9201
家里的	-9202
将我们	-9203
年以来	-9204
开发的	-9205
很不错	-9206
很好奇	-9207
得非常	-9208
所学校	-9209
是不可	-9210
是基于	-9211
有机体	-9212
朋友的	-9213
永恒的	-9214
清楚地	-9215
的不是	-9216
的自由	-9217
社区里	-9218
程序员	-9219
肥胖症	-9220
进入到	-9221
那一刻	-9222
那时起	-9223
都是由	-9224
银行家	-9225
1990	-9226
iPod	-9227
▁你将会	-9228
▁只要你	-9229
▁我去了	-9230
▁比方说	-9231
▁理查德	-9232
一点也不	-9233
与此同时	-9234
个不同的	-9235
你们可能	-9236
和他们的	-9237
很有趣的	-9238
思维方式	-9239
我们就能	-9240
显示的是	-9241
▁他们已经	-9242
▁你只需要	-9243
▁你知道的	-9244
▁没有什么	-9245
▁这是关于	-9246
▁这种情况	-9247
他们的故事	-9248
很好的例子	-9249
感兴趣的是	-9250
我最喜欢的	-9251
有趣的事情	-9252
la	-9253
▁笑	-9254
▁萨	-9255
▁诺	-9256
不敢	-9257
不曾	-9258
为一	-9259
介意	-9260
传授	-9261
住宅	-9262
便会	-9263
假的	-9264
储备	-9265
克兰	-9266
分校	-9267
创始	-9268
前例	-9269
加坡	-9270
卖淫	-9271
变量	-9272
叙事	-9273
只用	-9274
同行	-9275
在大	-9276
奇特	-9277
容器	-9278
尖叫	-9279
尽的	-9280
屁股	-9281
工艺	-9282
巧合	-9283
弹性	-9284
往前	-9285
忽然	-9286
急剧	-9287
拍了	-9288
指望	-9289
旁观	-9290
无助	-9291
时不	-9292
期刊	-9293
木材	-9294
枪支	-9295
树枝	-9296
歌剧	-9297
法规	-9298
浓度	-9299
片的	-9300
电动	-9301
看做	-9302
编写	-9303
能把	-9304
艘船	-9305
虚构	-9306
蛛丝	-9307
诸多	-9308
起床	-9309
身高	-9310
这颗	-9311
雕刻	-9312
题目	-9313
ess	-9314
ose	-9315
▁DH	-9316
▁Sh	-9317
▁减少	-9318
▁安全	-9319
▁文化	-9320
▁机器	-9321
▁正好	-9322
▁组织	-9323
▁自我	-9324
▁让他	-9325
▁讲述	-9326
。。。	-9327
个月后	-9328
以前的	-9329
伯拉罕	-9330
做了个	-9331
健康和	-9332
几百万	-9333
参与了	-9334
口可乐	-9335
另一边	-9336
告诉她	-9337
和一些	-9338
和她的	-9339
在中国	-9340
学院的	-9341
它不是	-9342
安德特	-9343
实实在	-9344
就会有	-9345
尽全力	-9346
广泛的	-9347
我们很	-9348
拿到了	-9349
描述的	-9350
收音机	-9351
教科书	-9352
有任何	-9353
有这种	-9354
清楚的	-9355
热衷于	-9356
的一条	-9357
的最大	-9358
的蚂蚁	-9359
的高度	-9360
祖父母	-9361
结论是	-9362
综合症	-9363
脆弱的	-9364
范围的	-9365
隐藏的	-9366
音乐的	-9367
颜色的	-9368
▁人们会	-9369
▁你是否	-9370
▁假如你	-9371
▁取决于	-9372
▁就是在	-9373
▁我们才	-9374
▁我们来	-9375
▁把他们	-9376
▁是非常	-9377
一小部分	-9378
他们正在	-9379
他们需要	-9380
免疫系统	-9381
几个例子	-9382
喜欢这个	-9383
四分之一	-9384
国家公园	-9385
尼安德特	-9386
很多东西	-9387
我们将会	-9388
我们真的	-9389
是正确的	-9390
是错误的	-9391
有很多人	-9392
某种方式	-9393
这些故事	-9394
都不知道	-9395
都有一个	-9396
▁他们想要	-9397
▁所有人都	-9398
中的很多人	-9399
什么都没有	-9400
其中的一个	-9401
成为了一个	-9402
撒哈拉以南	-9403
▁你可以想象	-9404
成千上万的人	-9405
37	-9406
▁坐	-9407
▁至	-9408
▁装	-9409
一整	-9410
三点	-9411
与否	-9412
东部	-9413
两只	-9414
义肢	-9415
乘坐	-9416
传送	-9417
关掉	-9418
凯文	-9419
切断	-9420
刑事	-9421
去想	-9422
听了	-9423
坟墓	-9424
头顶	-9425
婚礼	-9426
字胡	-9427
尔蒙	-9428
岛的	-9429
已被	-9430
干的	-9431
建成	-9432
开创	-9433
形势	-9434
我真	-9435
承载	-9436
接纳	-9437
放慢	-9438
故障	-9439
暴风	-9440
有谁	-9441
木星	-9442
标识	-9443
校长	-9444
橡皮	-9445
比率	-9446
水泥	-9447
沙发	-9448
泽西	-9449
海藻	-9450
消亡	-9451
潮流	-9452
犯人	-9453
琳达	-9454
瓶子	-9455
磁铁	-9456
筹集	-9457
箱子	-9458
给人	-9459
美味	-9460
脚步	-9461
艰苦	-9462
著作	-9463
表述	-9464
野外	-9465
针头	-9466
面孔	-9467
黏液	-9468
25%	-9469
ins	-9470
lex	-9471
▁值得	-9472
▁受到	-9473
▁实现	-9474
▁我与	-9475
▁究竟	-9476
▁给我	-9477
▁这与	-9478
▁造成	-9479
▁鼓励	-9480
上一个	-9481
上帝的	-9482
不公平	-9483
不容易	-9484
专业的	-9485
了一位	-9486
你们中	-9487
便宜的	-9488
分辨率	-9489
去思考	-9490
去看看	-9491
可能在	-9492
合法的	-9493
因此而	-9494
多巴胺	-9495
多年的	-9496
奖学金	-9497
家庭的	-9498
我的手	-9499
无前例	-9500
某些人	-9501
理想的	-9502
的定义	-9503
的支持	-9504
的说法	-9505
的那种	-9506
看到我	-9507
纽约的	-9508
经济体	-9509
认为这	-9510
设计和	-9511
转换成	-9512
还是个	-9513
这么想	-9514
银行的	-9515
2050	-9516
▁就如同	-9517
▁我们与	-9518
▁有许多	-9519
▁而我的	-9520
▁谢谢你	-9521
▁这本书	-9522
一种方法	-9523
之处在于	-9524
互联网上	-9525
其中之一	-9526
变得非常	-9527
怎么回事	-9528
日常生活	-9529
知道这个	-9530
神经细胞	-9531
花了很多	-9532
裔美国人	-9533
这么认为	-9534
都是这样	-9535
▁他们都是	-9536
▁但问题是	-9537
▁大多数人	-9538
▁大家知道	-9539
▁如果有人	-9540
▁我们是否	-9541
▁我很高兴	-9542
▁接下来的	-9543
▁最后一个	-9544
▁还有其他	-9545
▁这个过程	-9546
▁这是非常	-9547
▁除此之外	-9548
我们所做的	-9549
我们都知道	-9550
▁非常感谢大家	-9551
!“	-9552
Br	-9553
ld	-9554
▁g	-9555
▁圣	-9556
▁排	-9557
▁梅	-9558
一度	-9559
上瘾	-9560
不见	-9561
书写	-9562
二维	-9563
从此	-9564
仓库	-9565
优点	-9566
你把	-9567
侵入	-9568
债务	-9569
六十	-9570
冲动	-9571
冷冻	-9572
出租	-9573
列举	-9574
前后	-9575
口哨	-9576
古代	-9577
吃掉	-9578
名称	-9579
喂养	-9580
大人	-9581
天主	-9582
它被	-9583
安娜	-9584
将军	-9585
布斯	-9586
平民	-9587
废墟	-9588
引进	-9589
性感	-9590
抗体	-9591
授予	-9592
探寻	-9593
提炼	-9594
支配	-9595
有种	-9596
本人	-9597
欺诈	-9598
水和	-9599
波罗	-9600
海湾	-9601
海盗	-9602
源自	-9603
熟练	-9604
爱上	-9605
的三	-9606
的吗	-9607
真菌	-9608
秘诀	-9609
突出	-9610
端的	-9611
经前	-9612
羞辱	-9613
而又	-9614
艾米	-9615
苏丹	-9616
范畴	-9617
议程	-9618
贯穿	-9619
超出	-9620
路德	-9621
迁徙	-9622
迄今	-9623
迎接	-9624
还很	-9625
这事	-9626
道歉	-9627
避难	-9628
那只	-9629
钢铁	-9630
问过	-9631
高等	-9632
黑帮	-9633
aul	-9634
iel	-9635
ram	-9636
▁40	-9637
▁60	-9638
▁以上	-9639
▁会在	-9640
▁历史	-9641
▁商业	-9642
▁常常	-9643
▁生产	-9644
▁而他	-9645
▁而后	-9646
▁设想	-9647
▁说明	-9648
一些小	-9649
不清楚	-9650
会让你	-9651
候选人	-9652
可以将	-9653
在那些	-9654
好主意	-9655
实在太	-9656
寄生虫	-9657
对你的	-9658
对称性	-9659
幸福感	-9660
幸运的	-9661
当地人	-9662
很快就	-9663
快速地	-9664
我就想	-9665
拿出来	-9666
提高了	-9667
晶体管	-9668
有效率	-9669
有超过	-9670
欧洲的	-9671
特别是	-9672
百分比	-9673
的图像	-9674
的宇宙	-9675
的政府	-9676
的死亡	-9677
的观众	-9678
的证据	-9679
知识和	-9680
空间里	-9681
能量的	-9682
脑细胞	-9683
诞生了	-9684
过这个	-9685
这是在	-9686
连接到	-9687
都非常	-9688
陈代谢	-9689
降落伞	-9690
▁他们要	-9691
▁你们的	-9692
▁在某些	-9693
▁如果是	-9694
▁我在想	-9695
▁我就是	-9696
▁我母亲	-9697
▁现在的	-9698
▁达尔文	-9699
▁这才是	-9700
几乎没有	-9701
到处都是	-9702
和我们的	-9703
的美国人	-9704
看看这个	-9705
联邦调查	-9706
里士多德	-9707
问题就是	-9708
▁他们不会	-9709
▁他们知道	-9710
▁我们不是	-9711
▁我想知道	-9712
▁所以这些	-9713
▁这个系统	-9714
▁因为我们的	-9715
▁我们不得不	-9716
▁我们可以用	-9717
是非常重要的	-9718
▁Anderson	-9719
1/	-9720
BA	-9721
Em	-9722
ov	-9723
ux	-9724
▁日	-9725
▁读	-9726
▁靠	-9727
一提	-9728
一日	-9729
一首	-9730
下次	-9731
之年	-9732
也将	-9733
亿的	-9734
他也	-9735
们在	-9736
价钱	-9737
停下	-9738
公元	-9739
养育	-9740
化疗	-9741
单单	-9742
压迫	-9743
口气	-9744
可用	-9745
周五	-9746
在内	-9747
大麻	-9748
天性	-9749
她是	-9750
好几	-9751
宣言	-9752
容纳	-9753
层楼	-9754
州立	-9755
常识	-9756
庇护	-9757
开着	-9758
忠诚	-9759
急诊	-9760
打了	-9761
批判	-9762
摄入	-9763
无形	-9764
早餐	-9765
时会	-9766
有力	-9767
林匹	-9768
标本	-9769
涵盖	-9770
片断	-9771
看清	-9772
矿物	-9773
破解	-9774
积分	-9775
空调	-9776
章节	-9777
精准	-9778
精子	-9779
组件	-9780
老化	-9781
而然	-9782
节能	-9783
蜡烛	-9784
衰退	-9785
西雅	-9786
触碰	-9787
资格	-9788
起步	-9789
车子	-9790
选票	-9791
阿姆	-9792
降雨	-9793
领先	-9794
魔力	-9795
鲍勃	-9796
ann	-9797
enn	-9798
▁一场	-9799
▁仿佛	-9800
▁在她	-9801
▁她会	-9802
▁对了	-9803
▁帕特	-9804
▁开发	-9805
▁我刚	-9806
▁手机	-9807
▁提出	-9808
▁最好	-9809
▁比较	-9810
▁火星	-9811
▁穿过	-9812
▁红色	-9813
一个有	-9814
一句话	-9815
上世纪	-9816
也无法	-9817
也需要	-9818
了整个	-9819
亿人口	-9820
例子中	-9821
关心的	-9822
分钟的	-9823
十年的	-9824
去世了	-9825
和人类	-9826
因为你	-9827
基因的	-9828
媒体的	-9829
对不起	-9830
市场上	-9831
当你在	-9832
当我在	-9833
技术和	-9834
新西兰	-9835
时间和	-9836
有一次	-9837
洗衣机	-9838
的危险	-9839
的平均	-9840
的数学	-9841
的理由	-9842
的电脑	-9843
的计划	-9844
空间中	-9845
观众笑	-9846
觉得很	-9847
超越了	-9848
遥远的	-9849
阿根廷	-9850
预测的	-9851
饮用水	-9852
▁出现在	-9853
▁当这些	-9854
▁我之前	-9855
▁把这些	-9856
▁自己的	-9857
▁都可以	-9858
也是这样	-9859
亚历山大	-9860
你能看到	-9861
做点什么	-9862
在座各位	-9863
坐在那里	-9864
学习如何	-9865
它们可以	-9866
布鲁克林	-9867
很久以前	-9868
我和我的	-9869
我的想法	-9870
我的观点	-9871
无家可归	-9872
更多的钱	-9873
社会问题	-9874
经济发展	-9875
考虑一下	-9876
高速公路	-9877
▁不仅如此	-9878
▁实际上是	-9879
▁对于我们	-9880
▁对我而言	-9881
▁尤其是在	-9882
▁这些问题	-9883
一次又一次	-9884
严重的问题	-9885
▁我们实际上	-9886
令人难以置信	-9887
回答这个问题	-9888
:「	-9889
IM	-9890
of	-9891
▁信	-9892
▁富	-9893
▁格	-9894
▁风	-9895
下角	-9896
严峻	-9897
丹麦	-9898
乳腺	-9899
了呢	-9900
交往	-9901
人脑	-9902
侵略	-9903
假期	-9904
克隆	-9905
关怀	-9906
冥想	-9907
十九	-9908
友善	-9909
哈根	-9910
回想	-9911
回路	-9912
图标	-9913
天线	-9914
山羊	-9915
巴布	-9916
带回	-9917
座位	-9918
往上	-9919
很低	-9920
怜悯	-9921
成真	-9922
我刚	-9923
把钱	-9924
招募	-9925
提起	-9926
旋律	-9927
有权	-9928
极具	-9929
柔软	-9930
核弹	-9931
模样	-9932
液态	-9933
点燃	-9934
特拉	-9935
现金	-9936
理发	-9937
电台	-9938
的和	-9939
社团	-9940
箭头	-9941
篮球	-9942
终身	-9943
羽毛	-9944
获益	-9945
萧条	-9946
蜣螂	-9947
袋狼	-9948
走动	-9949
金斯	-9950
闭上	-9951
霍华	-9952
▁到达	-9953
▁我没	-9954
▁日本	-9955
▁植物	-9956
▁法律	-9957
▁现今	-9958
▁现实	-9959
▁等待	-9960
▁而那	-9961
▁要比	-9962
▁这可	-9963
▁这太	-9964
▁部分	-9965
一个叫	-9966
一个在	-9967
一个很	-9968
上面的	-9969
不相同	-9970
亚特兰	-9971
他们要	-9972
份工作	-9973
会出现	-9974
创造者	-9975
化学家	-9976
命名为	-9977
和这些	-9978
基督徒	-9979
大城市	-9980
它已经	-9981
年以后	-9982
微不足	-9983
性行为	-9984
感染了	-9985
慢慢的	-9986
我并不	-9987
房子里	-9988
时间内	-9989
是十分	-9990
更像是	-9991
案例中	-9992
游戏中	-9993
演讲中	-9994
熟知的	-9995
用这种	-9996
的主意	-9997
的人说	-9998
的医疗	-9999
的状况	-10000
的边缘	-10001
看了看	-10002
神圣的	-10003
群体的	-10004
菲利普	-10005
被我们	-10006
负责任	-10007
都需要	-10008
非凡的	-10009
食物的	-10010
驱动的	-10011
▁也许是	-10012
▁但是她	-10013
▁和一些	-10014
▁当你在	-10015
▁当它们	-10016
▁来帮助	-10017
▁每一次	-10018
▁然后又	-10019
▁这说明	-10020
▁那是个	-10021
一个人的	-10022
也是一样	-10023
你可能会	-10024
其他东西	-10025
强有力的	-10026
恰恰相反	-10027
我们决定	-10028
有很大的	-10029
正在进行	-10030
没有办法	-10031
这样的话	-10032
都是如此	-10033
▁他们会说	-10034
▁我称之为	-10035
▁所以我的	-10036
▁无论如何	-10037
▁这是我在	-10038
为什么我们	-10039
精神分裂症	-10040
结束的时候	-10041
老年痴呆症	-10042
▁但如果我们	-10043
▁我们也可以	-10044
▁我希望你们	-10045
-2	-10046
AR	-10047
cy	-10048
一封	-10049
上周	-10050
下雨	-10051
也门	-10052
了你	-10053
代之	-10054
会去	-10055
估算	-10056
伴随	-10057
使之	-10058
偏远	-10059
偷偷	-10060
全书	-10061
关爱	-10062
写信	-10063
冷的	-10064
前额	-10065
化和	-10066
卖给	-10067
厘米	-10068
去掉	-10069
去除	-10070
双腿	-10071
发觉	-10072
发音	-10073
古巴	-10074
召集	-10075
吉他	-10076
吉尔	-10077
后院	-10078
在场	-10079
处方	-10080
大堆	-10081
奢侈	-10082
好人	-10083
如下	-10084
小了	-10085
差的	-10086
平时	-10087
废料	-10088
归功	-10089
当劳	-10090
得好	-10091
得通	-10092
微观	-10093
心想	-10094
思索	-10095
手册	-10096
打赌	-10097
抽烟	-10098
拿来	-10099
捐助	-10100
摩擦	-10101
无疑	-10102
星际	-10103
是件	-10104
普林	-10105
暴乱	-10106
更难	-10107
月亮	-10108
有幸	-10109
未曾	-10110
杀虫	-10111
杯子	-10112
杰克	-10113
检察	-10114
欢呼	-10115
沙丘	-10116
流入	-10117
海上	-10118
海军	-10119
渗透	-10120
爱人	-10121
球鞋	-10122
生来	-10123
画家	-10124
界的	-10125
的两	-10126
眼中	-10127
着眼	-10128
离婚	-10129
简短	-10130
紧要	-10131
绑架	-10132
耗费	-10133
裤子	-10134
费曼	-10135
运气	-10136
远处	-10137
逃脱	-10138
里程	-10139
长度	-10140
阴茎	-10141
陷阱	-10142
隐喻	-10143
飞天	-10144
RNA	-10145
ach	-10146
ott	-10147
▁BF	-10148
▁PM	-10149
▁中间	-10150
▁在它	-10151
▁我最	-10152
▁电话	-10153
▁譬如	-10154
▁计算	-10155
下来了	-10156
不一定	-10157
之外的	-10158
二十年	-10159
亿年前	-10160
从这些	-10161
以外的	-10162
会改变	-10163
吉尼亚	-10164
和朋友	-10165
喜爱的	-10166
在某些	-10167
当人们	-10168
影响的	-10169
得很好	-10170
打开了	-10171
搬到了	-10172
收入的	-10173
数以千	-10174
时间来	-10175
明确的	-10176
是他们	-10177
暗能量	-10178
本身的	-10179
机器的	-10180
标准的	-10181
浏览器	-10182
的医生	-10183
的梦想	-10184
的比例	-10185
的表面	-10186
的设备	-10187
盒子里	-10188
看电视	-10189
神秘的	-10190
空气中	-10191
等一下	-10192
纽约客	-10193
肯尼迪	-10194
能得到	-10195
荷尔蒙	-10196
赛鲁士	-10197
身边的	-10198
过很多	-10199
过来的	-10200
还要多	-10201
预期的	-10202
魔术师	-10203
1950	-10204
2020	-10205
▁从这个	-10206
▁他们用	-10207
▁以一种	-10208
▁我个人	-10209
▁斯蒂芬	-10210
▁最好的	-10211
▁看到了	-10212
▁这样就	-10213
一个关于	-10214
世界大战	-10215
他们想要	-10216
基本上是	-10217
如果你们	-10218
实验室的	-10219
展示的是	-10220
我的故事	-10221
我的父母	-10222
我的身体	-10223
某个地方	-10224
这些技术	-10225
这方面的	-10226
▁你可以用	-10227
▁同时也是	-10228
▁我之所以	-10229
▁我们都是	-10230
▁所以当我	-10231
▁有多少人	-10232
▁科学家们	-10233
▁这个数字	-10234
创造了一个	-10235
和你们分享	-10236
我们所说的	-10237
▁我想说的是	-10238
▁这是另一个	-10239
世界上最大的	-10240
4%	-10241
ET	-10242
pe	-10243
▁应	-10244
上海	-10245
下方	-10246
为他	-10247
主角	-10248
事先	-10249
二进	-10250
亲戚	-10251
传承	-10252
作战	-10253
元件	-10254
克莱	-10255
共产	-10256
其为	-10257
反思	-10258
取了	-10259
只在	-10260
哥本	-10261
哪怕	-10262
四点	-10263
坏人	-10264
堆积	-10265
声波	-10266
外表	-10267
密的	-10268
开支	-10269
很短	-10270
微弱	-10271
总理	-10272
我该	-10273
手法	-10274
手表	-10275
找个	-10276
拥挤	-10277
无视	-10278
智利	-10279
标注	-10280
格尔	-10281
橡胶	-10282
毒素	-10283
民权	-10284
沙滩	-10285
泰国	-10286
流量	-10287
火灾	-10288
王国	-10289
电磁	-10290
留给	-10291
病患	-10292
的我	-10293
私营	-10294
类比	-10295
罪恶	-10296
肚子	-10297
肾脏	-10298
花上	-10299
莎士	-10300
蕴含	-10301
视线	-10302
认定	-10303
议院	-10304
费城	-10305
赞美	-10306
起飞	-10307
输送	-10308
还未	-10309
这对	-10310
透露	-10311
避开	-10312
里亚	-10313
问问	-10314
零售	-10315
饮料	-10316
驱使	-10317
Rob	-10318
The	-10319
ink	-10320
int	-10321
ith	-10322
ric	-10323
▁一件	-10324
▁他对	-10325
▁你说	-10326
▁参加	-10327
▁右边	-10328
▁名叫	-10329
▁我敢	-10330
▁父母	-10331
▁种族	-10332
▁证明	-10333
▁进化	-10334
▁都被	-10335
一下子	-10336
一点的	-10337
下一次	-10338
也开始	-10339
事件的	-10340
从我们	-10341
保护的	-10342
八字胡	-10343
出这些	-10344
去寻找	-10345
只不过	-10346
告诉过	-10347
和政治	-10348
和科学	-10349
应该被	-10350
归功于	-10351
很高的	-10352
愚蠢的	-10353
慢慢地	-10354
我刚刚	-10355
捕食者	-10356
是一场	-10357
是不够	-10358
是美国	-10359
显示的	-10360
有人在	-10361
来看待	-10362
来解释	-10363
某个人	-10364
每一次	-10365
的人性	-10366
看一看	-10367
看这些	-10368
讨论的	-10369
让你的	-10370
跟他们	-10371
还是会	-10372
问题上	-10373
问题时	-10374
霍华德	-10375
黑暗中	-10376
edia	-10377
▁...	-10378
▁你们会	-10379
▁又或者	-10380
▁可以在	-10381
▁和那些	-10382
▁学生们	-10383
▁布鲁诺	-10384
▁我完全	-10385
▁我经常	-10386
▁我花了	-10387
▁所以它	-10388
▁未来的	-10389
▁然后说	-10390
▁而且这	-10391
中产阶级	-10392
令人惊奇	-10393
全球化的	-10394
和我一起	-10395
哥本哈根	-10396
在地球上	-10397
实在是太	-10398
德克萨斯	-10399
思考一下	-10400
我们对于	-10401
整个过程	-10402
莎士比亚	-10403
西班牙语	-10404
谢谢你们	-10405
这张图片	-10406
这种现象	-10407
非常大的	-10408
▁不管怎样	-10409
▁人们可以	-10410
▁并且我们	-10411
▁我们觉得	-10412
▁我们还有	-10413
▁我的父母	-10414
▁然后我说	-10415
▁而我们的	-10416
▁那个时候	-10417
ichard	-10418
▁因为如果你	-10419
▁我们不需要	-10420
在某种程度上	-10421
4,	-10422
72	-10423
ix	-10424
iz	-10425
ly	-10426
▁北	-10427
▁另	-10428
▁呃	-10429
▁盖	-10430
▁里	-10431
。♫	-10432
上次	-10433
丽莎	-10434
了她	-10435
从不	-10436
偏离	-10437
做饭	-10438
减缓	-10439
删除	-10440
剧场	-10441
千个	-10442
半个	-10443
双眼	-10444
受体	-10445
国旗	-10446
地里	-10447
壮大	-10448
多或	-10449
天后	-10450
孤单	-10451
学业	-10452
就得	-10453
巴士	-10454
并没	-10455
急救	-10456
总和	-10457
我与	-10458
户外	-10459
提倡	-10460
无意	-10461
星盘	-10462
更糟	-10463
杂货	-10464
板块	-10465
梅隆	-10466
泥土	-10467
活到	-10468
流传	-10469
浮现	-10470
混凝	-10471
游击	-10472
甘地	-10473
生俱	-10474
的信	-10475
着它	-10476
破产	-10477
稍后	-10478
笑了	-10479
策划	-10480
管子	-10481
纸片	-10482
美食	-10483
者是	-10484
胚胎	-10485
腿上	-10486
自愿	-10487
自问	-10488
葬礼	-10489
语法	-10490
调研	-10491
谈及	-10492
路口	-10493
过着	-10494
酒精	-10495
降临	-10496
隧道	-10497
面向	-10498
预先	-10499
鱼的	-10500
鸡蛋	-10501
ash	-10502
osh	-10503
per	-10504
▁不像	-10505
▁多么	-10506
▁存在	-10507
▁对吗	-10508
▁将来	-10509
▁并将	-10510
▁旁白	-10511
▁肯定	-10512
三角形	-10513
不会被	-10514
不在乎	-10515
不怎么	-10516
不能再	-10517
也可能	-10518
仍然在	-10519
几秒钟	-10520
创造性	-10521
功能的	-10522
努力地	-10523
反过来	-10524
圣诞节	-10525
在这种	-10526
奥林匹	-10527
已知的	-10528
忘记了	-10529
我们和	-10530
我们该	-10531
报纸上	-10532
摄氏度	-10533
有不同	-10534
有哪些	-10535
有更多	-10536
水平的	-10537
流行的	-10538
理论上	-10539
男人们	-10540
的人在	-10541
的体验	-10542
的成本	-10543
的机构	-10544
的网站	-10545
的表现	-10546
绝对的	-10547
自然地	-10548
计划的	-10549
认识的	-10550
设计出	-10551
课堂上	-10552
负责人	-10553
这三个	-10554
这部分	-10555
透明的	-10556
通过了	-10557
那是个	-10558
1980	-10559
▁即使在	-10560
▁原因是	-10561
▁在你的	-10562
▁它是由	-10563
▁安德森	-10564
▁我以前	-10565
▁我有个	-10566
▁有什么	-10567
▁然后用	-10568
▁还可以	-10569
一张照片	-10570
不好意思	-10571
也是一个	-10572
你们分享	-10573
使用这个	-10574
加州大学	-10575
天文学家	-10576
小的时候	-10577
息息相关	-10578
感兴趣的	-10579
我们怎么	-10580
所以我们	-10581
百分之十	-10582
的时间内	-10583
知道这些	-10584
艾滋病毒	-10585
西方国家	-10586
让我们的	-10587
让我感到	-10588
那些我们	-10589
▁举例来说	-10590
▁告诉我们	-10591
▁因为人们	-10592
▁好消息是	-10593
▁我并没有	-10594
他们的生活	-10595
和大家分享	-10596
▁所以我决定	-10597
▁所以这就是	-10598
你们可以看到	-10599
是什么样子的	-10600
▁如果我们能够	-10601
46	-10602
▁b	-10603
▁f	-10604
▁【	-10605
▁选	-10606
一杯	-10607
不愿	-10608
两点	-10609
从小	-10610
便利	-10611
写到	-10612
减速	-10613
制成	-10614
卡因	-10615
卡拉	-10616
却在	-10617
厌倦	-10618
原创	-10619
去买	-10620
变老	-10621
叶子	-10622
吨的	-10623
回馈	-10624
圆柱	-10625
场地	-10626
多于	-10627
天体	-10628
夫人	-10629
字符	-10630
定居	-10631
实力	-10632
容量	-10633
富翁	-10634
小儿	-10635
少于	-10636
尔曼	-10637
尼古	-10638
展望	-10639
山上	-10640
带了	-10641
彩票	-10642
情的	-10643
慢性	-10644
我做	-10645
报酬	-10646
排斥	-10647
推销	-10648
时机	-10649
是为	-10650
是他	-10651
曾说	-10652
最难	-10653
服从	-10654
机率	-10655
杀掉	-10656
杰明	-10657
比你	-10658
比方	-10659
波动	-10660
洪水	-10661
派的	-10662
深信	-10663
清真	-10664
漫长	-10665
潜艇	-10666
灰色	-10667
灾害	-10668
热门	-10669
版的	-10670
物件	-10671
电击	-10672
的脸	-10673
相应	-10674
等式	-10675
签名	-10676
纸张	-10677
罪行	-10678
羞愧	-10679
聊聊	-10680
胡子	-10681
藻类	-10682
行程	-10683
轻微	-10684
这太	-10685
长远	-10686
霉菌	-10687
非同	-10688
面团	-10689
颤抖	-10690
▁不然	-10691
▁专门	-10692
▁也在	-10693
▁做了	-10694
▁哪里	-10695
▁就有	-10696
▁描述	-10697
▁能源	-10698
▁记者	-10699
▁阿瑟	-10700
一回事	-10701
万美金	-10702
不了解	-10703
也是个	-10704
了多少	-10705
仍然是	-10706
他们将	-10707
以来的	-10708
会变成	-10709
会议上	-10710
体会到	-10711
体现在	-10712
你看到	-10713
供应链	-10714
停止了	-10715
全面的	-10716
公交车	-10717
北部的	-10718
卡路里	-10719
历史中	-10720
另一半	-10721
多样化	-10722
太阳的	-10723
实验中	-10724
小提琴	-10725
就会被	-10726
我妈妈	-10727
我想起	-10728
我无法	-10729
普遍的	-10730
有助于	-10731
杀虫剂	-10732
检察官	-10733
橄榄球	-10734
没关系	-10735
混凝土	-10736
男性的	-10737
的动作	-10738
的安全	-10739
的市场	-10740
的路上	-10741
看出来	-10742
而代之	-10743
莱斯特	-10744
让世界	-10745
还不错	-10746
这样想	-10747
这首歌	-10748
迷人的	-10749
都无法	-10750
100%	-10751
2002	-10752
2012	-10753
▁主持人	-10754
▁他们所	-10755
▁他当时	-10756
▁伟大的	-10757
▁我最近	-10758
▁更好的	-10759
▁真的是	-10760
▁这需要	-10761
一模一样	-10762
令人吃惊	-10763
令人震惊	-10764
你也可以	-10765
史无前例	-10766
在自己的	-10767
如果没有	-10768
它看起来	-10769
完全可以	-10770
无人驾驶	-10771
最后一次	-10772
看到一些	-10773
看看这些	-10774
研究这些	-10775
神经科学	-10776
第二人生	-10777
虚拟现实	-10778
让孩子们	-10779
这么简单	-10780
这些动物	-10781
▁今天我想	-10782
▁他是一个	-10783
▁你不需要	-10784
▁帮助我们	-10785
▁我不认为	-10786
▁我们确实	-10787
▁而是一个	-10788
▁而这就是	-10789
▁这些数据	-10790
改变我们的	-10791
这样的东西	-10792
重要的事情	-10793
▁你可以看见	-10794
▁大家都知道	-10795
的事情发生了	-10796
36	-10797
7%	-10798
ID	-10799
VD	-10800
du	-10801
▁极	-10802
▁科	-10803
▁脑	-10804
▁顺	-10805
一谈	-10806
之久	-10807
代理	-10808
伙计	-10809
但却	-10810
住民	-10811
停在	-10812
养分	-10813
兽医	-10814
击败	-10815
到过	-10816
助理	-10817
千米	-10818
取消	-10819
变性	-10820
商场	-10821
圆圈	-10822
坚定	-10823
壁虎	-10824
夫妻	-10825
奥尔	-10826
奴役	-10827
孕育	-10828
孙子	-10829
客厅	-10830
家中	-10831
已知	-10832
店里	-10833
当他	-10834
彩色	-10835
得太	-10836
性欲	-10837
恐慌	-10838
恶魔	-10839
我一	-10840
抬头	-10841
日期	-10842
是大	-10843
曾在	-10844
有钱	-10845
杰出	-10846
模特	-10847
欢乐	-10848
死后	-10849
每人	-10850
比利	-10851
水分	-10852
洛伊	-10853
湿地	-10854
澳洲	-10855
特尔	-10856
狂热	-10857
狩猎	-10858
生机	-10859
画像	-10860
畅销	-10861
的的	-10862
相片	-10863
磅的	-10864
示威	-10865
积木	-10866
第五	-10867
类别	-10868
红杉	-10869
级别	-10870
罗德	-10871
老虎	-10872
舞者	-10873
藏着	-10874
被判	-10875
试者	-10876
谷物	-10877
质数	-10878
载荷	-10879
透了	-10880
途中	-10881
造型	-10882
造的	-10883
遗忘	-10884
邮箱	-10885
配偶	-10886
顶峰	-10887
鸽子	-10888
LED	-10889
ant	-10890
ice	-10891
itt	-10892
rat	-10893
▁他将	-10894
▁喜欢	-10895
▁巴西	-10896
▁癌症	-10897
▁相互	-10898
▁绿色	-10899
▁表明	-10900
▁逐渐	-10901
一种新	-10902
不同意	-10903
两年前	-10904
为这个	-10905
你们所	-10906
你如何	-10907
公里的	-10908
几十亿	-10909
到这些	-10910
印度人	-10911
去那里	-10912
各地的	-10913
同事们	-10914
在学校	-10915
多大的	-10916
将这个	-10917
就知道	-10918
度过了	-10919
引起的	-10920
影响着	-10921
很快的	-10922
怎么会	-10923
想法和	-10924
我们说	-10925
摩托车	-10926
有这个	-10927
朋友和	-10928
杂志上	-10929
极好的	-10930
正是我	-10931
母亲的	-10932
水资源	-10933
爱好者	-10934
的发明	-10935
的战争	-10936
的范围	-10937
目睹了	-10938
相结合	-10939
研究员	-10940
研究者	-10941
罗伯特	-10942
还是在	-10943
还是有	-10944
那样做	-10945
隐藏在	-10946
高血压	-10947
John	-10948
▁一直到	-10949
▁但对于	-10950
▁你甚至	-10951
▁其中的	-10952
▁发生了	-10953
▁和他们	-10954
▁大自然	-10955
▁它只是	-10956
▁我妈妈	-10957
▁我突然	-10958
▁我说的	-10959
▁简单的	-10960
▁而且是	-10961
▁而这种	-10962
▁这将会	-10963
不是这样	-10964
世界银行	-10965
你可以在	-10966
到了一个	-10967
坐在一起	-10968
对自己的	-10969
就意味着	-10970
已经成为	-10971
所作所为	-10972
把它放在	-10973
数以百万	-10974
来看一下	-10975
海洋生物	-10976
百科全书	-10977
聪明的人	-10978
艺术作品	-10979
认为自己	-10980
这个领域	-10981
那么多的	-10982
需要的是	-10983
▁2000	-10984
▁他们觉得	-10985
▁当然还有	-10986
发生的一切	-10987
经前综合征	-10988
非常有趣的	-10989
▁某种程度上	-10990
发展中国家的	-10991
CO	-10992
Ge	-10993
az	-10994
··	-10995
▁借	-10996
▁占	-10997
▁尽	-10998
▁投	-10999
▁拍	-11000
▁维	-11001
▁翻	-11002
▁谢	-11003
▁难	-11004
一眼	-11005
一阵	-11006
不自	-11007
世代	-11008
中了	-11009
会很	-11010
传奇	-11011
伦斯	-11012
何方	-11013
你还	-11014
倒了	-11015
八个	-11016
分化	-11017
利于	-11018
利比	-11019
加贝	-11020
博弈	-11021
吸毒	-11022
咱们	-11023
哮喘	-11024
四天	-11025
国外	-11026
土卫	-11027
在外	-11028
地毯	-11029
塔尔	-11030
大事	-11031
大笑	-11032
子宫	-11033
密斯	-11034
尔顿	-11035
崇拜	-11036
平的	-11037
年在	-11038
强加	-11039
待了	-11040
微妙	-11041
总共	-11042
总部	-11043
我为	-11044
我问	-11045
打字	-11046
扔掉	-11047
振动	-11048
捐款	-11049
捐献	-11050
排泄	-11051
排队	-11052
撰写	-11053
收费	-11054
放映	-11055
救护	-11056
无力	-11057
是说	-11058
村民	-11059
条例	-11060
枪击	-11061
格雷	-11062
民间	-11063
气温	-11064
流通	-11065
清除	-11066
漫步	-11067
爬上	-11068
爬行	-11069
特效	-11070
王子	-11071
用手	-11072
画作	-11073
画出	-11074
留意	-11075
病原	-11076
皮质	-11077
盲目	-11078
眼球	-11079
研讨	-11080
程式	-11081
稍稍	-11082
税收	-11083
空洞	-11084
筛选	-11085
简易	-11086
素材	-11087
网膜	-11088
而去	-11089
耐克	-11090
耶路	-11091
肥料	-11092
能被	-11093
自从	-11094
荣耀	-11095
董事	-11096
蒸发	-11097
蜻蜓	-11098
血糖	-11099
解开	-11100
迷失	-11101
逃跑	-11102
铅笔	-11103
锁定	-11104
飞跃	-11105
香港	-11106
est	-11107
ete	-11108
▁Ar	-11109
▁他叫	-11110
▁增加	-11111
▁宗教	-11112
▁德国	-11113
▁我向	-11114
▁整整	-11115
▁是有	-11116
▁治疗	-11117
▁谈论	-11118
▁还在	-11119
▁远远	-11120
不允许	-11121
习惯于	-11122
了一名	-11123
什么都	-11124
内部的	-11125
原住民	-11126
发生时	-11127
只有在	-11128
和文化	-11129
和经济	-11130
哪一个	-11131
回答是	-11132
国家都	-11133
地方的	-11134
大屠杀	-11135
大脑里	-11136
如何呢	-11137
尼西亚	-11138
怎么了	-11139
感应器	-11140
我们来	-11141
模式的	-11142
海平面	-11143
潜水器	-11144
点什么	-11145
然后再	-11146
物质的	-11147
生命体	-11148
的一家	-11149
的努力	-11150
相反的	-11151
葡萄酒	-11152
视网膜	-11153
视频中	-11154
谈一谈	-11155
谈到的	-11156
谈的是	-11157
转折点	-11158
这个是	-11159
这并不	-11160
这张图	-11161
部分是	-11162
▁一旦你	-11163
▁创造出	-11164
▁在全球	-11165
▁它们都	-11166
▁我是在	-11167
▁我试着	-11168
▁所谓的	-11169
▁有点像	-11170
▁美国的	-11171
▁这张图	-11172
了解这些	-11173
人的生活	-11174
告诉人们	-11175
和其他人	-11176
基地组织	-11177
多样性的	-11178
我们自身	-11179
接下来要	-11180
无神论者	-11181
有自己的	-11182
的一个小	-11183
的时候了	-11184
美国政府	-11185
自然而然	-11186
那是一个	-11187
重新设计	-11188
▁他们就会	-11189
▁他们希望	-11190
▁但这不是	-11191
▁我们一起	-11192
▁我们喜欢	-11193
▁我和我的	-11194
▁特别是在	-11195
▁这听起来	-11196
▁这项技术	-11197
人类历史上	-11198
我们的身体	-11199
独一无二的	-11200
给你们展示	-11201
▁为什么我们	-11202
▁对于我来说	-11203
▁我们可以在	-11204
▁我们来看看	-11205
▁所以我们可以	-11206
49	-11207
9%	-11208
▁乌	-11209
一团	-11210
上过	-11211
不但	-11212
东京	-11213
东尼	-11214
乐于	-11215
乘以	-11216
人力	-11217
兔子	-11218
全职	-11219
切地	-11220
前沿	-11221
发动	-11222
吃一	-11223
吸入	-11224
和大	-11225
嘴里	-11226
固的	-11227
女王	-11228
官僚	-11229
定制	-11230
尽头	-11231
巴尔	-11232
巴斯	-11233
平行	-11234
徒步	-11235
德尔	-11236
悬浮	-11237
想在	-11238
换个	-11239
插入	-11240
改良	-11241
教的	-11242
斯基	-11243
无辜	-11244
旨在	-11245
是啊	-11246
暗喻	-11247
最快	-11248
本土	-11249
本科	-11250
杂耍	-11251
杠杆	-11252
构思	-11253
某处	-11254
某天	-11255
次方	-11256
歇尔	-11257
沉迷	-11258
沙子	-11259
沥青	-11260
活的	-11261
滚动	-11262
瀑布	-11263
灌溉	-11264
爱滋	-11265
犹豫	-11266
用电	-11267
用过	-11268
电网	-11269
画廊	-11270
的歌	-11271
直立	-11272
睡着	-11273
立马	-11274
站着	-11275
精细	-11276
纳税	-11277
聚变	-11278
芬奇	-11279
菜单	-11280
见识	-11281
讲了	-11282
话语	-11283
说他	-11284
说唱	-11285
谈的	-11286
贝拉	-11287
转身	-11288
辉煌	-11289
辛苦	-11290
这三	-11291
送上	-11292
造物	-11293
那段	-11294
部署	-11295
长得	-11296
闪光	-11297
降解	-11298
鸟儿	-11299
ike	-11300
ree	-11301
▁一张	-11302
▁从我	-11303
▁他用	-11304
▁但从	-11305
▁住在	-11306
▁医疗	-11307
▁妇女	-11308
▁彼此	-11309
▁很少	-11310
▁恐惧	-11311
▁晚上	-11312
▁测试	-11313
▁进而	-11314
▁采用	-11315
不明白	-11316
了两个	-11317
人行道	-11318
什么事	-11319
仔细看	-11320
他们为	-11321
以下的	-11322
任何的	-11323
会成为	-11324
作用的	-11325
克林顿	-11326
准确地	-11327
出一些	-11328
动物园	-11329
包括了	-11330
单一的	-11331
去探索	-11332
可以做	-11333
和设计	-11334
和这个	-11335
在地上	-11336
城市中	-11337
培养皿	-11338
多利亚	-11339
大约是	-11340
它就会	-11341
宝贵的	-11342
对它们	-11343
平等的	-11344
当中的	-11345
很兴奋	-11346
我们再	-11347
我就是	-11348
新加坡	-11349
是由于	-11350
更安全	-11351
最早的	-11352
没那么	-11353
清晰的	-11354
漫长的	-11355
现代的	-11356
的收入	-11357
的模型	-11358
的电话	-11359
知识的	-11360
第一批	-11361
管理员	-11362
管理局	-11363
索马里	-11364
老师们	-11365
老年人	-11366
耶路撒	-11367
自己说	-11368
西雅图	-11369
规模的	-11370
责任感	-11371
进监狱	-11372
采用了	-11373
陷入了	-11374
非营利	-11375
驾驶员	-11376
▁不仅是	-11377
▁今天我	-11378
▁告诉我	-11379
▁在那儿	-11380
▁对不起	-11381
▁有人说	-11382
▁有多少	-11383
▁这一次	-11384
▁这是他	-11385
一直以来	-11386
专业人士	-11387
亚伯拉罕	-11388
在一起的	-11389
很多地方	-11390
我们不是	-11391
我们这个	-11392
把他们的	-11393
操作系统	-11394
是不够的	-11395
的那一刻	-11396
给你们讲	-11397
美国人的	-11398
观众笑声	-11399
足够多的	-11400
▁他告诉我	-11401
▁因为现在	-11402
▁尽管如此	-11403
▁当我们在	-11404
▁我们使用	-11405
▁我们拥有	-11406
▁我们经常	-11407
▁斯蒂芬尼	-11408
工作的时候	-11409
开始的时候	-11410
我们在这里	-11411
截然不同的	-11412
有意思的是	-11413
联邦调查局	-11414
解决问题的	-11415
▁所以我认为	-11416
▁但是如果我们	-11417
▁所以我们需要	-11418
55	-11419
An	-11420
Sc	-11421
ib	-11422
”(	-11423
▁‘	-11424
▁半	-11425
▁干	-11426
▁指	-11427
▁莫	-11428
七八	-11429
不变	-11430
不只	-11431
产卵	-11432
人种	-11433
伙子	-11434
传到	-11435
体温	-11436
依照	-11437
光学	-11438
再说	-11439
冰岛	-11440
冷战	-11441
出路	-11442
切实	-11443
切尔	-11444
削弱	-11445
加尔	-11446
助手	-11447
医保	-11448
千人	-11449
反正	-11450
发病	-11451
合并	-11452
向的	-11453
因果	-11454
国度	-11455
奉献	-11456
奔跑	-11457
奥运	-11458
她会	-11459
孟买	-11460
学了	-11461
实例	-11462
对撞	-11463
尼泊	-11464
市旗	-11465
布尔	-11466
开拓	-11467
忧虑	-11468
快要	-11469
怀着	-11470
怪兽	-11471
我跟	-11472
敬畏	-11473
普尔	-11474
更具	-11475
曾被	-11476
最爱	-11477
机能	-11478
栅栏	-11479
棕榈	-11480
氛围	-11481
治理	-11482
活生	-11483
清洗	-11484
烦恼	-11485
电源	-11486
的了	-11487
的后	-11488
眼的	-11489
祖国	-11490
神的	-11491
答应	-11492
管制	-11493
而上	-11494
自发	-11495
致敬	-11496
船长	-11497
芬兰	-11498
花生	-11499
薪水	-11500
虫的	-11501
裂缝	-11502
言之	-11503
请你	-11504
踏上	-11505
躲避	-11506
通知	-11507
造影	-11508
量化	-11509
风筝	-11510
140	-11511
ens	-11512
ett	-11513
▁11	-11514
▁互相	-11515
▁人均	-11516
▁人的	-11517
▁健康	-11518
▁公民	-11519
▁发出	-11520
▁坦白	-11521
▁处于	-11522
▁多数	-11523
▁愿意	-11524
▁昨天	-11525
▁沿着	-11526
▁男性	-11527
▁社区	-11528
▁而不	-11529
▁蜜蜂	-11530
▁觉得	-11531
▁身为	-11532
▁避免	-11533
▁食物	-11534
一大堆	-11535
上大学	-11536
上来说	-11537
不停的	-11538
中找到	-11539
了一段	-11540
交流的	-11541
以一个	-11542
任何事	-11543
你所见	-11544
你能够	-11545
做成的	-11546
分子的	-11547
创始人	-11548
北极熊	-11549
参与的	-11550
又一遍	-11551
发表了	-11552
声音的	-11553
富有的	-11554
对人类	-11555
对你们	-11556
局限于	-11557
岁大的	-11558
应用在	-11559
开始于	-11560
开始吧	-11561
弗兰克	-11562
很显然	-11563
得出的	-11564
得更好	-11565
我个人	-11566
房子的	-11567
显著的	-11568
有一半	-11569
有几个	-11570
栋建筑	-11571
植物的	-11572
民主党	-11573
沃尔玛	-11574
活动家	-11575
深深地	-11576
清真寺	-11577
火星车	-11578
版本的	-11579
物体的	-11580
的事儿	-11581
的可能	-11582
的感受	-11583
的母亲	-11584
的消息	-11585
的颜色	-11586
相信我	-11587
让别人	-11588
转变成	-11589
近距离	-11590
这一天	-11591
这么大	-11592
遗传学	-11593
都会有	-11594
非零和	-11595
音乐会	-11596
马斯克	-11597
黑色的	-11598
▁任何人	-11599
▁刚开始	-11600
▁变成了	-11601
▁在许多	-11602
▁如果在	-11603
▁我们给	-11604
▁我做了	-11605
▁或者在	-11606
▁找到了	-11607
▁来解决	-11608
▁第一种	-11609
▁而且在	-11610
▁说实话	-11611
▁这确实	-11612
▁那些在	-11613
一些关于	-11614
一开始就	-11615
一起合作	-11616
不确定性	-11617
他们就会	-11618
作为一种	-11619
你是一个	-11620
你的孩子	-11621
关注的是	-11622
十分之一	-11623
发现这些	-11624
因为这个	-11625
奇怪的是	-11626
并不需要	-11627
激动人心	-11628
给你一个	-11629
还不知道	-11630
还有什么	-11631
这个样子	-11632
这种感觉	-11633
▁于是我就	-11634
▁大家可以	-11635
▁我们能否	-11636
▁然后我就	-11637
▁第一个是	-11638
▁这也就是	-11639
▁这样的话	-11640
▁这里有个	-11641
与众不同的	-11642
之间的联系	-11643
大家都知道	-11644
▁我知道你们	-11645
▁所以我开始	-11646
Am	-11647
af	-11648
ox	-11649
▁a	-11650
▁低	-11651
▁推	-11652
▁白	-11653
▁莉	-11654
一夜	-11655
不满	-11656
两百	-11657
习俗	-11658
亲吻	-11659
伐木	-11660
伸展	-11661
位数	-11662
住的	-11663
作了	-11664
促成	-11665
做爱	-11666
先驱	-11667
剧本	-11668
剧烈	-11669
号的	-11670
坚强	-11671
头衔	-11672
宣扬	-11673
导弹	-11674
将被	-11675
市郊	-11676
布兰	-11677
念头	-11678
怪异	-11679
恰当	-11680
截肢	-11681
手腕	-11682
把戏	-11683
拉登	-11684
按下	-11685
教义	-11686
整套	-11687
日的	-11688
普勒	-11689
机动	-11690
每月	-11691
流的	-11692
浓缩	-11693
源头	-11694
特例	-11695
环形	-11696
电图	-11697
电缆	-11698
痴迷	-11699
皇家	-11700
目击	-11701
短缺	-11702
移除	-11703
空军	-11704
突触	-11705
等的	-11706
紫色	-11707
绕着	-11708
置疑	-11709
考古	-11710
肮脏	-11711
荒唐	-11712
药片	-11713
菌丝	-11714
衰竭	-11715
要问	-11716
记载	-11717
讲到	-11718
贪婪	-11719
赞同	-11720
走在	-11721
轰炸	-11722
边上	-11723
迷因	-11724
迷惑	-11725
道上	-11726
陈述	-11727
霍乱	-11728
颗粒	-11729
风力	-11730
马尔	-11731
1.5	-11732
end	-11733
mat	-11734
ory	-11735
▁80	-11736
▁Mc	-11737
▁TK	-11738
▁一群	-11739
▁农业	-11740
▁分析	-11741
▁加贝	-11742
▁只需	-11743
▁大型	-11744
▁它还	-11745
▁我更	-11746
▁是被	-11747
▁有一	-11748
▁每周	-11749
▁电视	-11750
▁这两	-11751
▁这又	-11752
▁这和	-11753
▁这比	-11754
▁这跟	-11755
一方面	-11756
一直到	-11757
一群人	-11758
三十年	-11759
不能用	-11760
从我的	-11761
仔细地	-11762
他们被	-11763
会带来	-11764
伦敦的	-11765
使人们	-11766
信用卡	-11767
充斥着	-11768
内在的	-11769
创建了	-11770
制造了	-11771
努力的	-11772
另一端	-11773
可卡因	-11774
和工作	-11775
咖啡馆	-11776
天然的	-11777
它们能	-11778
安全套	-11779
居住的	-11780
帕金森	-11781
年以前	-11782
弦理论	-11783
很复杂	-11784
我们做	-11785
我怎么	-11786
我总是	-11787
我感觉	-11788
我是说	-11789
或许会	-11790
才开始	-11791
找一个	-11792
更健康	-11793
有一张	-11794
来实现	-11795
来说明	-11796
某一天	-11797
椅子上	-11798
残疾人	-11799
的一名	-11800
的做法	-11801
的记忆	-11802
真是太	-11803
突然间	-11804
站出来	-11805
第一天	-11806
给一个	-11807
美国和	-11808
英尺高	-11809
街道上	-11810
说他们	-11811
那么的	-11812
音乐厅	-11813
领域中	-11814
飞行的	-11815
麻痹症	-11816
1998	-11817
2015	-11818
6000	-11819
inux	-11820
tube	-11821
▁一系列	-11822
▁你们中	-11823
▁在整个	-11824
▁在英国	-11825
▁如果他	-11826
▁如果说	-11827
▁已经被	-11828
▁应该是	-11829
▁我会说	-11830
▁我将要	-11831
▁我这里	-11832
▁给他们	-11833
▁能够在	-11834
▁这是由	-11835
一点都不	-11836
不是为了	-11837
也不知道	-11838
他们认为	-11839
做到这点	-11840
其他一些	-11841
千万美元	-11842
可以成为	-11843
可以说是	-11844
因为它们	-11845
处在一个	-11846
惊讶的是	-11847
我们就会	-11848
我的意思	-11849
所拥有的	-11850
新陈代谢	-11851
有一定的	-11852
的方式是	-11853
看不到的	-11854
研究中心	-11855
问题所在	-11856
阿姆斯特	-11857
10000	-11858
athan	-11859
▁为什么不	-11860
▁众所周知	-11861
▁你能想象	-11862
▁告诉他们	-11863
▁如果你把	-11864
▁就像我们	-11865
▁并且他们	-11866
▁我们尝试	-11867
▁我们通常	-11868
▁然后他说	-11869
▁这是一只	-11870
巨大的挑战	-11871
所有的东西	-11872
现实生活中	-11873
艾滋病病毒	-11874
这样的地方	-11875
都是一样的	-11876
面临的挑战	-11877
国内生产总值	-11878
▁我不知道你们	-11879
,2	-11880
34	-11881
MA	-11882
MT	-11883
ex	-11884
ht	-11885
▁丹	-11886
▁吉	-11887
▁嗨	-11888
▁家	-11889
▁流	-11890
▁莱	-11891
▁跳	-11892
上是	-11893
上演	-11894
中部	-11895
产权	-11896
亲人	-11897
从业	-11898
他有	-11899
但这	-11900
停留	-11901
划分	-11902
制片	-11903
午饭	-11904
华丽	-11905
向外	-11906
喜好	-11907
地平	-11908
境地	-11909
境界	-11910
大选	-11911
失落	-11912
失踪	-11913
展品	-11914
岁月	-11915
巴克	-11916
幻肢	-11917
广义	-11918
开会	-11919
开口	-11920
归属	-11921
德华	-11922
总量	-11923
所要	-11924
抱着	-11925
接口	-11926
推理	-11927
收购	-11928
政党	-11929
桌面	-11930
棕色	-11931
毒性	-11932
沉积	-11933
法语	-11934
深渊	-11935
清晨	-11936
照亮	-11937
牛肉	-11938
犯了	-11939
生死	-11940
的老	-11941
碱基	-11942
纠正	-11943
纳粹	-11944
缓解	-11945
缩短	-11946
网球	-11947
罕见	-11948
翻转	-11949
背上	-11950
胜过	-11951
落后	-11952
薄的	-11953
蚁穴	-11954
被动	-11955
谁会	-11956
谴责	-11957
走的	-11958
越高	-11959
辩护	-11960
运送	-11961
还多	-11962
违背	-11963
适当	-11964
选手	-11965
速率	-11966
那场	-11967
部份	-11968
重重	-11969
镜片	-11970
闪烁	-11971
问卷	-11972
队的	-11973
骨髓	-11974
130	-11975
15%	-11976
Car	-11977
DVD	-11978
alk	-11979
ass	-11980
▁70	-11981
▁Ch	-11982
▁你对	-11983
▁像我	-11984
▁可惜	-11985
▁合作	-11986
▁我一	-11987
▁我正	-11988
▁投资	-11989
▁挑战	-11990
▁数字	-11991
▁是对	-11992
▁演讲	-11993
▁真实	-11994
▁穿着	-11995
▁能在	-11996
▁起初	-11997
▁阿尔	-11998
一代的	-11999
也非常	-12000
了一家	-12001
了超过	-12002
了那些	-12003
从没有	-12004
他自己	-12005
作品中	-12006
作曲家	-12007
全部的	-12008
到你的	-12009
制作了	-12010
医院里	-12011
即使是	-12012
去帮助	-12013
发展到	-12014
古希腊	-12015
和孩子	-12016
多年前	-12017
多年来	-12018
多或少	-12019
就好了	-12020
层面的	-12021
微积分	-12022
思想的	-12023
思考的	-12024
我们最	-12025
所在的	-12026
更小的	-12027
最小的	-12028
有一只	-12029
有两种	-12030
服务于	-12031
然后说	-12032
的一张	-12033
的恐惧	-12034
的父亲	-12035
看见的	-12036
被诊断	-12037
让这个	-12038
许多的	-12039
请举手	-12040
迅速地	-12041
部分的	-12042
非常高	-12043
非暴力	-12044
麦当劳	-12045
▁你无法	-12046
▁发现了	-12047
▁因为当	-12048
▁在一些	-12049
▁在所有	-12050
▁它就是	-12051
▁它已经	-12052
▁想想看	-12053
▁我其实	-12054
▁我刚刚	-12055
▁本质上	-12056
▁致力于	-12057
▁越来越	-12058
▁这已经	-12059
一种方式	-12060
不同寻常	-12061
公共卫生	-12062
关于这个	-12063
创建一个	-12064
发现自己	-12065
同一时间	-12066
大家可以	-12067
奥林匹克	-12068
宇宙中的	-12069
就有一个	-12070
已经有了	-12071
建造一个	-12072
很多人都	-12073
我们可能	-12074
新的东西	-12075
早些时候	-12076
是什么样	-12077
有意思的	-12078
每天都在	-12079
注意的是	-12080
生命中的	-12081
的基础上	-12082
社会进步	-12083
艺术家们	-12084
许许多多	-12085
首席执行	-12086
▁但我觉得	-12087
▁我看到了	-12088
他们的孩子	-12089
他们的工作	-12090
你所看到的	-12091
做些什么呢	-12092
我们的社会	-12093
生物多样性	-12094
聚集在一起	-12095
▁到目前为止	-12096
▁如果你想要	-12097
▁对我们来说	-12098
越来越多的人	-12099
▁在某种程度上	-12100
▁女士们先生们	-12101
38	-12102
58	-12103
oc	-12104
▁刚	-12105
▁库	-12106
▁往	-12107
▁戴	-12108
▁未	-12109
▁树	-12110
一会	-12111
不让	-12112
之道	-12113
云彩	-12114
亿年	-12115
仁慈	-12116
今后	-12117
会员	-12118
会计	-12119
传说	-12120
住所	-12121
侮辱	-12122
养蜂	-12123
出门	-12124
十倍	-12125
升温	-12126
压抑	-12127
只想	-12128
叫我	-12129
同胞	-12130
后退	-12131
君子	-12132
周年	-12133
增大	-12134
大洋	-12135
大洲	-12136
天真	-12137
太大	-12138
头盔	-12139
娜塔	-12140
实物	-12141
就好	-12142
屋里	-12143
巨人	-12144
平板	-12145
年半	-12146
开办	-12147
弱势	-12148
强子	-12149
当年	-12150
必定	-12151
恋爱	-12152
憎恨	-12153
我正	-12154
手势	-12155
拓展	-12156
拥护	-12157
指南	-12158
指的	-12159
握手	-12160
摔倒	-12161
文档	-12162
新奇	-12163
新星	-12164
新颖	-12165
明了	-12166
昨晚	-12167
普拉	-12168
月经	-12169
服役	-12170
权衡	-12171
架上	-12172
标语	-12173
核电	-12174
格拉	-12175
毁了	-12176
气象	-12177
水准	-12178
活性	-12179
浴室	-12180
渔民	-12181
点上	-12182
烟雾	-12183
琢磨	-12184
癫痫	-12185
的门	-12186
直观	-12187
真主	-12188
精灵	-12189
纳州	-12190
纹身	-12191
纺织	-12192
绳索	-12193
网格	-12194
耳机	-12195
联结	-12196
范例	-12197
菌落	-12198
补贴	-12199
装满	-12200
要从	-12201
解析	-12202
认证	-12203
讲台	-12204
误导	-12205
谜团	-12206
贝卡	-12207
越过	-12208
转到	-12209
转型	-12210
轻轻	-12211
进口	-12212
遍了	-12213
限的	-12214
颠倒	-12215
饲料	-12216
魔鬼	-12217
,10	-12218
190	-12219
99%	-12220
SPR	-12221
Wik	-12222
hah	-12223
▁to	-12224
▁从事	-12225
▁他有	-12226
▁保罗	-12227
▁周围	-12228
▁我可	-12229
▁正常	-12230
▁母亲	-12231
▁财富	-12232
一些事	-12233
不稳定	-12234
世纪末	-12235
个体的	-12236
为人知	-12237
交响乐	-12238
人一样	-12239
人生中	-12240
人群中	-12241
他们去	-12242
付出的	-12243
但他们	-12244
做实验	-12245
允许我	-12246
共和国	-12247
关键是	-12248
再也不	-12249
决定要	-12250
到我的	-12251
制成的	-12252
医生们	-12253
十分钟	-12254
发动机	-12255
吸引了	-12256
和技术	-12257
喜马拉	-12258
土地上	-12259
大学里	-12260
大气中	-12261
天花板	-12262
如何在	-12263
它就是	-12264
安全带	-12265
将来的	-12266
就行了	-12267
岁那年	-12268
已有的	-12269
希望能	-12270
带你们	-12271
平均值	-12272
恢复了	-12273
我们与	-12274
我就会	-12275
把他的	-12276
掌握了	-12277
新泽西	-12278
方法来	-12279
无论是	-12280
是用来	-12281
是这么	-12282
更多人	-12283
曾说过	-12284
最基本	-12285
有创意	-12286
核聚变	-12287
污染物	-12288
沉浸在	-12289
注射器	-12290
游戏的	-12291
激动的	-12292
生之年	-12293
的合作	-12294
的广告	-12295
的标准	-12296
的精神	-12297
的费用	-12298
的途径	-12299
能源的	-12300
艰难的	-12301
让一个	-12302
路易斯	-12303
运动中	-12304
还有个	-12305
这一刻	-12306
这一步	-12307
长大了	-12308
阿波罗	-12309
2030	-12310
▁他可以	-12311
▁他就是	-12312
▁以色列	-12313
▁它没有	-12314
▁我来自	-12315
▁这是很	-12316
▁这简直	-12317
也是一种	-12318
他们能够	-12319
会有什么	-12320
住在一个	-12321
你的生活	-12322
喜马拉雅	-12323
大多数的	-12324
如果你在	-12325
就在这里	-12326
尽可能地	-12327
成为可能	-12328
成了一个	-12329
我们一起	-12330
摩尔定律	-12331
整个国家	-12332
是如此的	-12333
更重要的	-12334
有意义的	-12335
段时间里	-12336
现在正在	-12337
的世界中	-12338
的大多数	-12339
研究表明	-12340
联邦政府	-12341
虚拟世界	-12342
这种想法	-12343
这种技术	-12344
通过这些	-12345
遗憾的是	-12346
需要我们	-12347
非常困难	-12348
▁不是因为	-12349
▁人们开始	-12350
▁他们必须	-12351
▁以及他们	-12352
▁你也许会	-12353
▁因为它是	-12354
▁因为这样	-12355
▁在这样的	-12356
▁如果一个	-12357
▁我们不仅	-12358
▁我们人类	-12359
▁我们有了	-12360
▁我觉得这	-12361
▁所以它们	-12362
▁最重要的	-12363
▁有的时候	-12364
不同的地方	-12365
告诉我们的	-12366
尼安德特人	-12367
我们不知道	-12368
找到了一个	-12369
提供了一个	-12370
百分之二十	-12371
首席执行官	-12372
▁David	-12373
▁如果我们不	-12374
▁我们必须要	-12375
▁我们意识到	-12376
▁我们看到了	-12377
▁我们还需要	-12378
▁我们可以通过	-12379
3.	-12380
85	-12381
IP	-12382
▁亦	-12383
▁博	-12384
▁嘿	-12385
▁热	-12386
▁算	-12387
▁车	-12388
一页	-12389
中年	-12390
临终	-12391
为主	-12392
举例	-12393
之家	-12394
交汇	-12395
会从	-12396
佛教	-12397
你我	-12398
偶像	-12399
全的	-12400
共事	-12401
冒着	-12402
写出	-12403
写过	-12404
冷静	-12405
凝聚	-12406
几率	-12407
切除	-12408
初始	-12409
剂量	-12410
功夫	-12411
动员	-12412
劳工	-12413
勃勃	-12414
匹马	-12415
协力	-12416
号召	-12417
吞噬	-12418
唤醒	-12419
器械	-12420
地产	-12421
地板	-12422
块钱	-12423
坚硬	-12424
基石	-12425
夜里	-12426
太过	-12427
太高	-12428
家务	-12429
寂静	-12430
小小	-12431
就说	-12432
嵌入	-12433
幅画	-12434
建的	-12435
开朗	-12436
开设	-12437
弹簧	-12438
很远	-12439
性爱	-12440
我家	-12441
抗拒	-12442
摇晃	-12443
有害	-12444
木偶	-12445
样式	-12446
每日	-12447
民意	-12448
汇聚	-12449
泰勒	-12450
港口	-12451
滑稽	-12452
灌木	-12453
狗狗	-12454
猛犸	-12455
生了	-12456
登山	-12457
的公	-12458
看它	-12459
睾丸	-12460
石器	-12461
硫化	-12462
秋天	-12463
秘鲁	-12464
移到	-12465
竞技	-12466
索沃	-12467
纳德	-12468
耻辱	-12469
芭蕾	-12470
虔诚	-12471
被送	-12472
西藏	-12473
要点	-12474
要说	-12475
读取	-12476
赤道	-12477
起初	-12478
躯体	-12479
轮子	-12480
轮廓	-12481
近期	-12482
这时	-12483
进攻	-12484
选了	-12485
重叠	-12486
重现	-12487
野蛮	-12488
钞票	-12489
面试	-12490
预知	-12491
飞翔	-12492
饲养	-12493
350	-12494
900	-12495
95%	-12496
IBM	-12497
her	-12498
ock	-12499
ust	-12500
▁你把	-12501
▁便是	-12502
▁去做	-12503
▁反对	-12504
▁大多	-12505
▁大量	-12506
▁将它	-12507
▁年轻	-12508
▁幸福	-12509
▁打印	-12510
▁欢迎	-12511
▁细菌	-12512
▁而它	-12513
▁莉莉	-12514
▁行为	-12515
▁请看	-12516
▁这还	-12517
▁那你	-12518
▁长期	-12519
▁马上	-12520
一直都	-12521
不了的	-12522
不会再	-12523
二进制	-12524
他可以	-12525
会发现	-12526
会如何	-12527
出生在	-12528
利用它	-12529
到达了	-12530
占据了	-12531
各自的	-12532
和女人	-12533
圣保罗	-12534
塑料袋	-12535
增长率	-12536
处理的	-12537
大学生	-12538
女孩儿	-12539
尼泊尔	-12540
很开心	-12541
急诊室	-12542
我就能	-12543
是一张	-12544
是好的	-12545
有影响	-12546
材料的	-12547
来控制	-12548
深远的	-12549
电脑的	-12550
的妇女	-12551
的巨大	-12552
的建议	-12553
的新闻	-12554
的空气	-12555
的规模	-12556
的认识	-12557
的身体	-12558
相对论	-12559
真实性	-12560
禽流感	-12561
科学界	-12562
突尼斯	-12563
精彩的	-12564
给你看	-12565
背景下	-12566
能为力	-12567
行得通	-12568
被用来	-12569
计算出	-12570
让我的	-12571
走出来	-12572
走过来	-12573
过来了	-12574
这些都	-12575
进行着	-12576
道路上	-12577
那么做	-12578
那些被	-12579
非常大	-12580
飞天车	-12581
1970	-12582
arry	-12583
eter	-12584
▁---	-12585
▁他正在	-12586
▁传统的	-12587
▁你们看	-12588
▁在中国	-12589
▁对他们	-12590
▁很容易	-12591
▁成为了	-12592
▁我从没	-12593
▁我们该	-12594
▁我尝试	-12595
▁我打算	-12596
▁有可能	-12597
▁相信我	-12598
▁还记得	-12599
▁这两种	-12600
▁这似乎	-12601
不是什么	-12602
不用担心	-12603
为什么呢	-12604
令人振奋	-12605
化学反应	-12606
印第安人	-12607
带给我们	-12608
很多很多	-12609
意识到了	-12610
我们确实	-12611
我们都是	-12612
接受教育	-12613
教育系统	-12614
有很多的	-12615
根本无法	-12616
生俱来的	-12617
科幻小说	-12618
角度来说	-12619
迄今为止	-12620
这个理论	-12621
都是一个	-12622
非常兴奋	-12623
黏液霉菌	-12624
RISPR	-12625
▁2005	-12626
▁2009	-12627
▁事实证明	-12628
▁如果这些	-12629
▁我们当时	-12630
▁我们总是	-12631
▁所以今天	-12632
▁所以当你	-12633
▁谢谢各位	-12634
▁这些就是	-12635
▁这是一件	-12636
▁这是一项	-12637
▁问题在于	-12638
不可避免的	-12639
今天的演讲	-12640
如果我们能	-12641
改变了我们	-12642
有什么关系	-12643
每个人都能	-12644
的一小部分	-12645
这样的问题	-12646
▁我认为我们	-12647
▁所以我们的	-12648
▁在这种情况下	-12649
▁让我们来看看	-12650
▁这是一个非常	-12651
BI	-12652
ew	-12653
▁c	-12654
▁l	-12655
▁倒	-12656
▁右	-12657
▁塞	-12658
▁眼	-12659
▁经	-12660
▁苏	-12661
一艘	-12662
三百	-12663
下水	-12664
乐谱	-12665
仇恨	-12666
他能	-12667
他还	-12668
会更	-12669
会面	-12670
信奉	-12671
借鉴	-12672
倡议	-12673
假说	-12674
充足	-12675
先锋	-12676
几位	-12677
函数	-12678
别处	-12679
勒比	-12680
化妆	-12681
化身	-12682
十八	-12683
又说	-12684
向他	-12685
启蒙	-12686
四肢	-12687
土豆	-12688
在不	-12689
地形	-12690
埔寨	-12691
奇异	-12692
奏效	-12693
好友	-12694
好看	-12695
姆琳	-12696
宏伟	-12697
导向	-12698
山的	-12699
差点	-12700
年底	-12701
废水	-12702
得分	-12703
德斯	-12704
性交	-12705
恶性	-12706
情愿	-12707
想把	-12708
感冒	-12709
戈斯	-12710
战后	-12711
房里	-12712
执法	-12713
护照	-12714
拜托	-12715
授粉	-12716
更能	-12717
树的	-12718
水域	-12719
洗澡	-12720
洛斯	-12721
流体	-12722
温柔	-12723
照料	-12724
环顾	-12725
珠宝	-12726
用法	-12727
的热	-12728
盟友	-12729
硕士	-12730
而死	-12731
耳蜗	-12732
胸部	-12733
能的	-12734
腐烂	-12735
致癌	-12736
舌头	-12737
草图	-12738
草地	-12739
萎缩	-12740
被打	-12741
评分	-12742
说谎	-12743
谁能	-12744
谈起	-12745
走神	-12746
路程	-12747
辨识	-12748
退出	-12749
选民	-12750
通向	-12751
造福	-12752
配方	-12753
酷的	-12754
附加	-12755
音响	-12756
音调	-12757
食堂	-12758
骚扰	-12759
高层	-12760
鹅肝	-12761
ace	-12762
bed	-12763
our	-12764
▁Sp	-12765
▁不如	-12766
▁估计	-12767
▁但对	-12768
▁但要	-12769
▁全国	-12770
▁包含	-12771
▁埃及	-12772
▁埃隆	-12773
▁大学	-12774
▁将其	-12775
▁展现	-12776
▁拍摄	-12777
▁暴力	-12778
▁看来	-12779
▁自动	-12780
▁负责	-12781
下去了	-12782
不会是	-12783
了自己	-12784
二十几	-12785
令我们	-12786
会看到	-12787
低收入	-12788
做决定	-12789
出生于	-12790
分布在	-12791
十年后	-12792
去年的	-12793
发明家	-12794
受教育	-12795
可以为	-12796
后面的	-12797
启动了	-12798
回来的	-12799
回答道	-12800
地看到	-12801
宗教的	-12802
定义为	-12803
将自己	-12804
就是你	-12805
岁生日	-12806
工作和	-12807
年之前	-12808
年左右	-12809
应有的	-12810
当一个	-12811
彻底的	-12812
很有用	-12813
很聪明	-12814
怎么能	-12815
我感到	-12816
我所说	-12817
托姆琳	-12818
把那些	-12819
支持者	-12820
收到的	-12821
是时候	-12822
最棒的	-12823
有价值	-12824
杂货店	-12825
来改变	-12826
来结束	-12827
柬埔寨	-12828
桌子上	-12829
正式的	-12830
每一种	-12831
民主的	-12832
活着的	-12833
火星上	-12834
烤面包	-12835
痛苦的	-12836
的了解	-12837
的事是	-12838
的数字	-12839
的质量	-12840
看到过	-12841
真正想	-12842
着这个	-12843
简短的	-12844
给别人	-12845
能做的	-12846
英国人	-12847
药物的	-12848
谈论的	-12849
贫穷的	-12850
起源于	-12851
过这些	-12852
运用到	-12853
这家伙	-12854
适当的	-12855
避难所	-12856
闻起来	-12857
项目中	-12858
1999	-12859
icha	-12860
orge	-12861
▁他已经	-12862
▁但最终	-12863
▁充满了	-12864
▁到现在	-12865
▁它叫做	-12866
▁巨大的	-12867
▁已经有	-12868
▁并且它	-12869
▁得到了	-12870
▁想一想	-12871
▁我认识	-12872
▁我那时	-12873
▁改变了	-12874
▁每一天	-12875
▁这个词	-12876
▁这也许	-12877
不是那么	-12878
亚特兰大	-12879
什么都不	-12880
仔细想想	-12881
做到这些	-12882
做的一个	-12883
其他地区	-12884
发挥作用	-12885
告诉我的	-12886
国家地理	-12887
在他们的	-12888
大脑中的	-12889
如此多的	-12890
对自己说	-12891
我们是否	-12892
我第一次	-12893
所有事情	-12894
提醒我们	-12895
搜索结果	-12896
无关紧要	-12897
是一个很	-12898
没有得到	-12899
用自己的	-12900
的时间和	-12901
给孩子们	-12902
观察到的	-12903
这一切都	-12904
这项研究	-12905
非洲国家	-12906
▁今天我要	-12907
▁从那时起	-12908
▁但我知道	-12909
▁但是对于	-12910
▁你还可以	-12911
▁像这样的	-12912
▁因为我想	-12913
▁因为我的	-12914
▁如果你不	-12915
▁如果你去	-12916
▁它们都是	-12917
▁我的朋友	-12918
▁现在已经	-12919
▁现在这个	-12920
▁这是他们	-12921
▁那么现在	-12922
到目前为止	-12923
大部分时间	-12924
很大一部分	-12925
没有足够的	-12926
灵长类动物	-12927
自己的孩子	-12928
这个星球上	-12929
ipedia	-12930
▁当我第一次	-12931
▁我从来没有	-12932
▁所以我们在	-12933
▁而且我认为	-12934
我们可以看到	-12935
是如何工作的	-12936
,7	-12937
,8	-12938
31	-12939
95	-12940
AT	-12941
▁'	-12942
▁丽	-12943
▁少	-12944
▁强	-12945
▁抗	-12946
▁索	-12947
▁紧	-12948
▁行	-12949
一试	-12950
万的	-12951
与此	-12952
世了	-12953
世人	-12954
东非	-12955
丝婷	-12956
临界	-12957
主管	-12958
之多	-12959
五种	-12960
人家	-12961
保卫	-12962
先前	-12963
光了	-12964
光速	-12965
全美	-12966
养老	-12967
内卢	-12968
减弱	-12969
切片	-12970
刊登	-12971
利他	-12972
前方	-12973
力和	-12974
十几	-12975
参照	-12976
又能	-12977
友谊	-12978
口味	-12979
口音	-12980
合唱	-12981
啦啦	-12982
喇嘛	-12983
嘈杂	-12984
国务	-12985
在最	-12986
声的	-12987
外出	-12988
夜间	-12989
大奖	-12990
大街	-12991
奖项	-12992
女友	-12993
奶牛	-12994
宁愿	-12995
宝石	-12996
客人	-12997
就很	-12998
就更	-12999
就跟	-13000
山谷	-13001
岩洞	-13002
州长	-13003
左手	-13004
巧妙	-13005
带动	-13006
席卷	-13007
平和	-13008
得主	-13009
您的	-13010
想用	-13011
我猜	-13012
才有	-13013
扭转	-13014
抛开	-13015
抵制	-13016
散布	-13017
数值	-13018
无趣	-13019
时每	-13020
更小	-13021
机关	-13022
根深	-13023
棍子	-13024
植被	-13025
步伐	-13026
水池	-13027
流失	-13028
流逝	-13029
海拔	-13030
涡轮	-13031
满怀	-13032
点亮	-13033
牲畜	-13034
特勒	-13035
玩乐	-13036
球的	-13037
甚么	-13038
番茄	-13039
痢疾	-13040
的内	-13041
真诚	-13042
知情	-13043
秃鹫	-13044
章鱼	-13045
筹款	-13046
米尔	-13047
粉色	-13048
纷纷	-13049
绝佳	-13050
联络	-13051
肉类	-13052
获胜	-13053
衍生	-13054
西西	-13055
触觉	-13056
评判	-13057
说来	-13058
贫富	-13059
贿赂	-13060
跨过	-13061
运河	-13062
这不	-13063
这首	-13064
退化	-13065
都说	-13066
重返	-13067
鉴定	-13068
随身	-13069
靠着	-13070
麻木	-13071
ift	-13072
ole	-13073
ony	-13074
pha	-13075
ton	-13076
▁Be	-13077
▁世上	-13078
▁乔治	-13079
▁人民	-13080
▁他从	-13081
▁你从	-13082
▁出现	-13083
▁性别	-13084
▁拯救	-13085
▁男孩	-13086
▁看见	-13087
▁空气	-13088
▁管理	-13089
▁经历	-13090
▁走进	-13091
▁过了	-13092
▁这件	-13093
▁这座	-13094
▁黑人	-13095
一张纸	-13096
一旦你	-13097
一瞬间	-13098
不寻常	-13099
不能被	-13100
与这些	-13101
亿美金	-13102
他是个	-13103
会议员	-13104
体内的	-13105
你是谁	-13106
关闭了	-13107
农作物	-13108
准备的	-13109
出生时	-13110
北卡罗	-13111
却不是	-13112
去改变	-13113
反映了	-13114
发生着	-13115
取代了	-13116
台电脑	-13117
史密斯	-13118
吸引人	-13119
和教育	-13120
国家里	-13121
土地的	-13122
在场的	-13123
多么的	-13124
大家的	-13125
奇特的	-13126
好像是	-13127
娜塔莎	-13128
学家们	-13129
它没有	-13130
小时内	-13131
尝试去	-13132
层次的	-13133
必须的	-13134
我以前	-13135
打破了	-13136
提到过	-13137
数据和	-13138
是相当	-13139
更少的	-13140
有这些	-13141
有问题	-13142
有非常	-13143
来帮助	-13144
来谈谈	-13145
正方形	-13146
比现在	-13147
法尼亚	-13148
活下来	-13149
热内卢	-13150
照片中	-13151
特有的	-13152
环境里	-13153
生成的	-13154
生长的	-13155
瘾君子	-13156
的大门	-13157
的投资	-13158
的最好	-13159
的治疗	-13160
的症状	-13161
的真正	-13162
的节目	-13163
的表情	-13164
的身份	-13165
研究院	-13166
破坏了	-13167
硫化氢	-13168
统计学	-13169
观察了	-13170
计算器	-13171
记录下	-13172
记忆的	-13173
设计者	-13174
贾丝婷	-13175
这可能	-13176
这种事	-13177
避免的	-13178
那不是	-13179
1984	-13180
2500	-13181
iPad	-13182
▁一个在	-13183
▁一切都	-13184
▁他开始	-13185
▁但我也	-13186
▁你会说	-13187
▁你开始	-13188
▁你想要	-13189
▁再看看	-13190
▁可以让	-13191
▁史蒂夫	-13192
▁同样地	-13193
▁我想这	-13194
▁所以她	-13195
▁正因为	-13196
▁特斯拉	-13197
▁这是从	-13198
▁那么你	-13199
▁阿富汗	-13200
一个星期	-13201
你为什么	-13202
几个世纪	-13203
别的什么	-13204
加拿大的	-13205
博士学位	-13206
发生变化	-13207
可以帮助	-13208
可以让你	-13209
在这方面	-13210
如何使用	-13211
安全座椅	-13212
完成这个	-13213
就变成了	-13214
尽可能的	-13215
工作岗位	-13216
并不存在	-13217
强子对撞	-13218
很快就会	-13219
我们只是	-13220
我就可以	-13221
我的母亲	-13222
搜索引擎	-13223
放在一个	-13224
没有人会	-13225
的受害者	-13226
的方法是	-13227
第一件事	-13228
维多利亚	-13229
营养不良	-13230
这么多的	-13231
这是真的	-13232
通过一个	-13233
那个地方	-13234
那是什么	-13235
需要帮助	-13236
▁2008	-13237
▁世界上最	-13238
▁他们能够	-13239
▁你们现在	-13240
▁你可以从	-13241
▁总的来说	-13242
▁成为一个	-13243
▁我们自己	-13244
▁我们还是	-13245
▁我们首先	-13246
▁而且它们	-13247
▁让我们从	-13248
▁这个方法	-13249
▁这些孩子	-13250
▁这实际上	-13251
▁这看起来	-13252
▁这种方法	-13253
同样的问题	-13254
并不是一个	-13255
我们所有人	-13256
时间的推移	-13257
没有意识到	-13258
这样的一个	-13259
里约热内卢	-13260
▁我们一直在	-13261
▁我们所做的	-13262
▁这不是一个	-13263
▁这是我们在	-13264
▁顺便说一句	-13265
!"	-13266
44	-13267
59	-13268
ER	-13269
FO	-13270
Ph	-13271
▁九	-13272
▁双	-13273
▁身	-13274
▁迪	-13275
一倍	-13276
一动	-13277
一类	-13278
三千	-13279
上台	-13280
上而	-13281
不复	-13282
世贸	-13283
两张	-13284
中等	-13285
主席	-13286
主持	-13287
书本	-13288
书里	-13289
争辩	-13290
产的	-13291
人文	-13292
人格	-13293
仁爱	-13294
他要	-13295
伪装	-13296
修补	-13297
做为	-13298
做完	-13299
光照	-13300
兴起	-13301
养家	-13302
再做	-13303
刹车	-13304
剪辑	-13305
单身	-13306
发给	-13307
变换	-13308
口头	-13309
吸取	-13310
哈德	-13311
喷射	-13312
嘴巴	-13313
噩梦	-13314
地亚	-13315
坦诚	-13316
堵塞	-13317
墨水	-13318
大片	-13319
失控	-13320
奖金	-13321
姓名	-13322
富人	-13323
对她	-13324
小段	-13325
小额	-13326
尖端	-13327
带我	-13328
常态	-13329
干了	-13330
弗里	-13331
待在	-13332
心跳	-13333
我了	-13334
把她	-13335
抵消	-13336
拖延	-13337
指引	-13338
挫折	-13339
掠夺	-13340
攀登	-13341
支柱	-13342
收养	-13343
放了	-13344
放回	-13345
断了	-13346
方达	-13347
村里	-13348
汇集	-13349
没用	-13350
洞察	-13351
流向	-13352
海外	-13353
混淆	-13354
火焰	-13355
猎物	-13356
电邮	-13357
界线	-13358
的爱	-13359
益处	-13360
示范	-13361
祷告	-13362
种的	-13363
笛子	-13364
紧迫	-13365
老了	-13366
自尊	-13367
致死	-13368
航班	-13369
萝卜	-13370
萨拉	-13371
虫子	-13372
蜂巢	-13373
被关	-13374
被困	-13375
警官	-13376
试过	-13377
诱因	-13378
走去	-13379
越是	-13380
趋向	-13381
跳跃	-13382
迫使	-13383
迫切	-13384
通风	-13385
那片	-13386
钻石	-13387
错过	-13388
问她	-13389
雏形	-13390
面纱	-13391
预见	-13392
首相	-13393
首领	-13394
鸭子	-13395
,30	-13396
ans	-13397
arr	-13398
ero	-13399
▁RM	-13400
▁一百	-13401
▁但最	-13402
▁复杂	-13403
▁她还	-13404
▁妈妈	-13405
▁寻求	-13406
▁新闻	-13407
▁普通	-13408
▁每一	-13409
▁移动	-13410
▁空间	-13411
▁穿越	-13412
▁花了	-13413
▁表现	-13414
▁解释	-13415
▁这片	-13416
▁释放	-13417
一致的	-13418
三百万	-13419
两分钟	-13420
中间的	-13421
他已经	-13422
他正在	-13423
会觉得	-13424
你的手	-13425
出一种	-13426
十年来	-13427
单独的	-13428
发表的	-13429
可见的	-13430
和服务	-13431
回过头	-13432
在工作	-13433
在欧洲	-13434
外太空	-13435
太大了	-13436
奴隶制	-13437
就像在	-13438
就能够	-13439
屋顶上	-13440
工业化	-13441
工作过	-13442
恰恰是	-13443
想到了	-13444
我如何	-13445
我母亲	-13446
我甚至	-13447
放进去	-13448
更糟糕	-13449
根深蒂	-13450
模型的	-13451
比以前	-13452
流动性	-13453
海洋里	-13454
消防员	-13455
潜意识	-13456
爱的人	-13457
生态圈	-13458
用我的	-13459
的人才	-13460
的创新	-13461
的团队	-13462
的大气	-13463
的思想	-13464
的生产	-13465
目标的	-13466
称其为	-13467
精确的	-13468
结婚了	-13469
给它们	-13470
绝对是	-13471
网络中	-13472
节目的	-13473
请大家	-13474
谈到了	-13475
负面的	-13476
贫民区	-13477
超新星	-13478
轨道上	-13479
透明度	-13480
长大后	-13481
集中营	-13482
震惊了	-13483
▁人们对	-13484
▁今天的	-13485
▁你一定	-13486
▁你已经	-13487
▁你真的	-13488
▁做一个	-13489
▁再加上	-13490
▁历史上	-13491
▁可持续	-13492
▁因为有	-13493
▁因此在	-13494
▁如果把	-13495
▁没什么	-13496
▁直到我	-13497
▁相对于	-13498
▁而对于	-13499
▁而这一	-13500
▁艾滋病	-13501
▁被称为	-13502
▁让它们	-13503
▁请记住	-13504
▁这三个	-13505
中的一员	-13506
为我们的	-13507
人道主义	-13508
他自己的	-13509
值得我们	-13510
做好准备	-13511
出了一个	-13512
印象深刻	-13513
只是为了	-13514
可以实现	-13515
可口可乐	-13516
哈佛大学	-13517
大自然的	-13518
对于一个	-13519
工程师们	-13520
市场营销	-13521
年的历史	-13522
很简单的	-13523
感到惊讶	-13524
我们拥有	-13525
我们甚至	-13526
改变了我	-13527
无能为力	-13528
是不同的	-13529
曾经说过	-13530
有趣的事	-13531
某些东西	-13532
电子设备	-13533
的情况是	-13534
的意思是	-13535
的环境下	-13536
的科学家	-13537
纳米比亚	-13538
说的那样	-13539
这个方向	-13540
这些想法	-13541
这座城市	-13542
▁但我们的	-13543
▁但是当我	-13544
▁你的大脑	-13545
▁如果我能	-13546
▁就像一个	-13547
▁我们也在	-13548
▁我是一名	-13549
▁所以你们	-13550
▁没有一个	-13551
▁看看这个	-13552
▁研究人员	-13553
▁而我认为	-13554
▁试想一下	-13555
亚里士多德	-13556
准备好了吗	-13557
就是这样的	-13558
巨大的影响	-13559
并没有什么	-13560
意想不到的	-13561
成立了一个	-13562
我们发现了	-13563
根本不知道	-13564
沙特阿拉伯	-13565
生态系统的	-13566
让我们看看	-13567
这个世界的	-13568
面临的问题	-13569
ichael	-13570
▁我们为什么	-13571
二氧化碳排放	-13572
发生了什么事	-13573
▁大家可以看到	-13574
68	-13575
MU	-13576
eg	-13577
up	-13578
▁n	-13579
▁仍	-13580
▁供	-13581
▁冰	-13582
▁南	-13583
▁法	-13584
▁狗	-13585
▁种	-13586
一门	-13587
上空	-13588
不定	-13589
东欧	-13590
主权	-13591
主观	-13592
之人	-13593
乌云	-13594
乌贼	-13595
争夺	-13596
五岁	-13597
介于	-13598
会想	-13599
会让	-13600
传粉	-13601
你了	-13602
债券	-13603
催化	-13604
内瑞	-13605
军人	-13606
力气	-13607
动了	-13608
匈牙	-13609
医护	-13610
压制	-13611
厘岛	-13612
叫作	-13613
可供	-13614
启迪	-13615
周后	-13616
喝酒	-13617
四岁	-13618
地是	-13619
基里	-13620
大国	-13621
大地	-13622
大赛	-13623
奥秘	-13624
学着	-13625
定期	-13626
宝贵	-13627
审美	-13628
害虫	-13629
家门	-13630
宾夕	-13631
对外	-13632
就如	-13633
就没	-13634
就行	-13635
峰值	-13636
市政	-13637
幼虫	-13638
开端	-13639
开销	-13640
弄清	-13641
归根	-13642
德的	-13643
悄悄	-13644
惯例	-13645
想做	-13646
所欲	-13647
打扮	-13648
扼杀	-13649
拼命	-13650
指控	-13651
搞定	-13652
搞砸	-13653
敌意	-13654
无一	-13655
日光	-13656
是把	-13657
最先	-13658
最具	-13659
杀戮	-13660
来吧	-13661
楼房	-13662
步入	-13663
殴打	-13664
比的	-13665
求救	-13666
汇款	-13667
污水	-13668
渴求	-13669
源泉	-13670
漆黑	-13671
激起	-13672
灰尘	-13673
照相	-13674
牡蛎	-13675
牵涉	-13676
猪的	-13677
珍惜	-13678
珍贵	-13679
瓦特	-13680
用药	-13681
由你	-13682
的鱼	-13683
省下	-13684
神殿	-13685
福德	-13686
站立	-13687
简历	-13688
精心	-13689
糖果	-13690
纠结	-13691
终止	-13692
维修	-13693
脸部	-13694
艰巨	-13695
草坪	-13696
药性	-13697
获利	-13698
蜗牛	-13699
蝴蝶	-13700
行人	-13701
袋獾	-13702
要走	-13703
解码	-13704
贝多	-13705
跟他	-13706
车站	-13707
转过	-13708
过得	-13709
这门	-13710
选的	-13711
那次	-13712
酵母	-13713
闲置	-13714
间断	-13715
雷德	-13716
马桶	-13717
高压	-13718
高温	-13719
160	-13720
And	-13721
Ver	-13722
ark	-13723
ity	-13724
”,“	-13725
”--	-13726
▁17	-13727
▁一样	-13728
▁从此	-13729
▁依然	-13730
▁在一	-13731
▁数以	-13732
▁早期	-13733
▁死亡	-13734
▁病毒	-13735
▁缺乏	-13736
▁肿瘤	-13737
▁花费	-13738
▁蓝色	-13739
▁视觉	-13740
▁调查	-13741
▁这块	-13742
▁这才	-13743
▁邀请	-13744
一年前	-13745
万五千	-13746
不是个	-13747
不是说	-13748
也应该	-13749
争议的	-13750
五百万	-13751
人性化	-13752
他们不	-13753
但我们	-13754
使它们	-13755
内瑞拉	-13756
出版社	-13757
分之三	-13758
原子弹	-13759
去参加	-13760
可怜的	-13761
合作者	-13762
和别人	-13763
和政府	-13764
因为她	-13765
女朋友	-13766
孤儿院	-13767
安慰剂	-13768
实验的	-13769
将成为	-13770
就不能	-13771
带回家	-13772
当然了	-13773
意外的	-13774
成立了	-13775
我们只	-13776
我听到	-13777
把整个	-13778
控制器	-13779
教育和	-13780
无数的	-13781
是一家	-13782
曾经是	-13783
有名的	-13784
机会去	-13785
权力的	-13786
来研究	-13787
森林的	-13788
正在被	-13789
永久的	-13790
活动中	-13791
灭绝了	-13792
状态下	-13793
理解了	-13794
的人工	-13795
的区别	-13796
的女士	-13797
的对话	-13798
的观念	-13799
看作是	-13800
离我们	-13801
细小的	-13802
能改变	-13803
视觉化	-13804
还是很	-13805
都是有	-13806
高效的	-13807
▁一部分	-13808
▁下一步	-13809
▁为我们	-13810
▁于是她	-13811
▁其中有	-13812
▁剩下的	-13813
▁后来我	-13814
▁告诉你	-13815
▁和我的	-13816
▁大概有	-13817
▁大约有	-13818
▁如果它	-13819
▁它们有	-13820
▁就像你	-13821
▁并开始	-13822
▁我从未	-13823
▁换言之	-13824
▁而且你	-13825
▁而且还	-13826
▁艾瑞克	-13827
▁这真的	-13828
▁这里面	-13829
▁这非常	-13830
▁都没有	-13831
人们开始	-13832
他们已经	-13833
做出改变	-13834
公立学校	-13835
出乎意料	-13836
可以用来	-13837
委内瑞拉	-13838
它的时候	-13839
就业机会	-13840
就开始了	-13841
就是一种	-13842
年轻女性	-13843
我们使用	-13844
我们做的	-13845
所造成的	-13846
把自己的	-13847
接受治疗	-13848
星球上的	-13849
是巨大的	-13850
没人知道	-13851
环境保护	-13852
相似之处	-13853
致命武器	-13854
讽刺的是	-13855
运作方式	-13856
这一过程	-13857
这个方法	-13858
这么大的	-13859
这听起来	-13860
进行研究	-13861
▁一个非常	-13862
▁以及我们	-13863
▁到处都是	-13864
▁在他们的	-13865
▁我不是说	-13866
▁我不确定	-13867
▁我们也许	-13868
▁我们其实	-13869
▁我们的确	-13870
▁我发现了	-13871
▁气候变化	-13872
中的一些人	-13873
举一个例子	-13874
其中的一些	-13875
宾夕法尼亚	-13876
小儿麻痹症	-13877
我从来没有	-13878
是因为我们	-13879
是最重要的	-13880
自己的生活	-13881
▁但是我们的	-13882
▁因为我知道	-13883
▁我们得到了	-13884
▁所以我们就	-13885
我们可以通过	-13886
是怎么做到的	-13887
▁我们生活在一个	-13888
39	-13889
Fl	-13890
OL	-13891
ge	-13892
ok	-13893
▁事	-13894
▁朱	-13895
▁欧	-13896
▁送	-13897
一共	-13898
下个	-13899
丑陋	-13900
丢弃	-13901
主体	-13902
之于	-13903
了几	-13904
互助	-13905
他所	-13906
会问	-13907
传媒	-13908
体外	-13909
信件	-13910
光滑	-13911
入狱	-13912
关上	-13913
减排	-13914
出席	-13915
则会	-13916
判决	-13917
剥削	-13918
升起	-13919
半岛	-13920
协商	-13921
参数	-13922
双重	-13923
各类	-13924
周遭	-13925
唤起	-13926
商务	-13927
嗅觉	-13928
四百	-13929
在其	-13930
填满	-13931
大门	-13932
失聪	-13933
妓女	-13934
娃娃	-13935
守护	-13936
审核	-13937
害羞	-13938
将此	-13939
就把	-13940
布置	-13941
带你	-13942
年时	-13943
并肩	-13944
幻象	-13945
建构	-13946
异议	-13947
当天	-13948
律宾	-13949
忘掉	-13950
怪物	-13951
恰巧	-13952
抢劫	-13953
排在	-13954
摒弃	-13955
救赎	-13956
断裂	-13957
斯托	-13958
斯蒂	-13959
最新	-13960
有何	-13961
未被	-13962
末日	-13963
条路	-13964
来过	-13965
格伦	-13966
每隔	-13967
波兰	-13968
海绵	-13969
滑翔	-13970
烤箱	-13971
狭窄	-13972
理会	-13973
的反	-13974
的可	-13975
盘子	-13976
着你	-13977
知晓	-13978
礼貌	-13979
私有	-13980
第六	-13981
纳尔	-13982
罗毕	-13983
老的	-13984
而我	-13985
蒙大	-13986
蓝图	-13987
蜂群	-13988
要想	-13989
规矩	-13990
译者	-13991
课本	-13992
赖以	-13993
跳过	-13994
较为	-13995
过分	-13996
过多	-13997
还挺	-13998
进到	-13999
连串	-14000
逆境	-14001
通话	-14002
遍及	-14003
都用	-14004
金星	-14005
长出	-14006
阴谋	-14007
附着	-14008
难过	-14009
领养	-14010
香烟	-14011
黄蜂	-14012
Ted	-14013
rew	-14014
▁一家	-14015
▁一是	-14016
▁专家	-14017
▁二十	-14018
▁以下	-14019
▁伊朗	-14020
▁使其	-14021
▁医院	-14022
▁图片	-14023
▁开放	-14024
▁感到	-14025
▁放到	-14026
▁是你	-14027
▁本来	-14028
▁气候	-14029
▁测量	-14030
▁离开	-14031
▁第四	-14032
▁英语	-14033
▁走向	-14034
▁这份	-14035
▁远离	-14036
▁道德	-14037
▁飞机	-14038
一个个	-14039
一直是	-14040
一美元	-14041
不太好	-14042
不足以	-14043
丧失了	-14044
也包括	-14045
习惯了	-14046
了你的	-14047
了她的	-14048
他们还	-14049
会得到	-14050
传递给	-14051
伯克利	-14052
做很多	-14053
公路上	-14054
创作的	-14055
到底在	-14056
前面的	-14057
医生的	-14058
取得的	-14059
吃一惊	-14060
合成的	-14061
同意了	-14062
四个月	-14063
因如此	-14064
固有的	-14065
在一些	-14066
地面上	-14067
外面的	-14068
大使馆	-14069
天文学	-14070
失败者	-14071
孩子在	-14072
安全感	-14073
小型的	-14074
就变得	-14075
年后的	-14076
应用的	-14077
延伸到	-14078
很强的	-14079
心协力	-14080
我也是	-14081
接一个	-14082
教室里	-14083
文明的	-14084
时每刻	-14085
曾经在	-14086
森林里	-14087
正面的	-14088
每个月	-14089
比这个	-14090
牛仔裤	-14091
现在就	-14092
生产出	-14093
的场景	-14094
的年代	-14095
的情形	-14096
石油的	-14097
社会里	-14098
社区中	-14099
篇论文	-14100
给孩子	-14101
罕见的	-14102
菲律宾	-14103
表达的	-14104
视而不	-14105
解释的	-14106
说的话	-14107
走出去	-14108
那一天	-14109
都必须	-14110
-2-3	-14111
bert	-14112
▁不得不	-14113
▁不论是	-14114
▁但当我	-14115
▁但我的	-14116
▁但没有	-14117
▁你们都	-14118
▁你如何	-14119
▁同性恋	-14120
▁在欧洲	-14121
▁在没有	-14122
▁大概是	-14123
▁它能够	-14124
▁就在那	-14125
▁当一个	-14126
▁得到的	-14127
▁我不再	-14128
▁我们便	-14129
▁我坚信	-14130
▁我看见	-14131
▁我确信	-14132
▁我确实	-14133
▁我终于	-14134
▁是那些	-14135
▁现在有	-14136
▁老实说	-14137
▁这表明	-14138
七十年代	-14139
上的问题	-14140
个这样的	-14141
人的生命	-14142
人际关系	-14143
健康状况	-14144
八十年代	-14145
六十年代	-14146
其他事情	-14147
凌晨四点	-14148
几个月前	-14149
创造一种	-14150
创造性的	-14151
到了这个	-14152
医疗服务	-14153
历史学家	-14154
去的地方	-14155
可以得到	-14156
告诉我说	-14157
团结起来	-14158
在网络上	-14159
就在那里	-14160
并不重要	-14161
弗吉尼亚	-14162
形成一个	-14163
很多时候	-14164
感受到了	-14165
成为一种	-14166
成为什么	-14167
我们所知	-14168
我们把它	-14169
我想要的	-14170
我的孩子	-14171
所产生的	-14172
是因为它	-14173
是多么的	-14174
有个问题	-14175
有些东西	-14176
有足够的	-14177
浮游生物	-14178
生物学的	-14179
的一份子	-14180
的是一种	-14181
精神上的	-14182
经历过的	-14183
联合起来	-14184
范围内的	-14185
设计一个	-14186
设计师们	-14187
阿拉斯加	-14188
随处可见	-14189
Linux	-14190
iftab	-14191
▁从那以后	-14192
▁但是当你	-14193
▁你看到的	-14194
▁因为当你	-14195
▁因此他们	-14196
▁如果人们	-14197
▁我很喜欢	-14198
▁我指的是	-14199
▁结果发现	-14200
▁而实际上	-14201
▁这个地方	-14202
▁这可不是	-14203
▁这样他们	-14204
不同类型的	-14205
与你们分享	-14206
与大家分享	-14207
人类基因组	-14208
他们的想法	-14209
发生了变化	-14210
国家安全局	-14211
在接下来的	-14212
我们看到的	-14213
是因为他们	-14214
显而易见的	-14215
最好的朋友	-14216
的生活方式	-14217
的角度来看	-14218
究竟是什么	-14219
给大家展示	-14220
重要的东西	-14221
▁但不幸的是	-14222
▁因为我觉得	-14223
解决这些问题	-14224
▁Google	-14225
▁为什么会这样	-14226
▁这就是我们的	-14227
Wikipedia	-14228
2:	-14229
RA	-14230
Wh	-14231
ai	-14232
▁图	-14233
▁帮	-14234
▁收	-14235
▁死	-14236
▁蓝	-14237
▁虽	-14238
▁象	-14239
一滴	-14240
七十	-14241
七年	-14242
严谨	-14243
二者	-14244
他把	-14245
保佑	-14246
假定	-14247
先从	-14248
公顷	-14249
内基	-14250
冷漠	-14251
凭借	-14252
初级	-14253
别无	-14254
前线	-14255
单个	-14256
历经	-14257
变动	-14258
变迁	-14259
同性	-14260
名义	-14261
吓人	-14262
听从	-14263
周前	-14264
和在	-14265
和小	-14266
哭了	-14267
处女	-14268
复原	-14269
女神	-14270
好象	-14271
它时	-14272
室外	-14273
宽容	-14274
小事	-14275
尖锐	-14276
展出	-14277
巢穴	-14278
幸好	-14279
应急	-14280
式各	-14281
弥补	-14282
强暴	-14283
当局	-14284
很近	-14285
得越	-14286
忧郁	-14287
快了	-14288
快餐	-14289
急需	-14290
恒温	-14291
恶意	-14292
悲观	-14293
戏法	-14294
成品	-14295
我可	-14296
手套	-14297
手稿	-14298
扔到	-14299
报复	-14300
抱负	-14301
招呼	-14302
散播	-14303
文艺	-14304
早在	-14305
时空	-14306
是与	-14307
普查	-14308
景色	-14309
更低	-14310
本性	-14311
权益	-14312
条款	-14313
杰作	-14314
构架	-14315
林冠	-14316
枯燥	-14317
标示	-14318
树叶	-14319
母语	-14320
氢气	-14321
沃森	-14322
海域	-14323
湖泊	-14324
玩的	-14325
玫瑰	-14326
珍珠	-14327
瓦解	-14328
甚少	-14329
用心	-14330
用这	-14331
甲壳	-14332
电波	-14333
疲惫	-14334
皮革	-14335
益于	-14336
眼里	-14337
知之	-14338
石灰	-14339
秒内	-14340
穿的	-14341
答复	-14342
算出	-14343
类人	-14344
网状	-14345
美人	-14346
耗尽	-14347
职场	-14348
肺部	-14349
背包	-14350
艾伦	-14351
营地	-14352
蜂鸟	-14353
裙子	-14354
象棋	-14355
跨度	-14356
跳动	-14357
轴上	-14358
辍学	-14359
迈出	-14360
运到	-14361
这可	-14362
这群	-14363
阻挡	-14364
陪审	-14365
陵兰	-14366
隐形	-14367
飞速	-14368
饱受	-14369
驱逐	-14370
驾驭	-14371
默默	-14372
75%	-14373
eff	-14374
lan	-14375
old	-14376
ure	-14377
▁13	-14378
▁90	-14379
▁de	-14380
▁不到	-14381
▁会被	-14382
▁公开	-14383
▁内容	-14384
▁几天	-14385
▁创作	-14386
▁发表	-14387
▁哪个	-14388
▁投入	-14389
▁效果	-14390
▁此刻	-14391
▁表示	-14392
▁诺曼	-14393
▁金融	-14394
▁防止	-14395
一辆车	-14396
一辈子	-14397
三个人	-14398
不同了	-14399
不过了	-14400
两百万	-14401
丽莎白	-14402
也是最	-14403
今年的	-14404
作品的	-14405
你无法	-14406
你真的	-14407
做不了	-14408
几个人	-14409
出租车	-14410
到底是	-14411
制作人	-14412
加勒比	-14413
去做的	-14414
及利亚	-14415
只是想	-14416
可视化	-14417
听过的	-14418
呈现出	-14419
在空中	-14420
在自己	-14421
地下室	-14422
地思考	-14423
增长了	-14424
女孩们	-14425
小时后	-14426
少量的	-14427
尝试过	-14428
巴布韦	-14429
年代末	-14430
建一个	-14431
很神奇	-14432
怎么去	-14433
怎样做	-14434
想象成	-14435
感觉很	-14436
成熟的	-14437
我确实	-14438
我能够	-14439
手机上	-14440
故事里	-14441
整体的	-14442
旁边的	-14443
日子里	-14444
是不会	-14445
最终会	-14446
有关于	-14447
有希望	-14448
有限的	-14449
核心的	-14450
根本不	-14451
每件事	-14452
活跃的	-14453
灵活性	-14454
父母的	-14455
留下来	-14456
病原体	-14457
的书籍	-14458
的士兵	-14459
的大型	-14460
的患者	-14461
的温度	-14462
的画面	-14463
的细节	-14464
的行动	-14465
的那天	-14466
目前的	-14467
直接的	-14468
空间站	-14469
粒子的	-14470
给这些	-14471
而努力	-14472
螺旋桨	-14473
血管增	-14474
被邀请	-14475
要开始	-14476
观点是	-14477
警察局	-14478
讲一下	-14479
赖喇嘛	-14480
这两者	-14481
这辈子	-14482
连接体	-14483
透明化	-14484
都会被	-14485
随机的	-14486
非常小	-14487
Paul	-14488
▁197	-14489
▁不可能	-14490
▁与我们	-14491
▁产生了	-14492
▁你只能	-14493
▁使我们	-14494
▁唯一的	-14495
▁它是一	-14496
▁年轻人	-14497
▁建筑师	-14498
▁我只想	-14499
▁提供了	-14500
▁是时候	-14501
▁查尔斯	-14502
▁第二种	-14503
▁那不是	-14504
万亿美元	-14505
两个星期	-14506
个国家的	-14507
些什么呢	-14508
他们如何	-14509
他的名字	-14510
做出决定	-14511
充分利用	-14512
华盛顿特	-14513
同样的事	-14514
告诉你的	-14515
回顾一下	-14516
国会议员	-14517
大吃一惊	-14518
孩子们的	-14519
家庭成员	-14520
年代中期	-14521
很多方面	-14522
怎么办呢	-14523
性工作者	-14524
感受到的	-14525
慈善机构	-14526
我为什么	-14527
我们才能	-14528
我们是在	-14529
我们还有	-14530
我的作品	-14531
或者其他	-14532
更美好的	-14533
津巴布韦	-14534
流感病毒	-14535
用我们的	-14536
的地方是	-14537
的帮助下	-14538
的时候就	-14539
竞争对手	-14540
绝大部分	-14541
自然选择	-14542
苹果公司	-14543
认为这是	-14544
越来越少	-14545
达成一致	-14546
过程中的	-14547
这个技术	-14548
这个演讲	-14549
那些没有	-14550
面部表情	-14551
高质量的	-14552
▁不可思议	-14553
▁他们不是	-14554
▁他们来自	-14555
▁以及如何	-14556
▁但当我们	-14557
▁但是没有	-14558
▁你可以把	-14559
▁你要知道	-14560
▁它实际上	-14561
▁我的母亲	-14562
▁这些照片	-14563
▁这是真的	-14564
一个简单的	-14565
一定程度上	-14566
之类的东西	-14567
人们的生活	-14568
你们看到的	-14569
各种不同的	-14570
向大家展示	-14571
展示给你们	-14572
强大的力量	-14573
我们不得不	-14574
我们的城市	-14575
我们的文化	-14576
改变世界的	-14577
的工作原理	-14578
解释为什么	-14579
▁于是我开始	-14580
▁但是实际上	-14581
▁你可以把它	-14582
▁如果你看看	-14583
▁如果我们想	-14584
▁然后我们就	-14585
▁越来越多的	-14586
▁这就是一个	-14587
▁这样我们就能	-14588
2,	-14589
Ch	-14590
NG	-14591
SD	-14592
io	-14593
ps	-14594
▁千	-14595
▁头	-14596
▁常	-14597
▁抑	-14598
▁毛	-14599
▁游	-14600
▁穿	-14601
▁鱼	-14602
一股	-14603
三位	-14604
三到	-14605
上市	-14606
下班	-14607
不做	-14608
不容	-14609
专用	-14610
世的	-14611
为她	-14612
为零	-14613
之际	-14614
但你	-14615
但它	-14616
信徒	-14617
信条	-14618
光亮	-14619
光子	-14620
克罗	-14621
典范	-14622
兹勒	-14623
再到	-14624
写在	-14625
冰块	-14626
切换	-14627
初步	-14628
利斯	-14629
刻意	-14630
动荡	-14631
勉强	-14632
反驳	-14633
叫他	-14634
台湾	-14635
后续	-14636
听我	-14637
吻合	-14638
呼叫	-14639
哈勃	-14640
四倍	-14641
四轴	-14642
在有	-14643
地利	-14644
坚固	-14645
埃尔	-14646
基层	-14647
外来	-14648
天上	-14649
局势	-14650
市区	-14651
年初	-14652
年起	-14653
并在	-14654
建模	-14655
开阔	-14656
弗朗	-14657
当它	-14658
待遇	-14659
心存	-14660
忙碌	-14661
快感	-14662
恻隐	-14663
想问	-14664
我已	-14665
或缺	-14666
手可	-14667
才智	-14668
找来	-14669
抵御	-14670
拆除	-14671
拉里	-14672
拍下	-14673
推向	-14674
携手	-14675
摆动	-14676
摸索	-14677
改编	-14678
放上	-14679
敏捷	-14680
救生	-14681
教条	-14682
敢于	-14683
族人	-14684
旗子	-14685
日记	-14686
明亮	-14687
星体	-14688
晚期	-14689
最不	-14690
梅尔	-14691
毅力	-14692
气氛	-14693
泰坦	-14694
深奥	-14695
演绎	-14696
澄清	-14697
濒危	-14698
猫咪	-14699
环球	-14700
球体	-14701
疲力	-14702
的上	-14703
监护	-14704
红酒	-14705
纳入	-14706
纸质	-14707
经受	-14708
缘故	-14709
缩写	-14710
缺点	-14711
置身	-14712
美德	-14713
老兵	-14714
老爸	-14715
背面	-14716
脚下	-14717
节拍	-14718
莫扎	-14719
落到	-14720
薄膜	-14721
装上	-14722
装有	-14723
警卫	-14724
警报	-14725
警方	-14726
误会	-14727
请愿	-14728
负荷	-14729
走近	-14730
身受	-14731
迈向	-14732
近乎	-14733
进食	-14734
远古	-14735
迷宫	-14736
遗弃	-14737
金子	-14738
集成	-14739
面貌	-14740
音量	-14741
韵律	-14742
预示	-14743
驾车	-14744
鲜花	-14745
默德	-14746
ETI	-14747
Jim	-14748
ive	-14749
oug	-14750
ows	-14751
ull	-14752
▁Am	-14753
▁An	-14754
▁两种	-14755
▁他很	-14756
▁他要	-14757
▁传播	-14758
▁使它	-14759
▁再看	-14760
▁出于	-14761
▁反之	-14762
▁就要	-14763
▁就象	-14764
▁属于	-14765
▁彼得	-14766
▁快速	-14767
▁意识	-14768
▁我却	-14769
▁手术	-14770
▁明天	-14771
▁是很	-14772
▁温度	-14773
▁用以	-14774
▁监狱	-14775
▁直至	-14776
▁确定	-14777
▁称为	-14778
▁结合	-14779
▁考虑	-14780
▁而她	-14781
▁表达	-14782
▁超级	-14783
▁那位	-14784
▁随之	-14785
一代人	-14786
三年前	-14787
不会在	-14788
不出来	-14789
不管是	-14790
中只有	-14791
之前就	-14792
了一半	-14793
了很久	-14794
他没有	-14795
体系的	-14796
你就是	-14797
俄克拉	-14798
公众的	-14799
分享的	-14800
动物们	-14801
原因的	-14802
又一个	-14803
发电机	-14804
古兰经	-14805
另一位	-14806
可以去	-14807
同一种	-14808
和印度	-14809
团体的	-14810
在它们	-14811
在这一	-14812
太空中	-14813
奥尔良	-14814
如果有	-14815
威尼斯	-14816
对环境	-14817
就这么	-14818
已成为	-14819
应该在	-14820
引人注	-14821
情况是	-14822
我将会	-14823
才可以	-14824
放一个	-14825
新型的	-14826
新想法	-14827
新生儿	-14828
是你的	-14829
更多地	-14830
更有效	-14831
有一千	-14832
有一定	-14833
本杰明	-14834
来决定	-14835
来学习	-14836
棉花糖	-14837
比其他	-14838
测量的	-14839
海岸线	-14840
的一样	-14841
的人员	-14842
的人均	-14843
的信号	-14844
的全部	-14845
的前提	-14846
的商业	-14847
的植物	-14848
的汽车	-14849
的都是	-14850
看得到	-14851
知道它	-14852
研讨会	-14853
社会上	-14854
竞争者	-14855
纯粹的	-14856
肺结核	-14857
被人们	-14858
被用于	-14859
说一下	-14860
说出来	-14861
说实话	-14862
说过的	-14863
还有些	-14864
这幅图	-14865
适应性	-14866
通用的	-14867
都是从	-14868
里面有	-14869
集体的	-14870
魅力的	-14871
黑暗的	-14872
1995	-14873
Alex	-14874
Emma	-14875
ames	-14876
quot	-14877
▁500	-14878
▁Rob	-14879
▁不管你	-14880
▁也不能	-14881
▁也可能	-14882
▁他们只	-14883
▁他们很	-14884
▁但也许	-14885
▁但你们	-14886
▁你自己	-14887
▁俄罗斯	-14888
▁右边的	-14889
▁和他的	-14890
▁在这儿	-14891
▁如果这	-14892
▁它需要	-14893
▁就是把	-14894
▁意识到	-14895
▁我也不	-14896
▁我几乎	-14897
▁我听到	-14898
▁我想我	-14899
▁我马上	-14900
▁是他们	-14901
▁有两个	-14902
▁有意思	-14903
▁每当我	-14904
▁然后它	-14905
▁现在在	-14906
▁神经元	-14907
▁这个小	-14908
▁这些小	-14909
▁这可是	-14910
▁那么在	-14911
▁那么这	-14912
三分之二	-14913
世界人口	-14914
为基础的	-14915
他们知道	-14916
你的眼睛	-14917
使用它们	-14918
内心深处	-14919
别的地方	-14920
原始细胞	-14921
吃惊的是	-14922
吸引人的	-14923
多长时间	-14924
实验室中	-14925
就可以了	-14926
并不只是	-14927
总结一下	-14928
想到的是	-14929
所发生的	-14930
提供一些	-14931
整个系统	-14932
文艺复兴	-14933
是最好的	-14934
普林斯顿	-14935
最高法院	-14936
有些事情	-14937
波斯尼亚	-14938
活生生的	-14939
的一句话	-14940
的一系列	-14941
看不见的	-14942
耶路撒冷	-14943
认识的人	-14944
证据表明	-14945
这个机会	-14946
这台机器	-14947
重新思考	-14948
问题在于	-14949
高等教育	-14950
▁1000	-14951
▁2010	-14952
▁John	-14953
▁为什么要	-14954
▁于是我想	-14955
▁他们通过	-14956
▁你会得到	-14957
▁因为那些	-14958
▁如果这个	-14959
▁尼日利亚	-14960
▁我们过去	-14961
▁我最喜欢	-14962
▁所以我在	-14963
▁澳大利亚	-14964
▁然后我想	-14965
▁目前为止	-14966
▁而事实上	-14967
▁还有就是	-14968
▁这些事情	-14969
▁这让我们	-14970
一个小小的	-14971
中的一部分	-14972
其他的东西	-14973
可以让我们	-14974
我们的祖先	-14975
所有的这些	-14976
的原因之一	-14977
跟大家分享	-14978
连接在一起	-14979
非常复杂的	-14980
▁于是我决定	-14981
▁我们不应该	-14982
▁我们之所以	-14983
▁那么为什么	-14984
花了很多时间	-14985
Youtube	-14986
▁因为如果我们	-14987
令人难以置信的	-14988
到底发生了什么	-14989
,4	-14990
.”	-14991
43	-14992
CT	-14993
ue	-14994
uk	-14995
▁共	-14996
▁变	-14997
▁扎	-14998
▁玛	-14999
▁纵	-15000
一圈	-15001
一声	-15002
一款	-15003
下车	-15004
两到	-15005
两组	-15006
个小	-15007
中海	-15008
中立	-15009
为观	-15010
之力	-15011
乐园	-15012
买下	-15013
人与	-15014
亿万	-15015
仰望	-15016
伏特	-15017
优越	-15018
会使	-15019
会场	-15020
会对	-15021
侧面	-15022
保姆	-15023
偏差	-15024
光年	-15025
光源	-15026
克鲁	-15027
入手	-15028
内亚	-15029
再去	-15030
出名	-15031
出身	-15032
分工	-15033
制服	-15034
化为	-15035
印记	-15036
原地	-15037
原教	-15038
又不	-15039
及的	-15040
友情	-15041
可惜	-15042
同理	-15043
周刊	-15044
和它	-15045
品尝	-15046
哥白	-15047
喷气	-15048
固体	-15049
图象	-15050
在用	-15051
坦率	-15052
堕胎	-15053
境内	-15054
多人	-15055
大力	-15056
大道	-15057
好转	-15058
密歇	-15059
对面	-15060
将我	-15061
将有	-15062
就象	-15063
左侧	-15064
平流	-15065
张力	-15066
得快	-15067
忙于	-15068
态的	-15069
总数	-15070
意粉	-15071
感同	-15072
房车	-15073
打动	-15074
执政	-15075
披萨	-15076
抬起	-15077
拥堵	-15078
捍卫	-15079
掩盖	-15080
摆弄	-15081
摔跤	-15082
日程	-15083
时装	-15084
服刑	-15085
朵花	-15086
格式	-15087
水族	-15088
水流	-15089
洛因	-15090
海马	-15091
涌入	-15092
淋巴	-15093
潜入	-15094
爬到	-15095
珍妮	-15096
班加	-15097
登录	-15098
百姓	-15099
相近	-15100
看下	-15101
真人	-15102
知名	-15103
破裂	-15104
祝福	-15105
称的	-15106
突发	-15107
粉碎	-15108
糊口	-15109
结晶	-15110
给自	-15111
网民	-15112
耕种	-15113
联网	-15114
能有	-15115
药剂	-15116
获奖	-15117
萨克	-15118
被捕	-15119
装着	-15120
要大	-15121
触发	-15122
论证	-15123
说吧	-15124
诺登	-15125
谈过	-15126
谋生	-15127
责备	-15128
走私	-15129
赶上	-15130
赶紧	-15131
车道	-15132
车鱼	-15133
还原	-15134
还得	-15135
这真	-15136
这间	-15137
连线	-15138
迷恋	-15139
送去	-15140
那块	-15141
都对	-15142
都想	-15143
配置	-15144
问到	-15145
难忘	-15146
集会	-15147
雇用	-15148
零零	-15149
雷斯	-15150
黑白	-15151
180	-15152
2.5	-15153
ani	-15154
eil	-15155
iam	-15156
ist	-15157
ood	-15158
·11	-15159
▁享受	-15160
▁今晚	-15161
▁企业	-15162
▁借助	-15163
▁加拿	-15164
▁南非	-15165
▁压力	-15166
▁各个	-15167
▁和在	-15168
▁女士	-15169
▁它与	-15170
▁它由	-15171
▁彻底	-15172
▁恐怕	-15173
▁才是	-15174
▁把我	-15175
▁是不	-15176
▁更有	-15177
▁正确	-15178
▁死于	-15179
▁渐渐	-15180
▁的人	-15181
▁要想	-15182
▁赋予	-15183
▁超越	-15184
▁距离	-15185
▁透过	-15186
▁重要	-15187
▁量子	-15188
一小时	-15189
一年的	-15190
严格的	-15191
今天要	-15192
众多的	-15193
会有人	-15194
作用于	-15195
你会说	-15196
保守派	-15197
几年中	-15198
分钟后	-15199
利用了	-15200
功能性	-15201
十一月	-15202
单纯的	-15203
南部的	-15204
原子的	-15205
原教旨	-15206
原材料	-15207
去研究	-15208
反应是	-15209
受试者	-15210
台机器	-15211
史蒂芬	-15212
和女性	-15213
和科技	-15214
哥白尼	-15215
唯一能	-15216
喜欢它	-15217
喝咖啡	-15218
在街上	-15219
存活率	-15220
安装了	-15221
容易的	-15222
密歇根	-15223
对一个	-15224
就如同	-15225
布莱恩	-15226
开放式	-15227
形状的	-15228
必须得	-15229
忍不住	-15230
我以为	-15231
我们为	-15232
我们却	-15233
我所知	-15234
我的心	-15235
我记得	-15236
抗抑郁	-15237
接着说	-15238
推特上	-15239
政客们	-15240
新事物	-15241
无限的	-15242
是错的	-15243
显示器	-15244
替代品	-15245
最快的	-15246
有一段	-15247
有关联	-15248
权利的	-15249
来创造	-15250
来说说	-15251
正处于	-15252
比以往	-15253
比方说	-15254
活下去	-15255
游世界	-15256
漫画家	-15257
潜水服	-15258
灭绝的	-15259
犯罪率	-15260
犹太教	-15261
现代化	-15262
电视剧	-15263
电路板	-15264
的人是	-15265
的传统	-15266
的情绪	-15267
的智慧	-15268
的案例	-15269
的水平	-15270
的神经	-15271
的解释	-15272
的距离	-15273
相对于	-15274
相对的	-15275
着眼于	-15276
知道他	-15277
私人的	-15278
组织和	-15279
绝妙的	-15280
美金的	-15281
胡萝卜	-15282
自动化	-15283
自己去	-15284
董事会	-15285
观众席	-15286
请你们	-15287
谁知道	-15288
超出了	-15289
这条路	-15290
违法的	-15291
造物主	-15292
遥控器	-15293
那是我	-15294
都来自	-15295
陪审团	-15296
非常快	-15297
颗恒星	-15298
骨骼肌	-15299
1997	-15300
Bill	-15301
kype	-15302
▁一个叫	-15303
▁主要是	-15304
▁他们正	-15305
▁他没有	-15306
▁但后来	-15307
▁但是从	-15308
▁但是却	-15309
▁你只要	-15310
▁可以用	-15311
▁可以被	-15312
▁大约在	-15313
▁如果不	-15314
▁如果要	-15315
▁我们去	-15316
▁我只能	-15317
▁我就想	-15318
▁我就能	-15319
▁我常常	-15320
▁是通过	-15321
▁来看看	-15322
▁请注意	-15323
▁这不仅	-15324
▁这东西	-15325
▁这是你	-15326
▁那是一	-15327
一些例子	-15328
一种叫做	-15329
不是我的	-15330
世界和平	-15331
人类文明	-15332
仍然可以	-15333
住的地方	-15334
倭黑猩猩	-15335
做了这个	-15336
动物身上	-15337
努力工作	-15338
在了一起	-15339
基础建设	-15340
宇宙飞船	-15341
希望你们	-15342
帮助人们	-15343
我们刚刚	-15344
我们相信	-15345
我们身边	-15346
我的一个	-15347
我的研究	-15348
找到答案	-15349
是在一个	-15350
有所作为	-15351
每天早上	-15352
生活质量	-15353
百分之百	-15354
的方法来	-15355
看上去像	-15356
着我们的	-15357
种族隔离	-15358
紧密相连	-15359
能让我们	-15360
还是一个	-15361
这个时代	-15362
非洲大陆	-15363
David	-15364
▁世界各地	-15365
▁从来没有	-15366
▁但事实是	-15367
▁你不得不	-15368
▁你有没有	-15369
▁另一个是	-15370
▁只有一个	-15371
▁在全世界	-15372
▁想像一下	-15373
▁我们不想	-15374
▁我们做了	-15375
▁我们怎样	-15376
▁我们曾经	-15377
▁我现在要	-15378
▁我还记得	-15379
▁还有那些	-15380
▁这可能是	-15381
▁这很重要	-15382
三分之一的	-15383
不同的东西	-15384
不同的事情	-15385
了一个新的	-15386
告诉了我们	-15387
完全不知道	-15388
对于我来说	-15389
心脏病发作	-15390
我们的目标	-15391
我们还没有	-15392
正确的事情	-15393
激动人心的	-15394
的工作人员	-15395
简单的问题	-15396
给你们看看	-15397
自己的故事	-15398
自己的身体	-15399
这个世界上	-15400
▁于是我们就	-15401
▁但是当我们	-15402
▁你们都知道	-15403
▁你可以通过	-15404
▁我们可以从	-15405
▁我们可以把	-15406
▁我们并不是	-15407
▁我希望大家	-15408
▁所以我们要	-15409
▁每个人都有	-15410
▁所以我们必须	-15411
!」	-15412
,1	-15413
,5	-15414
41	-15415
?(	-15416
Ad	-15417
ST	-15418
”?	-15419
▁交	-15420
▁点	-15421
万名	-15422
不利	-15423
不经	-15424
两人	-15425
两极	-15426
乙醇	-15427
也好	-15428
书亚	-15429
买加	-15430
事了	-15431
享用	-15432
付费	-15433
以便	-15434
俄国	-15435
信服	-15436
光纤	-15437
免于	-15438
共处	-15439
共生	-15440
再看	-15441
利安	-15442
办事	-15443
升华	-15444
即可	-15445
发誓	-15446
取的	-15447
口语	-15448
召唤	-15449
同感	-15450
同龄	-15451
听闻	-15452
告别	-15453
周日	-15454
和有	-15455
喇叭	-15456
图景	-15457
在新	-15458
在水	-15459
地域	-15460
场面	-15461
垄断	-15462
塞拉	-15463
填补	-15464
外套	-15465
多余	-15466
头疼	-15467
夸大	-15468
学过	-15469
导体	-15470
就想	-15471
带的	-15472
年我	-15473
庆幸	-15474
归结	-15475
当选	-15476
心地	-15477
恐吓	-15478
情人	-15479
我叫	-15480
我看	-15481
扇门	-15482
打猎	-15483
找回	-15484
捕猎	-15485
捷径	-15486
接管	-15487
推行	-15488
提案	-15489
摇摆	-15490
撇子	-15491
故乡	-15492
效力	-15493
救济	-15494
教书	-15495
散发	-15496
斯尼	-15497
无止	-15498
无罪	-15499
晚了	-15500
更换	-15501
最棒	-15502
最深	-15503
条腿	-15504
查理	-15505
查询	-15506
死在	-15507
死者	-15508
残障	-15509
毁掉	-15510
毒的	-15511
比伦	-15512
毛病	-15513
河岸	-15514
活儿	-15515
活得	-15516
深受	-15517
深思	-15518
溪流	-15519
溶解	-15520
满是	-15521
热烈	-15522
煤矿	-15523
熵值	-15524
片子	-15525
牠们	-15526
物资	-15527
电信	-15528
疯子	-15529
登记	-15530
的多	-15531
的美	-15532
监听	-15533
直面	-15534
矿井	-15535
神父	-15536
离子	-15537
窗外	-15538
等候	-15539
米洛	-15540
红柿	-15541
纳斯	-15542
纸板	-15543
罗尔	-15544
罗拉	-15545
翻倍	-15546
而成	-15547
肠道	-15548
股东	-15549
肺癌	-15550
茶壶	-15551
药的	-15552
血流	-15553
血统	-15554
行事	-15555
要的	-15556
视作	-15557
谓的	-15558
貌似	-15559
贴在	-15560
赞成	-15561
起伏	-15562
超人	-15563
轮胎	-15564
软骨	-15565
进出	-15566
逆流	-15567
通货	-15568
道具	-15569
那你	-15570
都行	-15571
采纳	-15572
铭记	-15573
链条	-15574
闪电	-15575
陪伴	-15576
顶上	-15577
顶级	-15578
食者	-15579
馅饼	-15580
马萨	-15581
鲜明	-15582
MRI	-15583
ary	-15584
att	-15585
ius	-15586
off	-15587
▁不去	-15588
▁两者	-15589
▁人工	-15590
▁人生	-15591
▁他问	-15592
▁以致	-15593
▁再到	-15594
▁再来	-15595
▁和平	-15596
▁它比	-15597
▁年龄	-15598
▁我以	-15599
▁数量	-15600
▁是要	-15601
▁格林	-15602
▁模拟	-15603
▁能让	-15604
▁记忆	-15605
▁跨越	-15606
▁速度	-15607
一年半	-15608
一起去	-15609
不在于	-15610
中看到	-15611
为世界	-15612
为观止	-15613
了一座	-15614
了这种	-15615
会影响	-15616
伯利亚	-15617
体现了	-15618
信息和	-15619
偏头痛	-15620
做研究	-15621
儿童的	-15622
公司和	-15623
再看看	-15624
加州的	-15625
加油站	-15626
努力去	-15627
十年间	-15628
原子核	-15629
发展成	-15630
发短信	-15631
受到的	-15632
吃什么	-15633
在所有	-15634
地看着	-15635
复杂了	-15636
多一点	-15637
多的人	-15638
大街上	-15639
天生的	-15640
女人们	-15641
她已经	-15642
完全被	-15643
完完全	-15644
实时的	-15645
实现它	-15646
实质上	-15647
家长们	-15648
对他说	-15649
少数人	-15650
就无法	-15651
岁左右	-15652
应该有	-15653
废弃物	-15654
很多次	-15655
很熟悉	-15656
心中的	-15657
感染率	-15658
所用的	-15659
手中的	-15660
把这种	-15661
搞明白	-15662
摄影机	-15663
放射性	-15664
政治上	-15665
救护车	-15666
整个人	-15667
方程式	-15668
无所谓	-15669
日本的	-15670
是值得	-15671
是无法	-15672
是需要	-15673
更复杂	-15674
有意识	-15675
灵活的	-15676
然后是	-15677
牙买加	-15678
独裁者	-15679
现成的	-15680
珊瑚虫	-15681
电影的	-15682
疯狂了	-15683
的专家	-15684
的分子	-15685
的好处	-15686
的威胁	-15687
的心态	-15688
的思考	-15689
的房子	-15690
的手机	-15691
的旅程	-15692
的法律	-15693
的病毒	-15694
的这种	-15695
的道路	-15696
的长度	-15697
相关联	-15698
科索沃	-15699
纪念碑	-15700
而感到	-15701
聚合物	-15702
能看见	-15703
至今日	-15704
航天器	-15705
菲尔德	-15706
虚拟的	-15707
被要求	-15708
达拉斯	-15709
过滤器	-15710
这一代	-15711
通常会	-15712
造一个	-15713
那里有	-15714
1994	-15715
▁and	-15716
▁一直在	-15717
▁他们为	-15718
▁伴随着	-15719
▁但事实	-15720
▁但当你	-15721
▁像这样	-15722
▁关键是	-15723
▁在纽约	-15724
▁大规模	-15725
▁它们能	-15726
▁很可能	-15727
▁很高兴	-15728
▁我们向	-15729
▁我对此	-15730
▁我研究	-15731
▁我选择	-15732
▁有能力	-15733
▁每一种	-15734
▁比如在	-15735
▁现如今	-15736
▁而它们	-15737
▁自闭症	-15738
▁还没有	-15739
▁这句话	-15740
▁这的确	-15741
▁进行了	-15742
▁那也是	-15743
▁都是由	-15744
上个世纪	-15745
不再需要	-15746
世界上有	-15747
两个小时	-15748
人类历史	-15749
仔细观察	-15750
任何问题	-15751
会怎样呢	-15752
做出反应	-15753
健康问题	-15754
出了问题	-15755
利比里亚	-15756
医疗系统	-15757
原因之一	-15758
发现一些	-15759
另一个人	-15760
可能性的	-15761
叹为观止	-15762
在全世界	-15763
在未来的	-15764
它是如何	-15765
寻找一个	-15766
就是我的	-15767
希格斯场	-15768
我们通常	-15769
我们都会	-15770
提供一个	-15771
方法就是	-15772
是世界上	-15773
是重要的	-15774
此时此刻	-15775
每个国家	-15776
浪费时间	-15777
甚至可以	-15778
的人一样	-15779
的那个人	-15780
知道自己	-15781
研究显示	-15782
美国国家	-15783
自然资源	-15784
西方世界	-15785
让我觉得	-15786
这一事实	-15787
这个城市	-15788
那么简单	-15789
都是为了	-15790
▁什么样的	-15791
▁但我还是	-15792
▁全世界的	-15793
▁其中包括	-15794
▁取而代之	-15795
▁如果你有	-15796
▁如果你要	-15797
▁如果它们	-15798
▁就会发现	-15799
▁当我开始	-15800
▁很多时候	-15801
▁总而言之	-15802
▁我们在这	-15803
▁我们对此	-15804
▁我们才能	-15805
▁我们每天	-15806
▁我找到了	-15807
▁比如这个	-15808
▁然后把它	-15809
▁现在你们	-15810
▁这个国家	-15811
▁通过这些	-15812
▁那为什么	-15813
一个巨大的	-15814
儿童死亡率	-15815
得到了一个	-15816
我们为什么	-15817
我们的国家	-15818
我想说的是	-15819
是不可能的	-15820
更多的时间	-15821
更好的生活	-15822
百分之八十	-15823
真实的自己	-15824
类似的东西	-15825
设计了一个	-15826
这个问题上	-15827
Siftab	-15828
▁因为我认为	-15829
▁我们并没有	-15830
▁我想让你们	-15831
▁所以我觉得	-15832
▁所以让我们	-15833
▁这是第一个	-15834
▁这正是我们	-15835
▁那么我们就	-15836
可持续发展的	-15837
思考这个问题	-15838
这样一个问题	-15839
▁如果你是一个	-15840
▁所以如果我们	-15841
▁所以我们现在	-15842
▁所以这是一个	-15843
现代艺术博物馆	-15844
".	-15845
,6	-15846
PC	-15847
gt	-15848
▁作	-15849
一双	-15850
丁堡	-15851
七千	-15852
万维	-15853
上涨	-15854
下台	-15855
不适	-15856
丢掉	-15857
两岁	-15858
临近	-15859
为其	-15860
举措	-15861
义词	-15862
也都	-15863
乡下	-15864
书呆	-15865
云层	-15866
亥俄	-15867
亲手	-15868
从你	-15869
代数	-15870
低廉	-15871
体上	-15872
作的	-15873
侄女	-15874
侦测	-15875
侵害	-15876
借此	-15877
全息	-15878
公主	-15879
六千	-15880
兹堡	-15881
冰盖	-15882
冷藏	-15883
净化	-15884
出人	-15885
分形	-15886
初衷	-15887
利桑	-15888
加剧	-15889
加斯	-15890
匮乏	-15891
十六	-15892
半夜	-15893
半径	-15894
卵巢	-15895
取向	-15896
听力	-15897
和不	-15898
和对	-15899
哈利	-15900
哈尔	-15901
喉咙	-15902
围着	-15903
国土	-15904
在它	-15905
基罗	-15906
声响	-15907
处决	-15908
备受	-15909
多彩	-15910
多远	-15911
夺走	-15912
奥克	-15913
好地	-15914
姿态	-15915
字节	-15916
完工	-15917
家和	-15918
富豪	-15919
少女	-15920
尔巴	-15921
屈服	-15922
山地	-15923
巨星	-15924
带进	-15925
庄稼	-15926
很强	-15927
忙着	-15928
怪人	-15929
悉尼	-15930
悲痛	-15931
成型	-15932
拍打	-15933
挤压	-15934
损坏	-15935
推翻	-15936
搭配	-15937
数十	-15938
日志	-15939
时就	-15940
是可	-15941
是非	-15942
晚饭	-15943
更强	-15944
服饰	-15945
未经	-15946
杀伤	-15947
杂音	-15948
材质	-15949
村落	-15950
条纹	-15951
来得	-15952
树立	-15953
橙色	-15954
殆尽	-15955
毒害	-15956
求助	-15957
泰迪	-15958
流血	-15959
消逝	-15960
淡化	-15961
点点	-15962
点钟	-15963
熟知	-15964
牙医	-15965
班级	-15966
瓶颈	-15967
病理	-15968
的假	-15969
的每	-15970
目录	-15971
矩阵	-15972
确诊	-15973
竹子	-15974
粉末	-15975
约旦	-15976
维斯	-15977
而战	-15978
而生	-15979
聚合	-15980
肆虐	-15981
肺炎	-15982
脖子	-15983
脚的	-15984
脸谱	-15985
芥末	-15986
蝾螈	-15987
行进	-15988
衰落	-15989
被我	-15990
装在	-15991
讲起	-15992
诉说	-15993
词是	-15994
诱导	-15995
说你	-15996
说得	-15997
调控	-15998
谚语	-15999
贪污	-16000
赚了	-16001
赚到	-16002
赞扬	-16003
跑去	-16004
路边	-16005
跳到	-16006
辞职	-16007
通了	-16008
野心	-16009
长了	-16010
长相	-16011
队友	-16012
阿姨	-16013
预警	-16014
颜料	-16015
馆长	-16016
骗子	-16017
麦片	-16018
龙头	-16019
/11	-16020
App	-16021
Cor	-16022
Dan	-16023
Net	-16024
amb	-16025
idi	-16026
ina	-16027
ver	-16028
▁24	-16029
▁My	-16030
▁交通	-16031
▁从未	-16032
▁伦敦	-16033
▁克莱	-16034
▁几个	-16035
▁则是	-16036
▁四个	-16037
▁失去	-16038
▁年代	-16039
▁患有	-16040
▁提升	-16041
▁提取	-16042
▁无人	-16043
▁昆虫	-16044
▁明显	-16045
▁是他	-16046
▁是用	-16047
▁最为	-16048
▁来吧	-16049
▁毫无	-16050
▁相对	-16051
▁购买	-16052
▁鼓掌	-16053
一点是	-16054
三件事	-16055
上看到	-16056
不是么	-16057
不能在	-16058
世界观	-16059
个问题	-16060
中得到	-16061
也是在	-16062
交易所	-16063
他们很	-16064
例子是	-16065
俄亥俄	-16066
保持着	-16067
全都是	-16068
公元前	-16069
几百个	-16070
制片人	-16071
前额叶	-16072
医生和	-16073
压力的	-16074
友好的	-16075
发现它	-16076
另一些	-16077
可行性	-16078
在不同	-16079
地平线	-16080
地改变	-16081
地认为	-16082
城市化	-16083
塑料瓶	-16084
大会上	-16085
大家庭	-16086
对他的	-16087
将会被	-16088
尼克斯	-16089
展现了	-16090
帕戈斯	-16091
年长的	-16092
庸置疑	-16093
开发了	-16094
开心的	-16095
引发了	-16096
彼此的	-16097
很漂亮	-16098
心血管	-16099
愿意去	-16100
我也不	-16101
我们才	-16102
我做的	-16103
我可能	-16104
我将要	-16105
我经常	-16106
我都会	-16107
挑战是	-16108
控制了	-16109
政府和	-16110
新科技	-16111
最终的	-16112
有一项	-16113
村子里	-16114
来临时	-16115
某一个	-16116
根本就	-16117
沼泽地	-16118
激烈的	-16119
灰色的	-16120
爵士乐	-16121
珍贵的	-16122
男孩子	-16123
的一件	-16124
的事了	-16125
的产物	-16126
的原则	-16127
的各种	-16128
的后果	-16129
的味道	-16130
的希望	-16131
的形成	-16132
的手段	-16133
的最高	-16134
的物质	-16135
的男孩	-16136
的真实	-16137
的试验	-16138
看得见	-16139
知道你	-16140
系统里	-16141
红外线	-16142
级别的	-16143
细胞中	-16144
网上的	-16145
而成的	-16146
聚集在	-16147
脑袋里	-16148
自己做	-16149
覆盖了	-16150
角度来	-16151
认知的	-16152
训练的	-16153
记录了	-16154
许可证	-16155
证实了	-16156
译者注	-16157
该怎么	-16158
谈一下	-16159
跟你说	-16160
身后的	-16161
较大的	-16162
这个的	-16163
这确实	-16164
那些不	-16165
那部分	-16166
阻止了	-16167
非常不	-16168
ower	-16169
▁Car	-16170
▁之间的	-16171
▁他只是	-16172
▁会发现	-16173
▁但有时	-16174
▁你希望	-16175
▁即使你	-16176
▁因此他	-16177
▁就好比	-16178
▁左边的	-16179
▁当你把	-16180
▁微生物	-16181
▁我可能	-16182
▁我将会	-16183
▁我怎么	-16184
▁我能够	-16185
▁我要说	-16186
▁所以从	-16187
▁用一种	-16188
▁考虑到	-16189
▁还有些	-16190
▁这有点	-16191
▁里面有	-16192
▁非洲的	-16193
一台电脑	-16194
不管怎样	-16195
个人电脑	-16196
了一会儿	-16197
他们开始	-16198
他们都是	-16199
会告诉你	-16200
会有一个	-16201
你不知道	-16202
你想要的	-16203
你的手机	-16204
其实就是	-16205
再也没有	-16206
别的东西	-16207
可以利用	-16208
可能会说	-16209
告诉自己	-16210
周围环境	-16211
和我一样	-16212
因为这些	-16213
在我身上	-16214
基里巴斯	-16215
学会如何	-16216
开朗基罗	-16217
微不足道	-16218
恻隐之心	-16219
感同身受	-16220
成为现实	-16221
我们都有	-16222
我的人生	-16223
是不可能	-16224
普尔洛克	-16225
最简单的	-16226
气候危机	-16227
治疗方案	-16228
泰坦尼克	-16229
灾难性的	-16230
物理定律	-16231
现在开始	-16232
生物燃料	-16233
的一群人	-16234
短时间内	-16235
种族歧视	-16236
竭尽全力	-16237
继续下去	-16238
视而不见	-16239
解放出来	-16240
记录下来	-16241
该做什么	-16242
该怎么做	-16243
这个建筑	-16244
这个计划	-16245
这些家伙	-16246
这是我们	-16247
这种能力	-16248
通货膨胀	-16249
需要做的	-16250
▁世界上的	-16251
▁也是我们	-16252
▁但是今天	-16253
▁其中一些	-16254
▁十分感谢	-16255
▁因为它的	-16256
▁成千上万	-16257
▁我们都有	-16258
▁然后开始	-16259
▁突然之间	-16260
▁而不只是	-16261
▁还有许多	-16262
▁这是一些	-16263
▁这是什么	-16264
▁那我们就	-16265
▁那是我们	-16266
与生俱来的	-16267
创建了一个	-16268
向大家介绍	-16269
团结在一起	-16270
学到了什么	-16271
很长的时间	-16272
我们也可以	-16273
所有的事情	-16274
要做的就是	-16275
诸如此类的	-16276
超级计算机	-16277
还有另一个	-16278
这里有一个	-16279
▁你就会发现	-16280
▁我们找到了	-16281
▁所以我们想	-16282
▁顺便提一下	-16283
在这个世界上	-16284
女士们先生们	-16285
如果我们可以	-16286
Richard	-16287
▁如果我们想要	-16288
▁这样我们就可以	-16289
,9	-16290
52	-16291
67	-16292
DA	-16293
Ed	-16294
au	-16295
eB	-16296
▁希	-16297
▁弄	-16298
▁核	-16299
▁精	-16300
▁解	-16301
一角	-16302
三岁	-16303
上加	-16304
下半	-16305
不来	-16306
不计	-16307
与他	-16308
专栏	-16309
世间	-16310
为生	-16311
九月	-16312
也想	-16313
了好	-16314
他从	-16315
伊甸	-16316
伤痛	-16317
住院	-16318
你用	-16319
修饰	-16320
偏好	-16321
停顿	-16322
储藏	-16323
充实	-16324
公益	-16325
其余	-16326
几十	-16327
几张	-16328
分的	-16329
分隔	-16330
切开	-16331
利昂	-16332
前来	-16333
加深	-16334
十七	-16335
占有	-16336
卡特	-16337
印尼	-16338
去吧	-16339
参军	-16340
双臂	-16341
发自	-16342
取样	-16343
可言	-16344
名片	-16345
后就	-16346
哈哈	-16347
回避	-16348
圣母	-16349
在两	-16350
在小	-16351
在看	-16352
地将	-16353
坦克	-16354
基准	-16355
外观	-16356
多重	-16357
好笑	-16358
婆罗	-16359
孙女	-16360
学上	-16361
将之	-16362
小块	-16363
尤为	-16364
就从	-16365
左脑	-16366
幅度	-16367
干脆	-16368
并无	-16369
广大	-16370
康涅	-16371
开到	-16372
彩虹	-16373
心率	-16374
惊异	-16375
惧怕	-16376
感性	-16377
打扰	-16378
技艺	-16379
把人	-16380
抓取	-16381
拼图	-16382
捕杀	-16383
揭开	-16384
映射	-16385
是人	-16386
是会	-16387
晚宴	-16388
曝光	-16389
更远	-16390
最小	-16391
机密	-16392
杂乱	-16393
柱子	-16394
树脂	-16395
格子	-16396
模因	-16397
次序	-16398
正规	-16399
每晚	-16400
毛发	-16401
水质	-16402
永生	-16403
池塘	-16404
没了	-16405
沿海	-16406
洛蒙	-16407
洞里	-16408
浪潮	-16409
海峡	-16410
淀粉	-16411
混蛋	-16412
热点	-16413
焚烧	-16414
牧羊	-16415
狄格	-16416
献给	-16417
琐碎	-16418
瑟夫	-16419
生化	-16420
电能	-16421
画了	-16422
登革	-16423
的在	-16424
的油	-16425
眼泪	-16426
祸首	-16427
离我	-16428
穆罕	-16429
空地	-16430
穿行	-16431
精华	-16432
老婆	-16433
耶鲁	-16434
背叛	-16435
胎儿	-16436
能使	-16437
臭氧	-16438
航线	-16439
艰辛	-16440
莱斯	-16441
菲尔	-16442
蓬勃	-16443
螃蟹	-16444
补助	-16445
表层	-16446
衬衫	-16447
袜子	-16448
讲解	-16449
话短	-16450
诺顿	-16451
贤淑	-16452
质子	-16453
跑来	-16454
跑道	-16455
身材	-16456
边形	-16457
过上	-16458
过往	-16459
远见	-16460
退役	-16461
道而	-16462
酗酒	-16463
重生	-16464
钱包	-16465
阐释	-16466
阵营	-16467
阶梯	-16468
随地	-16469
雷达	-16470
霍金	-16471
露出	-16472
非得	-16473
顺着	-16474
食谱	-16475
香水	-16476
马车	-16477
鸡肉	-16478
CMU	-16479
ean	-16480
ics	-16481
ino	-16482
oll	-16483
omo	-16484
ros	-16485
und	-16486
▁一份	-16487
▁一路	-16488
▁不止	-16489
▁与之	-16490
▁人体	-16491
▁他曾	-16492
▁以防	-16493
▁但又	-16494
▁分别	-16495
▁发明	-16496
▁培养	-16497
▁多亏	-16498
▁它和	-16499
▁小孩	-16500
▁年前	-16501
▁很久	-16502
▁快乐	-16503
▁总结	-16504
▁我看	-16505
▁据说	-16506
▁放弃	-16507
▁是吧	-16508
▁来看	-16509
▁法国	-16510
▁现场	-16511
▁给你	-16512
▁美元	-16513
▁降低	-16514
上传到	-16515
不可以	-16516
世隔绝	-16517
东西的	-16518
为中心	-16519
之中的	-16520
九个月	-16521
了一套	-16522
他们从	-16523
公平的	-16524
关系到	-16525
几内亚	-16526
出现过	-16527
利桑那	-16528
到美国	-16529
匈牙利	-16530
匹兹堡	-16531
千万别	-16532
卫生间	-16533
去上学	-16534
去工作	-16535
去解决	-16536
可以使	-16537
可兰经	-16538
可靠的	-16539
同样也	-16540
向人们	-16541
和时间	-16542
和电脑	-16543
和网络	-16544
土卫六	-16545
在今天	-16546
在任何	-16547
在你们	-16548
在整个	-16549
在研究	-16550
埃及人	-16551
复一年	-16552
复一日	-16553
大公司	-16554
大数据	-16555
妇女和	-16556
尔的摩	-16557
就只有	-16558
巴厘岛	-16559
幸运地	-16560
归属感	-16561
当你们	-16562
当前的	-16563
录病毒	-16564
很危险	-16565
很特别	-16566
很相似	-16567
得来的	-16568
性问题	-16569
恐龙的	-16570
成这样	-16571
技术上	-16572
把事情	-16573
担心的	-16574
拍摄了	-16575
持久的	-16576
接受过	-16577
控制它	-16578
提供给	-16579
摧毁了	-16580
支持的	-16581
方方面	-16582
更有趣	-16583
有一台	-16584
有责任	-16585
服务的	-16586
本世纪	-16587
杂志的	-16588
来制造	-16589
来描述	-16590
架飞机	-16591
格陵兰	-16592
死去的	-16593
每平方	-16594
游泳池	-16595
爱德华	-16596
电影中	-16597
的一刻	-16598
的一场	-16599
的一步	-16600
的两个	-16601
的任何	-16602
的会议	-16603
的因素	-16604
的大量	-16605
的开端	-16606
的报道	-16607
的本质	-16608
的物体	-16609
的频率	-16610
眼睛的	-16611
瞄准器	-16612
第三方	-16613
精神的	-16614
线性的	-16615
绝不会	-16616
罗斯福	-16617
老鼠的	-16618
艺术节	-16619
行动的	-16620
被叫做	-16621
被视为	-16622
西红柿	-16623
要如何	-16624
角色的	-16625
角落里	-16626
讲台上	-16627
说我们	-16628
贝多芬	-16629
费洛蒙	-16630
转基因	-16631
还会有	-16632
这世界	-16633
这已经	-16634
这是你	-16635
这类的	-16636
那些小	-16637
长长的	-16638
陆地上	-16639
需要有	-16640
风险的	-16641
马尼亚	-16642
usan	-16643
▁两年前	-16644
▁你能够	-16645
▁在今天	-16646
▁大家好	-16647
▁它不会	-16648
▁将它们	-16649
▁就像我	-16650
▁我们已	-16651
▁我们曾	-16652
▁我试图	-16653
▁来实现	-16654
▁比我们	-16655
▁相比于	-16656
▁第二点	-16657
▁类似于	-16658
▁结果呢	-16659
▁这位是	-16660
▁这是对	-16661
▁阿拉伯	-16662
一样的人	-16663
一样重要	-16664
与我们的	-16665
世界公民	-16666
临床实验	-16667
为人知的	-16668
也有一些	-16669
什么都没	-16670
你不需要	-16671
你的工作	-16672
全球经济	-16673
共产主义	-16674
其他方面	-16675
北卡罗来	-16676
即兴表演	-16677
可持续的	-16678
司法系统	-16679
周围的人	-16680
地球上最	-16681
学到很多	-16682
它们如何	-16683
屏幕上的	-16684
工作机会	-16685
已经知道	-16686
康涅狄格	-16687
当我们在	-16688
怎么样呢	-16689
想要什么	-16690
想象中的	-16691
想象力的	-16692
慈善事业	-16693
我们喜欢	-16694
我们是谁	-16695
我们觉得	-16696
截然不同	-16697
找到这些	-16698
教育体系	-16699
是很好的	-16700
有一件事	-16701
有的时候	-16702
来自哪里	-16703
正在做的	-16704
独一无二	-16705
用他们的	-16706
电话号码	-16707
的第一天	-16708
研究结果	-16709
种族灭绝	-16710
科学家和	-16711
能源消耗	-16712
自我意识	-16713
西伯利亚	-16714
让人兴奋	-16715
让我们来	-16716
谈论的是	-16717
这个例子	-16718
这么多人	-16719
这就是我	-16720
这样认为	-16721
这种事情	-16722
金融危机	-16723
阿拉巴马	-16724
随着时间	-16725
鳍金枪鱼	-16726
黄金法则	-16727
▁NASA	-16728
▁于是我说	-16729
▁什么时候	-16730
▁他们可能	-16731
▁他们喜欢	-16732
▁他们就是	-16733
▁你不可能	-16734
▁和他们的	-16735
▁因为我在	-16736
▁就像这样	-16737
▁当我还是	-16738
▁成百上千	-16739
▁我们只能	-16740
▁我们最终	-16741
▁我只是想	-16742
▁我在那里	-16743
▁我的同事	-16744
▁或者一个	-16745
▁正是因为	-16746
▁简而言之	-16747
▁绝大多数	-16748
▁而且这个	-16749
▁这些故事	-16750
▁这种现象	-16751
不同的方法	-16752
什么也没有	-16753
他们的行为	-16754
任何一个人	-16755
展示给大家	-16756
怎么做到的	-16757
恐怖主义的	-16758
我也不知道	-16759
所有的一切	-16760
理所当然的	-16761
生活在一起	-16762
的一张照片	-16763
类似的事情	-16764
自己的声音	-16765
这样的想法	-16766
CRISPR	-16767
▁我也不知道	-16768
▁我们所有人	-16769
▁我开始思考	-16770
会是什么样子	-16771
▁我想告诉你们	-16772
▁这就是我们在	-16773
64	-16774
ES	-16775
El	-16776
TM	-16777
”)	-16778
”、	-16779
▁何	-16780
▁凯	-16781
▁普	-16782
▁祝	-16783
▁背	-16784
▁较	-16785
一一	-16786
上看	-16787
不不	-16788
不开	-16789
世俗	-16790
东亚	-16791
为它	-16792
乃至	-16793
乏味	-16794
九个	-16795
了两	-16796
了么	-16797
争端	-16798
京都	-16799
从何	-16800
他将	-16801
他想	-16802
优美	-16803
会用	-16804
你真	-16805
保密	-16806
信贷	-16807
倒塌	-16808
光芒	-16809
入睡	-16810
共性	-16811
兼容	-16812
内疚	-16813
再也	-16814
再现	-16815
再见	-16816
写字	-16817
减肥	-16818
几点	-16819
出行	-16820
分钱	-16821
初次	-16822
到这	-16823
前途	-16824
剩余	-16825
募集	-16826
医治	-16827
卖掉	-16828
去见	-16829
参赛	-16830
发放	-16831
可信	-16832
可悲	-16833
右侧	-16834
命中	-16835
和高	-16836
哈马	-16837
喂食	-16838
嘻哈	-16839
园艺	-16840
圆点	-16841
基酸	-16842
塔拉	-16843
塞塔	-16844
壮观	-16845
多伦	-16846
多达	-16847
夜空	-16848
大桥	-16849
威力	-16850
字面	-16851
学费	-16852
宁静	-16853
它又	-16854
它对	-16855
宗旨	-16856
定理	-16857
定罪	-16858
尔摩	-16859
尼卡	-16860
幕后	-16861
底线	-16862
度量	-16863
延迟	-16864
开罗	-16865
归类	-16866
当她	-16867
很早	-16868
快地	-16869
快点	-16870
总在	-16871
悲哀	-16872
战役	-16873
执照	-16874
抵押	-16875
抽出	-16876
指着	-16877
挑剔	-16878
探访	-16879
支援	-16880
支票	-16881
收拾	-16882
敏锐	-16883
昏迷	-16884
是将	-16885
有更	-16886
木板	-16887
极少	-16888
检视	-16889
欧元	-16890
残骸	-16891
气息	-16892
水管	-16893
波长	-16894
游说	-16895
火柴	-16896
灭亡	-16897
爱你	-16898
爱和	-16899
片刻	-16900
玩儿	-16901
生于	-16902
电场	-16903
电报	-16904
画布	-16905
症的	-16906
相像	-16907
移居	-16908
穆朗	-16909
空虚	-16910
红线	-16911
绘图	-16912
继而	-16913
编译	-16914
美术	-16915
老龄	-16916
而过	-16917
胶带	-16918
能做	-16919
自下	-16920
营业	-16921
落下	-16922
蓝光	-16923
虚假	-16924
虚无	-16925
蜂蜜	-16926
蠕虫	-16927
装箱	-16928
解救	-16929
解脱	-16930
记号	-16931
请看	-16932
跟她	-16933
辨认	-16934
边是	-16935
远了	-16936
违法	-16937
连锁	-16938
透镜	-16939
道义	-16940
遗迹	-16941
酋长	-16942
重心	-16943
重申	-16944
钓鱼	-16945
限度	-16946
隔壁	-16947
雄心	-16948
零下	-16949
露天	-16950
韧性	-16951
音速	-16952
飞向	-16953
骗局	-16954
麻疹	-16955
,18	-16956
She	-16957
ais	-16958
car	-16959
ish	-16960
ney	-16961
olf	-16962
uck	-16963
vel	-16964
▁16	-16965
▁99	-16966
▁Re	-16967
▁一项	-16968
▁不必	-16969
▁不错	-16970
▁与我	-16971
▁也就	-16972
▁你好	-16973
▁保证	-16974
▁军队	-16975
▁前往	-16976
▁化学	-16977
▁原本	-16978
▁名为	-16979
▁呈现	-16980
▁坚持	-16981
▁天哪	-16982
▁它不	-16983
▁应用	-16984
▁很大	-16985
▁想法	-16986
▁成本	-16987
▁我做	-16988
▁我已	-16989
▁我给	-16990
▁我这	-16991
▁承认	-16992
▁抱歉	-16993
▁摆脱	-16994
▁明白	-16995
▁是为	-16996
▁禁止	-16997
▁能否	-16998
▁药物	-16999
▁遇到	-17000
▁那次	-17001
▁重复	-17002
▁长达	-17003
▁阅读	-17004
▁领导	-17005
▁麦克	-17006
一整天	-17007
一次性	-17008
一生的	-17009
一首诗	-17010
不可知	-17011
不是我	-17012
不用说	-17013
不认为	-17014
与世界	-17015
东海岸	-17016
中发现	-17017
中获得	-17018
为这些	-17019
习以为	-17020
了那个	-17021
些东西	-17022
些时间	-17023
人们说	-17024
什么也	-17025
仅有的	-17026
仍然有	-17027
仔细的	-17028
伊甸园	-17029
你希望	-17030
你是个	-17031
做手术	-17032
像现在	-17033
再回到	-17034
冲突的	-17035
几年后	-17036
到哪里	-17037
十年内	-17038
卓越的	-17039
发展出	-17040
只剩下	-17041
吓坏了	-17042
和世界	-17043
和中国	-17044
和健康	-17045
国防部	-17046
在伦敦	-17047
地工作	-17048
坚定的	-17049
外行星	-17050
如果在	-17051
妻子的	-17052
学习了	-17053
它们都	-17054
就是他	-17055
巧妙的	-17056
已经从	-17057
巴比伦	-17058
希腊人	-17059
帮他们	-17060
开始时	-17061
得更快	-17062
必须在	-17063
想法的	-17064
意粉酱	-17065
我就要	-17066
我打算	-17067
我爸爸	-17068
或许是	-17069
所在地	-17070
所有权	-17071
找到我	-17072
把东西	-17073
拉斯维	-17074
指挥官	-17075
排泄物	-17076
操作的	-17077
收集了	-17078
故事中	-17079
数据是	-17080
无意识	-17081
是一些	-17082
是女性	-17083
更快的	-17084
有个人	-17085
有人会	-17086
有很大	-17087
本地的	-17088
杀死了	-17089
来表达	-17090
极高的	-17091
比较好	-17092
氧化氮	-17093
法律的	-17094
活力的	-17095
深深的	-17096
潜水员	-17097
父亲的	-17098
现在我	-17099
现在有	-17100
生产商	-17101
生命之	-17102
的一代	-17103
的学习	-17104
的小镇	-17105
的思维	-17106
的服务	-17107
的标志	-17108
的痛苦	-17109
的细菌	-17110
的装置	-17111
的资金	-17112
着这些	-17113
种语言	-17114
第四个	-17115
米特里	-17116
约翰逊	-17117
纳尔逊	-17118
经验的	-17119
群体中	-17120
而改变	-17121
而易举	-17122
能通过	-17123
自己所	-17124
观众的	-17125
计的人	-17126
认真地	-17127
让学生	-17128
记者们	-17129
请记住	-17130
象征着	-17131
赞比亚	-17132
转过身	-17133
过时了	-17134
过时的	-17135
过的人	-17136
这真是	-17137
这笔钱	-17138
那个小	-17139
都一样	-17140
障碍物	-17141
非盈利	-17142
面对面	-17143
面积的	-17144
1945	-17145
anny	-17146
berg	-17147
shah	-17148
▁丽贝卡	-17149
▁也无法	-17150
▁但首先	-17151
▁你肯定	-17152
▁在当时	-17153
▁它们也	-17154
▁它必须	-17155
▁就像在	-17156
▁就在我	-17157
▁很简单	-17158
▁德里克	-17159
▁我们却	-17160
▁我坐在	-17161
▁我就会	-17162
▁我有幸	-17163
▁我走进	-17164
▁我还要	-17165
▁我问他	-17166
▁把这个	-17167
▁接着我	-17168
▁目的是	-17169
▁第一条	-17170
▁而且也	-17171
▁而当你	-17172
▁蛋白质	-17173
▁让这些	-17174
▁说真的	-17175
▁这首歌	-17176
▁那一刻	-17177
▁那你就	-17178
▁那样的	-17179
一个叫做	-17180
一个小时	-17181
不信由你	-17182
五分之一	-17183
什么才是	-17184
他们不会	-17185
任何一种	-17186
你们当中	-17187
做任何事	-17188
做出来的	-17189
做得很好	-17190
其它地方	-17191
卫生保健	-17192
变成现实	-17193
回收利用	-17194
在这里的	-17195
城市规划	-17196
如果有人	-17197
家庭暴力	-17198
对于那些	-17199
将我们的	-17200
就是为了	-17201
平均寿命	-17202
年轻人的	-17203
开始着手	-17204
影响我们	-17205
很多时间	-17206
很难想象	-17207
得出结论	-17208
意思就是	-17209
我最喜欢	-17210
找到一种	-17211
挑战性的	-17212
政府部门	-17213
新的技术	-17214
无线网络	-17215
是第一个	-17216
正确的事	-17217
毋庸置疑	-17218
民权运动	-17219
演示一下	-17220
现代社会	-17221
的问题上	-17222
知道他们	-17223
研究这个	-17224
经济危机	-17225
自我组装	-17226
菲尼克斯	-17227
越来越大	-17228
身边的人	-17229
轻而易举	-17230
这一现象	-17231
这个时候	-17232
进化过程	-17233
连在一起	-17234
那么大的	-17235
那么重要	-17236
那些东西	-17237
都是关于	-17238
长时间的	-17239
需要一些	-17240
非常喜欢	-17241
非常容易	-17242
革命性的	-17243
Steve	-17244
ation	-17245
▁一个叫做	-17246
▁今天我们	-17247
▁任何一个	-17248
▁只有这样	-17249
▁只要我们	-17250
▁因为我是	-17251
▁心理学家	-17252
▁我不需要	-17253
▁我们以为	-17254
▁我们对于	-17255
▁我们就是	-17256
▁我们当然	-17257
▁我们花了	-17258
▁无论是在	-17259
▁此时此刻	-17260
▁能让我们	-17261
▁虽然我们	-17262
▁让我们来	-17263
▁这不仅仅	-17264
▁这些信息	-17265
▁这些动物	-17266
▁这真的是	-17267
不是这样的	-17268
华盛顿特区	-17269
在世界各地	-17270
天文望远镜	-17271
女权主义者	-17272
我们可以在	-17273
我们是如何	-17274
我们的研究	-17275
扮演的角色	-17276
数以千计的	-17277
有一个问题	-17278
现实世界中	-17279
的一个项目	-17280
组合在一起	-17281
足够的时间	-17282
跟你们分享	-17283
这是我们的	-17284
非常不同的	-17285
非常有意思	-17286
▁他们不知道	-17287
▁他们实际上	-17288
▁因为我们在	-17289
▁我们还可以	-17290
▁而不仅仅是	-17291
汽车安全座椅	-17292
麻省理工学院	-17293
......”	-17294
▁我们需要一个	-17295
,(	-17296
,,	-17297
76	-17298
:♪	-17299
IC	-17300
Jo	-17301
by	-17302
▁促	-17303
▁列	-17304
▁合	-17305
▁基	-17306
▁微	-17307
▁托	-17308
▁旧	-17309
▁明	-17310
▁汤	-17311
▁诗	-17312
一处	-17313
一方	-17314
一瓶	-17315
下周	-17316
不觉	-17317
不顾	-17318
与伦	-17319
东方	-17320
之情	-17321
之门	-17322
争吵	-17323
交织	-17324
代言	-17325
份额	-17326
伊曼	-17327
作画	-17328
你和	-17329
你被	-17330
供电	-17331
便携	-17332
保加	-17333
修女	-17334
偏僻	-17335
健身	-17336
先知	-17337
克里	-17338
公认	-17339
内存	-17340
冒犯	-17341
冻结	-17342
减半	-17343
凡达	-17344
出错	-17345
到此	-17346
制止	-17347
十月	-17348
反响	-17349
受精	-17350
和新	-17351
地被	-17352
坐的	-17353
块的	-17354
坠落	-17355
城里	-17356
基质	-17357
外形	-17358
大笔	-17359
失误	-17360
头来	-17361
奖赏	-17362
嬉皮	-17363
它不	-17364
它所	-17365
定时	-17366
室友	-17367
对策	-17368
对这	-17369
小麦	-17370
局部	-17371
峰顶	-17372
巡逻	-17373
布局	-17374
帮他	-17375
年度	-17376
强化	-17377
很差	-17378
徘徊	-17379
总有	-17380
愈合	-17381
成是	-17382
我给	-17383
战术	-17384
戴上	-17385
所得	-17386
手无	-17387
托弗	-17388
抓狂	-17389
捉摸	-17390
撕裂	-17391
收取	-17392
收容	-17393
敞开	-17394
无情	-17395
时地	-17396
易于	-17397
是去	-17398
是种	-17399
是能	-17400
暗的	-17401
更是	-17402
更近	-17403
望的	-17404
本领	-17405
机翼	-17406
查找	-17407
格言	-17408
格里	-17409
欣喜	-17410
正要	-17411
死人	-17412
毫秒	-17413
汲取	-17414
没被	-17415
河的	-17416
流离	-17417
海默	-17418
混搭	-17419
渔场	-17420
渺小	-17421
漩涡	-17422
爪子	-17423
牢房	-17424
球队	-17425
理疗	-17426
生不	-17427
生肖	-17428
电器	-17429
电荷	-17430
白种	-17431
百年	-17432
的词	-17433
皇后	-17434
看护	-17435
着他	-17436
着她	-17437
着火	-17438
石膏	-17439
科特	-17440
称赞	-17441
稀缺	-17442
空闲	-17443
笑脸	-17444
紊乱	-17445
纳西	-17446
线虫	-17447
组的	-17448
终究	-17449
罪魁	-17450
美学	-17451
联想	-17452
腹泻	-17453
自助	-17454
节食	-17455
花蜜	-17456
荒漠	-17457
融资	-17458
行各	-17459
行贿	-17460
补偿	-17461
装了	-17462
裸露	-17463
西非	-17464
观赏	-17465
警惕	-17466
计数	-17467
证人	-17468
误差	-17469
谦卑	-17470
贵族	-17471
踏入	-17472
躲在	-17473
较低	-17474
这套	-17475
逆向	-17476
遇上	-17477
遗体	-17478
配对	-17479
金额	-17480
间隙	-17481
闻到	-17482
阻塞	-17483
阿基	-17484
饭店	-17485
香味	-17486
骑行	-17487
骨折	-17488
高出	-17489
鸟的	-17490
鸡尾	-17491
,15	-17492
Tom	-17493
ata	-17494
ier	-17495
ies	-17496
ite	-17497
ong	-17498
▁14	-17499
▁En	-17500
▁JC	-17501
▁WK	-17502
▁一半	-17503
▁一台	-17504
▁今日	-17505
▁他和	-17506
▁依靠	-17507
▁停止	-17508
▁其一	-17509
▁准确	-17510
▁前面	-17511
▁单单	-17512
▁同情	-17513
▁和对	-17514
▁在最	-17515
▁它从	-17516
▁它以	-17517
▁实在	-17518
▁并能	-17519
▁当作	-17520
▁总统	-17521
▁恢复	-17522
▁想到	-17523
▁提醒	-17524
▁改善	-17525
▁教授	-17526
▁早上	-17527
▁极其	-17528
▁森林	-17529
▁海豚	-17530
▁疫苗	-17531
▁疾病	-17532
▁联系	-17533
▁规模	-17534
▁计划	-17535
▁说道	-17536
▁足以	-17537
▁软件	-17538
▁迅速	-17539
▁那会	-17540
▁阻止	-17541
▁马丁	-17542
一块儿	-17543
一小块	-17544
一英里	-17545
上升了	-17546
上学的	-17547
不久的	-17548
不是的	-17549
不重要	-17550
个月的	-17551
中寻找	-17552
中的人	-17553
乐观的	-17554
了一本	-17555
了一次	-17556
二十五	-17557
人类和	-17558
从他们	-17559
他们把	-17560
伊朗人	-17561
你也许	-17562
供应商	-17563
保存在	-17564
做准备	-17565
做生意	-17566
儿子的	-17567
出发点	-17568
加入到	-17569
北半球	-17570
区分开	-17571
十亿人	-17572
十分的	-17573
卡内基	-17574
原有的	-17575
去哪里	-17576
参议院	-17577
发电厂	-17578
只要你	-17579
可以有	-17580
同理心	-17581
周边的	-17582
和我在	-17583
和行为	-17584
固定在	-17585
在人类	-17586
在这张	-17587
地亚哥	-17588
地马拉	-17589
堪萨斯	-17590
多样的	-17591
好多了	-17592
妇女们	-17593
安德鲁	-17594
密度的	-17595
对世界	-17596
就需要	-17597
崩溃了	-17598
巴拉克	-17599
布拉德	-17600
帮助的	-17601
底层的	-17602
底部的	-17603
开源的	-17604
很擅长	-17605
德国人	-17606
德里安	-17607
怀孕了	-17608
怎么想	-17609
想成为	-17610
我会说	-17611
我只能	-17612
我对此	-17613
我是否	-17614
我爱你	-17615
房间的	-17616
拒绝了	-17617
政策的	-17618
数十年	-17619
新方法	-17620
方向盘	-17621
旅途中	-17622
无形的	-17623
时间了	-17624
时间去	-17625
是一条	-17626
是我在	-17627
智慧和	-17628
暴露在	-17629
暴风雨	-17630
最令人	-17631
最大化	-17632
有某种	-17633
本应该	-17634
来处理	-17635
构成了	-17636
每分钟	-17637
毕业后	-17638
氨基酸	-17639
没想到	-17640
混合物	-17641
游戏里	-17642
点时间	-17643
照片上	-17644
爱上了	-17645
珠穆朗	-17646
用你的	-17647
用它们	-17648
用电脑	-17649
的人中	-17650
的动机	-17651
的意识	-17652
的报告	-17653
的秘密	-17654
的老师	-17655
的象征	-17656
相当的	-17657
真的想	-17658
着迷于	-17659
立方体	-17660
第二大	-17661
简直是	-17662
者之一	-17663
要花费	-17664
觉得我	-17665
让我很	-17666
记忆力	-17667
说服力	-17668
过多的	-17669
还不能	-17670
连接的	-17671
选择性	-17672
造就了	-17673
那一年	-17674
那么高	-17675
都会说	-17676
里的人	-17677
问题呢	-17678
领袖们	-17679
马萨诸	-17680
麻烦了	-17681
1993	-17682
eBay	-17683
ight	-17684
▁为了让	-17685
▁但今天	-17686
▁但只有	-17687
▁但真正	-17688
▁却没有	-17689
▁墨西哥	-17690
▁多年来	-17691
▁它其实	-17692
▁它可能	-17693
▁它是个	-17694
▁对这些	-17695
▁并将其	-17696
▁当时的	-17697
▁我仍然	-17698
▁我们做	-17699
▁我刚才	-17700
▁我想到	-17701
▁我永远	-17702
▁我肯定	-17703
▁梅琳达	-17704
▁现在它	-17705
▁艺术家	-17706
▁这些事	-17707
▁这完全	-17708
▁这将是	-17709
▁那时的	-17710
▁重点是	-17711
一份工作	-17712
一家公司	-17713
万美元的	-17714
不一样了	-17715
个小时的	-17716
中东地区	-17717
习以为常	-17718
了一件事	-17719
人类学家	-17720
你在哪里	-17721
保加利亚	-17722
做出选择	-17723
前列腺癌	-17724
卫生组织	-17725
去看医生	-17726
发生的是	-17727
受欢迎的	-17728
各不相同	-17729
在做什么	-17730
在阿富汗	-17731
头脑风暴	-17732
如何处理	-17733
如果你是	-17734
如此重要	-17735
完全一样	-17736
就能看到	-17737
布朗克斯	-17738
当我开始	-17739
影响力的	-17740
很了不起	-17741
得到一些	-17742
得到什么	-17743
我不喜欢	-17744
我们之前	-17745
我们国家	-17746
我很高兴	-17747
我的学生	-17748
手提电脑	-17749
技术人员	-17750
把所有的	-17751
收集数据	-17752
无法理解	-17753
暴力事件	-17754
更多的是	-17755
有一个人	-17756
民意调查	-17757
治疗癌症	-17758
环境问题	-17759
珠穆朗玛	-17760
班加罗尔	-17761
生命周期	-17762
用同样的	-17763
的事情了	-17764
的土地上	-17765
相互联系	-17766
石油泄漏	-17767
确实存在	-17768
神经学家	-17769
种族屠杀	-17770
科学技术	-17771
移动电话	-17772
糟糕的是	-17773
继续前进	-17774
绿色环保	-17775
网络罪犯	-17776
罪魁祸首	-17777
聚到一起	-17778
肯尼亚的	-17779
艾滋病的	-17780
行不通的	-17781
达赖喇嘛	-17782
这个名字	-17783
这个孩子	-17784
这个家伙	-17785
这个网站	-17786
这些数字	-17787
这种东西	-17788
进入一个	-17789
都不一样	-17790
非常相似	-17791
duino	-17792
▁2007	-17793
▁从根本上	-17794
▁他们不能	-17795
▁再来看看	-17796
▁因为你们	-17797
▁因为这种	-17798
▁它们没有	-17799
▁就在我们	-17800
▁当我看到	-17801
▁我们做的	-17802
▁我们真正	-17803
▁我想我们	-17804
▁我注意到	-17805
▁正如你们	-17806
▁每一个人	-17807
▁然后你就	-17808
▁而且这些	-17809
▁而这正是	-17810
▁这个作品	-17811
▁这个观点	-17812
▁这是其中	-17813
一遍又一遍	-17814
不同种类的	-17815
中的大多数	-17816
了这个项目	-17817
仅仅是一个	-17818
以某种方式	-17819
保护我们的	-17820
出来的时候	-17821
可持续性的	-17822
向你们介绍	-17823
周围的环境	-17824
四轴飞行器	-17825
强子对撞机	-17826
我们的经济	-17827
我们需要的	-17828
是什么时候	-17829
百分之三十	-17830
的事情之一	-17831
这不是一个	-17832
这个机器人	-17833
这就是我们	-17834
阿姆斯特丹	-17835
illiam	-17836
▁如果你愿意	-17837
▁当我们开始	-17838
▁我们在这里	-17839
▁我们把这个	-17840
▁我们每个人	-17841
▁我们生活在	-17842
▁我们的大脑	-17843
▁我最喜欢的	-17844
▁所以你可以	-17845
▁所有的这些	-17846
▁有意思的是	-17847
▁那就是我们	-17848
人与人之间的	-17849
发生了什么呢	-17850
shahidi	-17851
正在发生的事情	-17852
▁Facebook	-17853
,《	-17854
97	-17855
Pr	-17856
Sp	-17857
ke	-17858
tt	-17859
▁h	-17860
▁伯	-17861
▁停	-17862
▁劳	-17863
▁照	-17864
▁穷	-17865
▁赫	-17866
▁首	-17867
一笔	-17868
万一	-17869
三四	-17870
上和	-17871
下巴	-17872
不相	-17873
不胜	-17874
丑闻	-17875
丝绸	-17876
丰田	-17877
之事	-17878
之手	-17879
之歌	-17880
也更	-17881
了对	-17882
二甲	-17883
他不	-17884
企图	-17885
休假	-17886
休闲	-17887
传教	-17888
伪造	-17889
位的	-17890
你来	-17891
光一	-17892
六岁	-17893
六月	-17894
内涵	-17895
农田	-17896
凝视	-17897
刚从	-17898
力度	-17899
加索	-17900
动症	-17901
化肥	-17902
午夜	-17903
卷入	-17904
压根	-17905
受苦	-17906
台阶	-17907
史诗	-17908
同类	-17909
后者	-17910
向后	-17911
否定	-17912
周六	-17913
咀嚼	-17914
哥们	-17915
回溯	-17916
埋在	-17917
填写	-17918
多尔	-17919
多岁	-17920
大叫	-17921
天呐	-17922
太久	-17923
头绪	-17924
夸克	-17925
她就	-17926
字幕	-17927
完好	-17928
寄钱	-17929
寺庙	-17930
尘埃	-17931
尿液	-17932
工匠	-17933
布里	-17934
带宽	-17935
常理	-17936
平原	-17937
年份	-17938
张贴	-17939
往常	-17940
心怀	-17941
怀念	-17942
悖论	-17943
患了	-17944
惊慌	-17945
意地	-17946
感触	-17947
懂了	-17948
手掌	-17949
投放	-17950
抽取	-17951
拍卖	-17952
拿了	-17953
挫败	-17954
推文	-17955
提姆	-17956
插座	-17957
放心	-17958
教皇	-17959
暴龙	-17960
最早	-17961
木炭	-17962
杂烩	-17963
来往	-17964
杰夫	-17965
杰特	-17966
比对	-17967
汉斯	-17968
河里	-17969
沸腾	-17970
波特	-17971
泪水	-17972
洋葱	-17973
派遣	-17974
海运	-17975
淘汰	-17976
深夜	-17977
激增	-17978
灵敏	-17979
燃油	-17980
牛的	-17981
特意	-17982
犯的	-17983
狗的	-17984
猎人	-17985
王星	-17986
现存	-17987
球场	-17988
生动	-17989
生计	-17990
用上	-17991
电气	-17992
留着	-17993
疗效	-17994
痛楚	-17995
瘟疫	-17996
的纸	-17997
睁开	-17998
碳水	-17999
碳酸	-18000
神灵	-18001
福音	-18002
稀奇	-18003
算术	-18004
管辖	-18005
篇章	-18006
粘土	-18007
精髓	-18008
素的	-18009
纽带	-18010
绑在	-18011
绕过	-18012
绩效	-18013
维和	-18014
缩减	-18015
羊毛	-18016
能将	-18017
脱落	-18018
萨尼	-18019
蓝鲸	-18020
藉由	-18021
西尼	-18022
要让	-18023
计时	-18024
论的	-18025
识字	-18026
译注	-18027
读写	-18028
贝壳	-18029
贴纸	-18030
走着	-18031
起因	-18032
跑了	-18033
车轮	-18034
这家	-18035
这把	-18036
这股	-18037
进度	-18038
退后	-18039
透彻	-18040
里兰	-18041
里根	-18042
钢丝	-18043
长到	-18044
闻名	-18045
阻力	-18046
陨石	-18047
雪橇	-18048
领会	-18049
领土	-18050
飞去	-18051
马的	-18052
110	-18053
ara	-18054
hat	-18055
ora	-18056
red	-18057
str	-18058
▁Bl	-18059
▁Ge	-18060
▁JA	-18061
▁不但	-18062
▁不停	-18063
▁不好	-18064
▁他正	-18065
▁令我	-18066
▁你可	-18067
▁依据	-18068
▁再说	-18069
▁取得	-18070
▁回顾	-18071
▁地方	-18072
▁塑料	-18073
▁多少	-18074
▁她把	-18075
▁它使	-18076
▁它叫	-18077
▁它让	-18078
▁对你	-18079
▁情感	-18080
▁我常	-18081
▁把他	-18082
▁机械	-18083
▁物理	-18084
▁独立	-18085
▁猜猜	-18086
▁维持	-18087
▁行动	-18088
▁输入	-18089
▁这本	-18090
▁采取	-18091
▁项目	-18092
▁预测	-18093
▁高度	-18094
一种叫	-18095
不再有	-18096
不变的	-18097
不对劲	-18098
与那些	-18099
中世纪	-18100
了一年	-18101
了一遍	-18102
二甲酸	-18103
人体的	-18104
他开始	-18105
他知道	-18106
仿生学	-18107
会一直	-18108
会变得	-18109
会想到	-18110
传播到	-18111
似乎是	-18112
位置上	-18113
体验到	-18114
作出了	-18115
你将会	-18116
做更多	-18117
公正的	-18118
再从业	-18119
农民们	-18120
制造者	-18121
医学界	-18122
厨房里	-18123
去学校	-18124
只能在	-18125
可用的	-18126
各式各	-18127
向世界	-18128
听说了	-18129
和分析	-18130
和控制	-18131
哩啦啦	-18132
商学院	-18133
商店里	-18134
回家了	-18135
团队的	-18136
在每个	-18137
在路上	-18138
增加到	-18139
士兵们	-18140
太小了	-18141
奥地利	-18142
奥运会	-18143
好几个	-18144
宇航局	-18145
定决心	-18146
家庭中	-18147
对未来	-18148
将一个	-18149
尽所能	-18150
工人的	-18151
已经很	-18152
巴西的	-18153
平流层	-18154
当时在	-18155
很糟糕	-18156
必不可	-18157
怎样去	-18158
性武器	-18159
想想看	-18160
成人的	-18161
我想象	-18162
我这个	-18163
或者不	-18164
所吸引	-18165
拿一个	-18166
挑战性	-18167
控制着	-18168
数以万	-18169
无意中	-18170
星期前	-18171
是个很	-18172
是这些	-18173
最简单	-18174
有一百	-18175
有一群	-18176
有关系	-18177
有其他	-18178
有必要	-18179
本身就	-18180
来保护	-18181
来表示	-18182
极大地	-18183
每一年	-18184
每年有	-18185
比起来	-18186
没有了	-18187
热气球	-18188
然后你	-18189
理解为	-18190
理解和	-18191
用来做	-18192
田纳西	-18193
的一座	-18194
的一间	-18195
的人呢	-18196
的作者	-18197
的全球	-18198
的原理	-18199
的地下	-18200
的大楼	-18201
的对象	-18202
的总和	-18203
的房间	-18204
的标签	-18205
的海洋	-18206
的父母	-18207
的眼睛	-18208
的自然	-18209
的要求	-18210
的认知	-18211
的责任	-18212
的趋势	-18213
的顶端	-18214
相信的	-18215
真的能	-18216
眼中的	-18217
着他们	-18218
确实有	-18219
神奇了	-18220
积极地	-18221
竞争力	-18222
第一张	-18223
紫色的	-18224
约书亚	-18225
组成了	-18226
给了他	-18227
翻车鱼	-18228
老师的	-18229
胰腺癌	-18230
自己能	-18231
自己被	-18232
自给自	-18233
至少有	-18234
葡萄糖	-18235
藏起来	-18236
行走的	-18237
表现的	-18238
被使用	-18239
西海岸	-18240
觉得它	-18241
试着去	-18242
试试看	-18243
详细的	-18244
谈论它	-18245
车的人	-18246
还有人	-18247
这事儿	-18248
这其中	-18249
这都是	-18250
都可能	-18251
阿凡达	-18252
需要被	-18253
高中的	-18254
1800	-18255
1996	-18256
2013	-18257
8000	-18258
Abed	-18259
ickr	-18260
mail	-18261
orld	-18262
rank	-18263
▁80%	-18264
▁不是吗	-18265
▁也是我	-18266
▁亚马逊	-18267
▁从这里	-18268
▁他知道	-18269
▁但是那	-18270
▁你或许	-18271
▁你看见	-18272
▁加拿大	-18273
▁可以从	-18274
▁可以把	-18275
▁和她的	-18276
▁坏消息	-18277
▁如果她	-18278
▁它将会	-18279
▁对那些	-18280
▁将这些	-18281
▁就已经	-18282
▁就是我	-18283
▁展示了	-18284
▁建筑物	-18285
▁当地的	-18286
▁我保证	-18287
▁我当然	-18288
▁我还在	-18289
▁我还想	-18290
▁所以呢	-18291
▁所以就	-18292
▁来进行	-18293
▁然而在	-18294
▁生命的	-18295
▁的一个	-18296
▁相同的	-18297
▁第三点	-18298
▁经历了	-18299
▁能不能	-18300
▁请大家	-18301
一个女人	-18302
不可或缺	-18303
个性化的	-18304
为自己的	-18305
也可能是	-18306
他们应该	-18307
他们必须	-18308
作出反应	-18309
做什么的	-18310
允许我们	-18311
共和党人	-18312
其中一些	-18313
到处都有	-18314
原始数据	-18315
发现一个	-18316
可以看出	-18317
同时也是	-18318
在想什么	-18319
外科手术	-18320
如何才能	-18321
如果你的	-18322
学到什么	-18323
尝试一下	-18324
就是这些	-18325
尼古拉斯	-18326
很不一样	-18327
很多问题	-18328
想要一个	-18329
意义重大	-18330
我们也会	-18331
我们就是	-18332
我们并不	-18333
我们经常	-18334
我们这些	-18335
我很喜欢	-18336
我找到了	-18337
我的国家	-18338
我看到了	-18339
或多或少	-18340
打电话给	-18341
方方面面	-18342
是另一个	-18343
有一个小	-18344
本身就是	-18345
来的时候	-18346
每一件事	-18347
消费者的	-18348
游击队员	-18349
生命危险	-18350
病人身上	-18351
的另一面	-18352
知之甚少	-18353
知识产权	-18354
矮黑猩猩	-18355
移动设备	-18356
航空航天	-18357
苯二甲酸	-18358
讨论一下	-18359
讨论的是	-18360
这一代人	-18361
这个视频	-18362
这真的是	-18363
这种行为	-18364
里的一个	-18365
长的时间	-18366
领导者的	-18367
领导能力	-18368
马萨诸塞	-18369
onica	-18370
▁以及那些	-18371
▁即使是在	-18372
▁因为那是	-18373
▁因为那里	-18374
▁在不同的	-18375
▁如果不是	-18376
▁如果你问	-18377
▁就是那些	-18378
▁尽管我们	-18379
▁并且可以	-18380
▁当你看到	-18381
▁我们仍然	-18382
▁我们试图	-18383
▁我们都在	-18384
▁我当时想	-18385
▁或者他们	-18386
▁有一件事	-18387
▁有些时候	-18388
▁正因如此	-18389
▁然后我会	-18390
▁现在大家	-18391
▁这就好像	-18392
▁这是一场	-18393
▁这是一幅	-18394
▁那么这个	-18395
不久的将来	-18396
世界的方式	-18397
二氧化碳的	-18398
他们的父母	-18399
像我这样的	-18400
加拉帕戈斯	-18401
和我们一起	-18402
复杂的问题	-18403
学到的东西	-18404
实实在在的	-18405
巨大的变化	-18406
我们可以把	-18407
把这些东西	-18408
斯坦福大学	-18409
更多的东西	-18410
有什么意义	-18411
正在发生的	-18412
白色乌托邦	-18413
碳水化合物	-18414
资本主义的	-18415
这样的情况	-18416
▁如果我们在	-18417
▁我们也需要	-18418
▁我们可能会	-18419
▁所以当我们	-18420
▁让我告诉你	-18421
▁这里有一些	-18422
在这个过程中	-18423
联系在一起的	-18424
▁所以我们决定	-18425
54	-18426
94	-18427
96	-18428
AA	-18429
NN	-18430
PT	-18431
Wi	-18432
co	-18433
se	-18434
――	-18435
▁依	-18436
▁印	-18437
▁吸	-18438
▁截	-18439
▁活	-18440
▁船	-18441
▁跨	-18442
一丝	-18443
一亿	-18444
一顿	-18445
万到	-18446
三周	-18447
上午	-18448
下到	-18449
下沉	-18450
下落	-18451
不懈	-18452
不绝	-18453
东北	-18454
个案	-18455
中枢	-18456
乐曲	-18457
二手	-18458
从他	-18459
他又	-18460
付款	-18461
传导	-18462
余生	-18463
例证	-18464
便捷	-18465
信封	-18466
倒退	-18467
假想	-18468
偷猎	-18469
偷窃	-18470
光片	-18471
入学	-18472
全然	-18473
共通	-18474
再多	-18475
冰洋	-18476
分半	-18477
到有	-18478
到那	-18479
功课	-18480
十足	-18481
华纳	-18482
卫报	-18483
即是	-18484
反向	-18485
反弹	-18486
受邀	-18487
吃到	-18488
各处	-18489
名是	-18490
向往	-18491
和解	-18492
哈里	-18493
哥斯	-18494
喷发	-18495
器材	-18496
固执	-18497
固醇	-18498
在海	-18499
地雷	-18500
均衡	-18501
坚决	-18502
堵墙	-18503
塑性	-18504
夏季	-18505
外包	-18506
外围	-18507
大批	-18508
天敌	-18509
天谢	-18510
失效	-18511
妨碍	-18512
存款	-18513
季候	-18514
学徒	-18515
宿主	-18516
对准	-18517
小于	-18518
履行	-18519
山峰	-18520
布料	-18521
布雷	-18522
干涉	-18523
干涸	-18524
平滑	-18525
并发	-18526
幼稚	-18527
开枪	-18528
弄得	-18529
张开	-18530
弱点	-18531
强力	-18532
归纳	-18533
录影	-18534
形体	-18535
征兆	-18536
德尼	-18537
德曼	-18538
心底	-18539
性命	-18540
成堆	-18541
成群	-18542
我先	-18543
战火	-18544
手来	-18545
打仗	-18546
打断	-18547
承包	-18548
抽搐	-18549
拉德	-18550
招聘	-18551
拷贝	-18552
拼写	-18553
掌管	-18554
排行	-18555
描写	-18556
攀爬	-18557
收回	-18558
数月	-18559
旅鸽	-18560
日语	-18561
时无	-18562
是好	-18563
是想	-18564
晋升	-18565
有名	-18566
朱丽	-18567
核酸	-18568
横向	-18569
歌词	-18570
此事	-18571
河中	-18572
油画	-18573
泛滥	-18574
渐冻	-18575
渡渡	-18576
潮汐	-18577
烂的	-18578
熄灭	-18579
牌的	-18580
牛排	-18581
特色	-18582
狭隘	-18583
甲虫	-18584
痛恨	-18585
百事	-18586
的山	-18587
眨眼	-18588
睡在	-18589
童话	-18590
笨蛋	-18591
粉笔	-18592
粗略	-18593
糊涂	-18594
紧凑	-18595
约有	-18596
纳森	-18597
绅士	-18598
维系	-18599
缅甸	-18600
罹患	-18601
美满	-18602
翼翼	-18603
考量	-18604
而后	-18605
耕作	-18606
胶囊	-18607
胶片	-18608
脱口	-18609
自传	-18610
航海	-18611
芭比	-18612
若干	-18613
草莓	-18614
蚁后	-18615
表亲	-18616
表皮	-18617
装配	-18618
觉醒	-18619
触角	-18620
警示	-18621
记下	-18622
访者	-18623
诱饵	-18624
调动	-18625
象牙	-18626
赌注	-18627
足足	-18628
身在	-18629
迈阿	-18630
这头	-18631
迷你	-18632
遗留	-18633
镜像	-18634
长滩	-18635
长者	-18636
长颈	-18637
门槛	-18638
闪闪	-18639
难了	-18640
集市	-18641
雨季	-18642
静静	-18643
面具	-18644
顶层	-18645
飞的	-18646
餐桌	-18647
马戏	-18648
骚乱	-18649
高了	-18650
黎加	-18651
默认	-18652
齿轮	-18653
IMS	-18654
anz	-18655
ech	-18656
ini	-18657
mer	-18658
ort	-18659
rey	-18660
une	-18661
uno	-18662
ura	-18663
van	-18664
▁Jo	-18665
▁一对	-18666
▁一段	-18667
▁一片	-18668
▁一部	-18669
▁上升	-18670
▁世纪	-18671
▁也要	-18672
▁产品	-18673
▁从小	-18674
▁价格	-18675
▁你猜	-18676
▁促使	-18677
▁免费	-18678
▁全都	-18679
▁即将	-18680
▁天然	-18681
▁工业	-18682
▁带到	-18683
▁带有	-18684
▁引起	-18685
▁我总	-18686
▁挪威	-18687
▁接近	-18688
▁收入	-18689
▁放进	-18690
▁明年	-18691
▁是谁	-18692
▁更为	-18693
▁朋友	-18694
▁来做	-18695
▁皮肤	-18696
▁眼睛	-18697
▁移民	-18698
▁竟然	-18699
▁统计	-18700
▁网站	-18701
▁艾米	-18702
▁蚂蚁	-18703
▁蜘蛛	-18704
▁诗歌	-18705
▁说服	-18706
▁走到	-18707
▁足够	-18708
▁运动	-18709
▁这使	-18710
▁这都	-18711
▁阳光	-18712
一切的	-18713
一首歌	-18714
不可见	-18715
不够的	-18716
不希望	-18717
不管你	-18718
中没有	-18719
买不起	-18720
了世界	-18721
了解它	-18722
于我们	-18723
人人都	-18724
人们所	-18725
人死亡	-18726
以为是	-18727
会更好	-18728
会继续	-18729
但不是	-18730
但是它	-18731
作出的	-18732
便开始	-18733
做事情	-18734
停留在	-18735
催化剂	-18736
光合作	-18737
公园里	-18738
兰克林	-18739
关联的	-18740
决定性	-18741
分钟里	-18742
到最后	-18743
制定者	-18744
制造业	-18745
华氏度	-18746
南美洲	-18747
南非的	-18748
印刷机	-18749
即使在	-18750
厌倦了	-18751
发邮件	-18752
句名言	-18753
可怕了	-18754
吃东西	-18755
各行各	-18756
合唱团	-18757
听我说	-18758
和发展	-18759
和平的	-18760
和我说	-18761
回家后	-18762
回想起	-18763
因为在	-18764
在不断	-18765
在这片	-18766
增长到	-18767
多余的	-18768
多元化	-18769
太大的	-18770
好玩的	-18771
如果要	-18772
它们就	-18773
它如何	-18774
实用的	-18775
客观的	-18776
家人的	-18777
容易被	-18778
密西西	-18779
将这种	-18780
工人们	-18781
带回来	-18782
常用的	-18783
年来的	-18784
建筑学	-18785
开发商	-18786
异性恋	-18787
当下的	-18788
得不错	-18789
忽视了	-18790
性生活	-18791
感知的	-18792
我所能	-18793
我父母	-18794
我花了	-18795
房地产	-18796
接触过	-18797
描述了	-18798
提醒你	-18799
教他们	-18800
数据点	-18801
斯诺登	-18802
无尽的	-18803
是在我	-18804
是那些	-18805
最近才	-18806
有一套	-18807
有了个	-18808
有四个	-18809
有这样	-18810
正常人	-18811
比赛中	-18812
沉迷于	-18813
没人会	-18814
法国人	-18815
泰迪熊	-18816
洗手间	-18817
浪费了	-18818
清晰地	-18819
满足感	-18820
理论的	-18821
生态学	-18822
的一块	-18823
的政策	-18824
的时机	-18825
的景象	-18826
的条件	-18827
的次数	-18828
的潜力	-18829
的简单	-18830
的管理	-18831
的英雄	-18832
的话语	-18833
直观的	-18834
知道她	-18835
矿物质	-18836
科技和	-18837
移植到	-18838
究竟是	-18839
经济上	-18840
经过了	-18841
维度的	-18842
而且是	-18843
联想到	-18844
能产生	-18845
能理解	-18846
色人种	-18847
花了一	-18848
行星上	-18849
被允许	-18850
被动的	-18851
被逮捕	-18852
西方人	-18853
解释说	-18854
话短说	-18855
诞生的	-18856
说这些	-18857
跟别人	-18858
路要走	-18859
身体上	-18860
还包括	-18861
还活着	-18862
这幅画	-18863
迪斯尼	-18864
迫不及	-18865
逻辑的	-18866
遇到过	-18867
那些最	-18868
那时的	-18869
需要在	-18870
非常地	-18871
鸡尾酒	-18872
7000	-18873
ever	-18874
▁300	-18875
▁上个月	-18876
▁不久前	-18877
▁不过这	-18878
▁也包括	-18879
▁从这些	-18880
▁几年后	-18881
▁在世界	-18882
▁在人类	-18883
▁它也是	-18884
▁就必须	-18885
▁就是用	-18886
▁并且有	-18887
▁并通过	-18888
▁想一下	-18889
▁我们以	-18890
▁我们看	-18891
▁我妻子	-18892
▁我热爱	-18893
▁我继续	-18894
▁我问她	-18895
▁是人类	-18896
▁是这个	-18897
▁是这些	-18898
▁有一点	-18899
▁生物学	-18900
▁而且他	-18901
▁至少在	-18902
▁请举手	-18903
▁这两者	-18904
▁这使我	-18905
▁这当然	-18906
▁这部分	-18907
▁那个人	-18908
▁那么就	-18909
一个城市	-18910
一个男人	-18911
一个项目	-18912
一些数据	-18913
一所学校	-18914
一直都在	-18915
不仅可以	-18916
不同的是	-18917
不是很好	-18918
也有很多	-18919
了解一下	-18920
互联网的	-18921
亚利桑那	-18922
交响乐团	-18923
什么样子	-18924
付诸行动	-18925
令人激动	-18926
你是不是	-18927
你有没有	-18928
俄克拉何	-18929
关于这些	-18930
养家糊口	-18931
冰山一角	-18932
几个问题	-18933
化学成分	-18934
医护人员	-18935
十九世纪	-18936
十分重要	-18937
博物馆的	-18938
博物馆里	-18939
发现他们	-18940
另一件事	-18941
各个方面	-18942
各个角落	-18943
同情心的	-18944
听到这个	-18945
听说过的	-18946
告诉各位	-18947
和其他的	-18948
四分之三	-18949
因为它是	-18950
在世界上	-18951
垃圾回收	-18952
塞尔维亚	-18953
塞拉利昂	-18954
多样化的	-18955
大不了的	-18956
就会发现	-18957
就在我们	-18958
就是如此	-18959
州立大学	-18960
巴尔的摩	-18961
希望能够	-18962
并不总是	-18963
建立联系	-18964
开始之前	-18965
开始使用	-18966
开始出现	-18967
很多人的	-18968
意大利的	-18969
我并没有	-18970
我的家人	-18971
我称之为	-18972
所面临的	-18973
把它放到	-18974
指数增长	-18975
振奋人心	-18976
改变现状	-18977
整个宇宙	-18978
是可行的	-18979
是否可以	-18980
是存在的	-18981
显微镜下	-18982
暴力行为	-18983
更有可能	-18984
有一些人	-18985
有了这些	-18986
有些时候	-18987
有意识的	-18988
核反应堆	-18989
根深蒂固	-18990
死亡人数	-18991
燃料电池	-18992
甚至没有	-18993
用户界面	-18994
的第一步	-18995
的那些人	-18996
真的很棒	-18997
社会中的	-18998
给他们的	-18999
给大家讲	-19000
绝对不会	-19001
能够改变	-19002
英尺高的	-19003
贫富差距	-19004
跟我一起	-19005
还在继续	-19006
这个现象	-19007
这个研究	-19008
这些变化	-19009
这是不是	-19010
这种说法	-19011
重新开始	-19012
重要的事	-19013
间的关系	-19014
骑自行车	-19015
Corps	-19016
Skype	-19017
▁2004	-19018
▁2011	-19019
▁一个女人	-19020
▁为什么是	-19021
▁人们总是	-19022
▁他们应该	-19023
▁他们真的	-19024
▁他们自己	-19025
▁但我相信	-19026
▁但是你们	-19027
▁但是我的	-19028
▁你们也许	-19029
▁你会觉得	-19030
▁几个星期	-19031
▁同时我也	-19032
▁因为她们	-19033
▁完全没有	-19034
▁就是一个	-19035
▁帮助他们	-19036
▁并且开始	-19037
▁很有可能	-19038
▁我们也有	-19039
▁我们目前	-19040
▁我们研究	-19041
▁我很幸运	-19042
▁我说的是	-19043
▁或者至少	-19044
▁最后一点	-19045
▁然后它们	-19046
▁而且我也	-19047
▁这其实是	-19048
一样的东西	-19049
不可能的事	-19050
其他的事情	-19051
出生的时候	-19052
发现了一个	-19053
就是我们的	-19054
我们可以从	-19055
我们可以用	-19056
是怎么样的	-19057
有趣的东西	-19058
没有人知道	-19059
生活的地方	-19060
疯狂的想法	-19061
自闭症患者	-19062
这个问题的	-19063
这样的例子	-19064
这样的方式	-19065
邻苯二甲酸	-19066
阿拉伯世界	-19067
▁Alpha	-19068
▁如果你可以	-19069
▁如果我们把	-19070
▁如果我们要	-19071
▁我们是如何	-19072
▁我们的社会	-19073
▁然后我开始	-19074
▁让我们回到	-19075
▁这对我来说	-19076
▁但更重要的是	-19077
▁克里斯安德森	-19078
oryCorps	-19079
CP	-19080
EM	-19081
GB	-19082
ax	-19083
ka	-19084
▁&	-19085
▁引	-19086
▁横	-19087
▁然	-19088
▁诚	-19089
▁造	-19090
▁金	-19091
▁钱	-19092
一盘	-19093
一词	-19094
上所	-19095
不尽	-19096
与她	-19097
两样	-19098
两面	-19099
严厉	-19100
中断	-19101
主妇	-19102
乔丹	-19103
争执	-19104
二月	-19105
交集	-19106
他对	-19107
但他	-19108
佩戴	-19109
便便	-19110
信誉	-19111
偏执	-19112
傲慢	-19113
僵局	-19114
充沛	-19115
全家	-19116
公海	-19117
公约	-19118
关押	-19119
再度	-19120
写诗	-19121
军方	-19122
农夫	-19123
冬季	-19124
冰淇	-19125
冲破	-19126
凶手	-19127
出海	-19128
击中	-19129
剪刀	-19130
协定	-19131
占用	-19132
卡斯	-19133
发型	-19134
发酵	-19135
变大	-19136
叛乱	-19137
只好	-19138
吉姆	-19139
后台	-19140
吓到	-19141
听的	-19142
呐喊	-19143
员的	-19144
和性	-19145
哥华	-19146
嘴唇	-19147
四次	-19148
围栏	-19149
地想	-19150
地把	-19151
坍塌	-19152
埋葬	-19153
城的	-19154
塞罗	-19155
境况	-19156
壁垒	-19157
士尼	-19158
外语	-19159
多米	-19160
多阿	-19161
天覆	-19162
夫斯	-19163
妮弗	-19164
孢子	-19165
少量	-19166
屏蔽	-19167
岁到	-19168
帮派	-19169
年头	-19170
开个	-19171
弥漫	-19172
德州	-19173
心思	-19174
感叹	-19175
成倍	-19176
把水	-19177
报名	-19178
报警	-19179
拍手	-19180
拼凑	-19181
指甲	-19182
授课	-19183
握住	-19184
播出	-19185
支离	-19186
斐波	-19187
新药	-19188
无声	-19189
无尽	-19190
是和	-19191
是她	-19192
晓得	-19193
更早	-19194
替身	-19195
本该	-19196
杂交	-19197
杆菌	-19198
板的	-19199
枯竭	-19200
根基	-19201
格局	-19202
欣慰	-19203
欺负	-19204
毁坏	-19205
每位	-19206
毒药	-19207
沉重	-19208
沙拉	-19209
法令	-19210
洁净	-19211
浩瀚	-19212
游牧	-19213
满满	-19214
滥调	-19215
潮湿	-19216
火腿	-19217
火花	-19218
爱国	-19219
猎杀	-19220
玛雅	-19221
理应	-19222
瑜伽	-19223
用以	-19224
疗程	-19225
白鲨	-19226
的图	-19227
的家	-19228
的非	-19229
相传	-19230
相伴	-19231
祈求	-19232
空隙	-19233
精巧	-19234
纠缠	-19235
红的	-19236
纹理	-19237
结底	-19238
缓冲	-19239
罗宾	-19240
脚踏	-19241
自家	-19242
船的	-19243
萦绕	-19244
虚弱	-19245
蝌蚪	-19246
行列	-19247
西蒙	-19248
规章	-19249
触控	-19250
诗意	-19251
谦虚	-19252
账单	-19253
贴上	-19254
贴片	-19255
贴近	-19256
赤脚	-19257
赶到	-19258
起舞	-19259
起草	-19260
越发	-19261
越少	-19262
足轻	-19263
跳下	-19264
载体	-19265
较少	-19266
远方	-19267
选出	-19268
逼迫	-19269
道格	-19270
郊外	-19271
销量	-19272
错综	-19273
镇压	-19274
间隔	-19275
阐明	-19276
阿瑟	-19277
隐秘	-19278
隔热	-19279
震荡	-19280
驾照	-19281
魔兽	-19282
龙虾	-19283
,12	-19284
,19	-19285
,40	-19286
360	-19287
age	-19288
din	-19289
ern	-19290
orn	-19291
reg	-19292
▁Sm	-19293
▁of	-19294
▁一本	-19295
▁人人	-19296
▁但愿	-19297
▁你又	-19298
▁你用	-19299
▁反正	-19300
▁国会	-19301
▁它对	-19302
▁它把	-19303
▁对比	-19304
▁就得	-19305
▁就跟	-19306
▁就连	-19307
▁年的	-19308
▁感受	-19309
▁慢慢	-19310
▁成了	-19311
▁或在	-19312
▁担心	-19313
▁援助	-19314
▁无线	-19315
▁最佳	-19316
▁激励	-19317
▁父亲	-19318
▁爸爸	-19319
▁玛丽	-19320
▁盖瑞	-19321
▁目标	-19322
▁确切	-19323
▁获取	-19324
▁蝙蝠	-19325
▁行星	-19326
▁街道	-19327
▁认识	-19328
▁训练	-19329
▁试想	-19330
▁话说	-19331
▁谈到	-19332
▁这部	-19333
▁适应	-19334
▁遍布	-19335
▁遭受	-19336
▁重建	-19337
▁重点	-19338
▁随时	-19339
▁难以	-19340
▁集中	-19341
▁颜色	-19342
▁马可	-19343
七八糟	-19344
万神殿	-19345
三角洲	-19346
不平衡	-19347
世上最	-19348
东南亚	-19349
中国菜	-19350
为一体	-19351
为单位	-19352
为那些	-19353
之上的	-19354
了新的	-19355
事件中	-19356
五年前	-19357
会议室	-19358
位女士	-19359
体育场	-19360
你一定	-19361
你所知	-19362
你正在	-19363
保持在	-19364
做出来	-19365
公斤的	-19366
出版商	-19367
利用的	-19368
利益的	-19369
制度的	-19370
加斯加	-19371
加速器	-19372
卡梅隆	-19373
发光的	-19374
发电站	-19375
发给我	-19376
受伤的	-19377
叫什么	-19378
可以和	-19379
史上最	-19380
和学习	-19381
和它们	-19382
和家人	-19383
和环境	-19384
和社区	-19385
四个人	-19386
回报率	-19387
国家中	-19388
地中海	-19389
垃圾桶	-19390
基础的	-19391
增加的	-19392
复活节	-19393
大众的	-19394
大约在	-19395
大陆上	-19396
天谢地	-19397
奥克兰	-19398
婴儿的	-19399
季候风	-19400
安东尼	-19401
安全地	-19402
封闭的	-19403
就在这	-19404
就成了	-19405
局限性	-19406
希望和	-19407
带大家	-19408
当时我	-19409
影片中	-19410
很久了	-19411
得多的	-19412
忽视的	-19413
性疾病	-19414
情形下	-19415
想什么	-19416
我不再	-19417
我也会	-19418
我们先	-19419
我做了	-19420
我把它	-19421
我是谁	-19422
我终于	-19423
我说过	-19424
所处的	-19425
扮演了	-19426
技术来	-19427
捕捉到	-19428
排放的	-19429
探险家	-19430
推出了	-19431
提升了	-19432
提醒我	-19433
携带者	-19434
收集到	-19435
改造成	-19436
放到了	-19437
斯科特	-19438
新东西	-19439
无与伦	-19440
时无刻	-19441
明确地	-19442
是很难	-19443
更便宜	-19444
更快乐	-19445
更愿意	-19446
更深入	-19447
有太多	-19448
有孩子	-19449
有生命	-19450
有过的	-19451
期待着	-19452
本拉登	-19453
本科生	-19454
来代替	-19455
来参加	-19456
来展示	-19457
来形容	-19458
棕色的	-19459
模拟器	-19460
殖民地	-19461
段视频	-19462
气体的	-19463
海洛因	-19464
渐冻人	-19465
温哥华	-19466
演化的	-19467
潜力的	-19468
然后就	-19469
爱丁堡	-19470
现存的	-19471
理念是	-19472
理解它	-19473
生长在	-19474
由一个	-19475
电影里	-19476
番茄酱	-19477
的产生	-19478
的公民	-19479
的其他	-19480
的博客	-19481
的成员	-19482
的森林	-19483
的组合	-19484
的结合	-19485
的职业	-19486
的路线	-19487
的限制	-19488
目击者	-19489
相关性	-19490
看成是	-19491
眼前的	-19492
短暂的	-19493
第三种	-19494
笼子里	-19495
算得上	-19496
纳米管	-19497
给我看	-19498
置身于	-19499
美人鱼	-19500
老人的	-19501
能力和	-19502
能帮助	-19503
能真正	-19504
自上而	-19505
英尺长	-19506
莱杰特	-19507
融化的	-19508
表演的	-19509
要成为	-19510
解剖学	-19511
詹妮弗	-19512
让孩子	-19513
让我在	-19514
让我想	-19515
记录的	-19516
讲到的	-19517
赋予了	-19518
趋向于	-19519
迈阿密	-19520
运用在	-19521
这可以	-19522
这是很	-19523
这问题	-19524
进来了	-19525
远不止	-19526
邪恶的	-19527
部门的	-19528
都存在	-19529
都认为	-19530
里程碑	-19531
银行业	-19532
长颈鹿	-19533
问你们	-19534
阶段的	-19535
顶尖的	-19536
领域里	-19537
食物和	-19538
驱动力	-19539
Mary	-19540
aker	-19541
arth	-19542
▁一个有	-19543
▁个人的	-19544
▁于是在	-19545
▁人们的	-19546
▁他发现	-19547
▁会产生	-19548
▁但我却	-19549
▁但至少	-19550
▁你们能	-19551
▁做一些	-19552
▁医生们	-19553
▁去理解	-19554
▁在一次	-19555
[...]
