<pad>	0
<unk>	0
<s>	0
</s>	0
▁t	-0
▁th	-1
▁a	-2
in	-3
▁w	-4
▁the	-5
re	-6
▁o	-7
▁s	-8
at	-9
er	-10
nd	-11
ou	-12
▁c	-13
is	-14
it	-15
▁b	-16
ing	-17
▁m	-18
en	-19
▁h	-20
▁to	-21
on	-22
▁p	-23
▁f	-24
es	-25
an	-26
▁d	-27
▁of	-28
or	-29
ll	-30
▁in	-31
▁I	-32
▁and	-33
ed	-34
▁l	-35
ar	-36
▁that	-37
▁y	-38
om	-39
▁g	-40
as	-41
ic	-42
le	-43
▁you	-44
ve	-45
▁we	-46
al	-47
▁n	-48
▁wh	-49
ow	-50
▁e	-51
▁is	-52
us	-53
▁be	-54
ut	-55
▁A	-56
▁it	-57
ion	-58
ot	-59
et	-60
▁T	-61
▁re	-62
▁ha	-63
ent	-64
ct	-65
▁on	-66
ld	-67
ver	-68
ay	-69
id	-70
▁Th	-71
▁And	-72
se	-73
all	-74
im	-75
▁this	-76
st	-77
ro	-78
ig	-79
▁S	-80
ur	-81
▁st	-82
ly	-83
ere	-84
ch	-85
ke	-86
ce	-87
▁for	-88
if	-89
▁was	-90
ra	-91
▁W	-92
ir	-93
▁an	-94
▁do	-95
▁are	-96
ith	-97
op	-98
oo	-99
ally	-100
th	-101
am	-102
▁have	-103
▁with	-104
▁ab	-105
▁u	-106
▁they	-107
▁se	-108
▁k	-109
▁can	-110
▁mo	-111
ation	-112
▁B	-113
▁-	-114
▁as	-115
▁--	-116
out	-117
ht	-118
▁li	-119
▁so	-120
▁go	-121
▁wor	-122
▁what	-123
ad	-124
▁So	-125
▁com	-126
▁he	-127
ould	-128
very	-129
▁me	-130
ill	-131
▁at	-132
▁sh	-133
▁about	-134
▁ne	-135
ant	-136
▁not	-137
ter	-138
ge	-139
il	-140
ol	-141
ust	-142
ul	-143
▁all	-144
▁j	-145
ers	-146
▁ex	-147
▁fr	-148
▁The	-149
use	-150
▁ch	-151
▁som	-152
ight	-153
▁pro	-154
▁r	-155
▁my	-156
▁or	-157
▁de	-158
▁pe	-159
▁"	-160
▁there	-161
ear	-162
art	-163
ople	-164
um	-165
pp	-166
ck	-167
▁con	-168
ess	-169
▁We	-170
▁like	-171
ate	-172
ies	-173
ure	-174
▁It	-175
▁people	-176
ity	-177
▁one	-178
ive	-179
ca	-180
est	-181
▁ma	-182
▁N	-183
nt	-184
▁from	-185
ect	-186
▁kn	-187
ist	-188
ble	-189
▁but	-190
qu	-191
▁our	-192
ind	-193
▁out	-194
▁us	-195
▁al	-196
ink	-197
▁te	-198
▁just	-199
▁int	-200
▁know	-201
▁v	-202
rou	-203
un	-204
ook	-205
▁C	-206
▁H	-207
▁M	-208
cause	-209
▁thing	-210
▁them	-211
ide	-212
▁sp	-213
and	-214
os	-215
ie	-216
▁But	-217
▁see	-218
▁tr	-219
her	-220
▁these	-221
ort	-222
▁up	-223
▁who	-224
▁if	-225
▁very	-226
▁think	-227
▁get	-228
▁pl	-229
ci	-230
▁by	-231
ich	-232
el	-233
▁going	-234
▁Y	-235
ain	-236
▁some	-237
▁when	-238
one	-239
iv	-240
▁had	-241
▁1	-242
▁act	-243
▁more	-244
▁because	-245
▁your	-246
▁year	-247
em	-248
▁were	-249
▁would	-250
▁im	-251
og	-252
▁sa	-253
▁tim	-254
our	-255
ine	-256
od	-257
▁their	-258
ment	-259
ame	-260
▁want	-261
▁look	-262
▁which	-263
▁how	-264
▁work	-265
▁ta	-266
ast	-267
▁su	-268
▁really	-269
▁comp	-270
ous	-271
iz	-272
ually	-273
▁Wh	-274
ard	-275
."	-276
ood	-277
▁O	-278
ack	-279
act	-280
gh	-281
▁en	-282
reat	-283
hing	-284
ap	-285
▁way	-286
ose	-287
▁E	-288
ore	-289
▁world	-290
▁le	-291
are	-292
▁time	-293
▁has	-294
ans	-295
▁here	-296
ther	-297
ag	-298
ab	-299
▁then	-300
▁per	-301
▁every	-302
▁This	-303
▁qu	-304
▁You	-305
▁P	-306
▁don	-307
▁exp	-308
ong	-309
▁could	-310
▁into	-311
▁man	-312
▁ev	-313
ions	-314
▁co	-315
▁actually	-316
▁will	-317
ace	-318
▁fe	-319
res	-320
▁say	-321
ild	-322
ence	-323
ud	-324
▁where	-325
▁D	-326
▁years	-327
▁G	-328
itt	-329
▁now	-330
▁ag	-331
age	-332
▁L	-333
▁did	-334
alk	-335
▁things	-336
▁other	-337
▁somet	-338
▁Now	-339
ff	-340
ach	-341
00	-342
iff	-343
nder	-344
▁F	-345
▁They	-346
▁been	-347
▁In	-348
ical	-349
▁any	-350
▁make	-351
▁no	-352
▁diff	-353
▁cl	-354
ice	-355
▁happ	-356
▁than	-357
ip	-358
▁need	-359
so	-360
▁tw	-361
▁start	-362
▁un	-363
red	-364
▁pr	-365
▁right	-366
▁2	-367
irst	-368
ome	-369
▁part	-370
▁said	-371
▁over	-372
ree	-373
▁bu	-374
own	-375
▁something	-376
▁imp	-377
ry	-378
▁dis	-379
ign	-380
ia	-381
▁R	-382
▁po	-383
ite	-384
ory	-385
▁back	-386
pt	-387
uch	-388
orm	-389
ount	-390
round	-391
▁those	-392
▁much	-393
ife	-394
ens	-395
olog	-396
▁two	-397
▁got	-398
▁call	-399
▁chan	-400
▁first	-401
▁ar	-402
▁differe	-403
ib	-404
ater	-405
ass	-406
ell	-407
ound	-408
▁also	-409
sel	-410
▁ro	-411
▁kind	-412
▁lo	-413
▁new	-414
ep	-415
ittle	-416
cent	-417
▁lot	-418
▁little	-419
ue	-420
ac	-421
ght	-422
▁cont	-423
ult	-424
▁spe	-425
▁she	-426
▁talk	-427
ple	-428
way	-429
▁bet	-430
▁most	-431
▁That	-432
▁ac	-433
▁ph	-434
king	-435
ves	-436
ber	-437
vel	-438
▁only	-439
ody	-440
▁res	-441
ated	-442
ving	-443
ru	-444
▁under	-445
▁des	-446
▁life	-447
▁his	-448
able	-449
▁even	-450
▁day	-451
▁J	-452
rain	-453
ations	-454
co	-455
▁ad	-456
▁am	-457
▁sy	-458
▁hum	-459
▁take	-460
▁different	-461
▁her	-462
▁many	-463
ick	-464
lo	-465
ms	-466
ial	-467
ict	-468
ish	-469
other	-470
▁real	-471
rough	-472
int	-473
▁good	-474
ase	-475
ire	-476
du	-477
▁comm	-478
▁does	-479
ank	-480
▁around	-481
▁ide	-482
▁down	-483
▁There	-484
▁through	-485
▁What	-486
pe	-487
ents	-488
cess	-489
▁put	-490
ph	-491
urn	-492
▁U	-493
▁use	-494
▁pre	-495
▁show	-496
▁being	-497
▁tell	-498
▁♫	-499
▁off	-500
ark	-501
form	-502
▁He	-503
ors	-504
ade	-505
ible	-506
ress	-507
▁bl	-508
ak	-509
ary	-510
ether	-511
▁too	-512
▁same	-513
▁happen	-514
les	-515
▁thou	-516
▁em	-517
▁proble	-518
▁try	-519
ject	-520
ance	-521
ath	-522
▁inc	-523
ne	-524
xt	-525
chn	-526
▁sm	-527
ys	-528
wn	-529
▁fact	-530
▁count	-531
▁come	-532
▁br	-533
day	-534
he	-535
ang	-536
stem	-537
ful	-538
ars	-539
▁ra	-540
iver	-541
ual	-542
ord	-543
tern	-544
▁doing	-545
▁gen	-546
▁may	-547
ning	-548
▁big	-549
row	-550
▁find	-551
ool	-552
ile	-553
▁techn	-554
ces	-555
▁great	-556
ting	-557
per	-558
ric	-559
▁three	-560
▁human	-561
▁wr	-562
ved	-563
▁bec	-564
▁pers	-565
ower	-566
▁If	-567
▁sur	-568
▁tra	-569
ically	-570
▁percent	-571
ied	-572
ons	-573
▁dec	-574
▁build	-575
fter	-576
illion	-577
nds	-578
▁system	-579
body	-580
ology	-581
thing	-582
▁well	-583
▁app	-584
▁Ch	-585
be	-586
fore	-587
▁called	-588
▁let	-589
igh	-590
te	-591
self	-592
▁stud	-593
▁again	-594
▁gu	-595
▁quest	-596
▁inv	-597
▁exper	-598
▁sim	-599
cial	-600
▁made	-601
we	-602
▁child	-603
ition	-604
ities	-605
ious	-606
▁rem	-607
▁Well	-608
▁ind	-609
mer	-610
ics	-611
▁long	-612
ating	-613
▁own	-614
▁fl	-615
▁lear	-616
▁wom	-617
oss	-618
▁bel	-619
▁import	-620
▁should	-621
ize	-622
ew	-623
▁why	-624
▁sc	-625
▁K	-626
ren	-627
ates	-628
▁underst	-629
lic	-630
ub	-631
▁turn	-632
▁didn	-633
ian	-634
oc	-635
ty	-636
▁change	-637
erest	-638
▁feel	-639
▁after	-640
▁today	-641
ft	-642
▁started	-643
▁thought	-644
▁ask	-645
av	-646
▁hel	-647
▁Thank	-648
▁end	-649
000	-650
ction	-651
▁ob	-652
▁person	-653
▁idea	-654
▁mean	-655
▁important	-656
▁sci	-657
▁cour	-658
▁design	-659
▁last	-660
?"	-661
▁him	-662
con	-663
▁creat	-664
ail	-665
als	-666
▁Be	-667
▁interest	-668
▁bas	-669
▁help	-670
▁its	-671
▁play	-672
▁ins	-673
old	-674
▁inst	-675
▁brain	-676
▁sch	-677
▁exam	-678
ily	-679
ull	-680
▁rel	-681
▁better	-682
ution	-683
▁car	-684
gan	-685
▁understand	-686
▁went	-687
,000	-688
▁trans	-689
▁might	-690
ost	-691
▁3	-692
ough	-693
▁never	-694
▁before	-695
ists	-696
ise	-697
ility	-698
▁give	-699
▁cons	-700
▁problem	-701
▁another	-702
▁coll	-703
ular	-704
▁gra	-705
ave	-706
▁point	-707
▁bit	-708
und	-709
▁ke	-710
▁able	-711
▁St	-712
▁fam	-713
ese	-714
▁commun	-715
▁story	-716
▁belie	-717
▁course	-718
▁pol	-719
ob	-720
▁still	-721
▁few	-722
▁tog	-723
ros	-724
▁power	-725
▁produ	-726
▁together	-727
▁ent	-728
▁bo	-729
ven	-730
ert	-731
kes	-732
▁found	-733
▁inter	-734
ix	-735
▁plan	-736
▁rep	-737
▁next	-738
▁ago	-739
oth	-740
▁sol	-741
▁sl	-742
ng	-743
▁kid	-744
▁ele	-745
▁came	-746
▁mon	-747
ited	-748
erg	-749
alth	-750
▁place	-751
▁imag	-752
▁school	-753
▁dr	-754
▁sort	-755
velop	-756
atch	-757
▁mod	-758
▁num	-759
▁water	-760
▁high	-761
ween	-762
▁cr	-763
▁20	-764
▁19	-765
▁dat	-766
▁learn	-767
ness	-768
ather	-769
uc	-770
▁comple	-771
▁str	-772
ense	-773
▁used	-774
▁When	-775
ized	-776
▁between	-777
▁each	-778
▁ter	-779
ience	-780
read	-781
iss	-782
▁la	-783
▁question	-784
meric	-785
ward	-786
▁technology	-787
ork	-788
▁art	-789
arch	-790
,"	-791
ures	-792
▁rec	-793
▁ext	-794
▁10	-795
▁pat	-796
▁ser	-797
▁develop	-798
▁med	-799
▁met	-800
az	-801
▁att	-802
▁small	-803
▁data	-804
▁Af	-805
ets	-806
▁cre	-807
ways	-808
▁women	-809
▁fin	-810
▁old	-811
▁love	-812
▁looking	-813
ram	-814
▁example	-815
▁op	-816
▁Americ	-817
▁doesn	-818
ered	-819
▁care	-820
▁four	-821
cond	-822
ific	-823
▁grow	-824
▁partic	-825
ute	-826
▁eff	-827
ced	-828
▁wanted	-829
▁mom	-830
▁done	-831
▁Because	-832
cept	-833
iness	-834
▁light	-835
▁word	-836
ative	-837
▁ever	-838
ings	-839
ah	-840
▁How	-841
▁V	-842
▁min	-843
▁read	-844
▁comput	-845
pl	-846
▁cent	-847
formation	-848
▁move	-849
ably	-850
▁hard	-851
cy	-852
▁chang	-853
▁whole	-854
▁reas	-855
▁cell	-856
▁live	-857
▁stu	-858
▁far	-859
▁poss	-860
▁trying	-861
conom	-862
▁beh	-863
▁lar	-864
ross	-865
ands	-866
▁million	-867
oney	-868
▁always	-869
selves	-870
▁nat	-871
ger	-872
▁away	-873
ope	-874
▁bi	-875
ote	-876
▁ear	-877
▁less	-878
here	-879
ism	-880
ational	-881
▁cap	-882
▁children	-883
▁giv	-884
▁believe	-885
▁working	-886
▁ed	-887
▁Un	-888
▁5	-889
ments	-890
▁el	-891
▁econom	-892
▁supp	-893
▁country	-894
ural	-895
▁gener	-896
ird	-897
▁resp	-898
cer	-899
▁bus	-900
▁sk	-901
▁Afric	-902
gin	-903
▁health	-904
ries	-905
▁book	-906
▁frie	-907
▁expl	-908
hip	-909
vers	-910
▁means	-911
▁sub	-912
ont	-913
▁As	-914
ruct	-915
▁information	-916
nect	-917
▁using	-918
▁pict	-919
▁project	-920
▁thinking	-921
▁cor	-922
▁fo	-923
led	-924
▁run	-925
▁anim	-926
▁took	-927
atter	-928
▁open	-929
▁home	-930
vern	-931
ident	-932
▁money	-933
▁space	-934
▁vis	-935
ital	-936
▁create	-937
▁hand	-938
▁inf	-939
▁five	-940
▁maybe	-941
▁organ	-942
▁everything	-943
▁4	-944
▁mus	-945
ks	-946
nce	-947
its	-948
▁process	-949
▁become	-950
▁cou	-951
ract	-952
ps	-953
▁lead	-954
▁compan	-955
aces	-956
▁pub	-957
air	-958
▁kids	-959
▁fut	-960
▁doll	-961
▁prob	-962
ues	-963
gg	-964
▁prog	-965
rib	-966
▁spec	-967
▁number	-968
▁second	-969
ond	-970
ten	-971
▁One	-972
▁walk	-973
▁sing	-974
▁reg	-975
▁mind	-976
alf	-977
ivers	-978
▁acc	-979
▁teach	-980
▁head	-981
aut	-982
iron	-983
ergy	-984
ouse	-985
▁getting	-986
ever	-987
iew	-988
▁eng	-989
▁left	-990
▁My	-991
▁best	-992
▁future	-993
▁govern	-994
▁form	-995
ories	-996
ines	-997
▁interesting	-998
▁enough	-999
▁ca	-1000
ention	-1001
sw	-1002
▁war	-1003
iting	-1004
▁times	-1005
▁cle	-1006
▁conf	-1007
▁month	-1008
lob	-1009
▁pres	-1010
▁Ind	-1011
▁quite	-1012
▁comes	-1013
▁grou	-1014
▁happened	-1015
▁food	-1016
▁making	-1017
▁set	-1018
▁sense	-1019
▁social	-1020
▁talking	-1021
▁These	-1022
▁energy	-1023
▁fun	-1024
▁She	-1025
▁answ	-1026
ety	-1027
▁contro	-1028
▁building	-1029
ier	-1030
ertain	-1031
▁pass	-1032
▁dem	-1033
▁sign	-1034
▁told	-1035
pr	-1036
▁mark	-1037
imes	-1038
▁job	-1039
ately	-1040
▁probably	-1041
▁room	-1042
▁connect	-1043
ts	-1044
tty	-1045
▁phys	-1046
▁begin	-1047
▁cur	-1048
▁add	-1049
▁wee	-1050
▁moment	-1051
▁body	-1052
▁young	-1053
▁countries	-1054
▁stuff	-1055
▁without	-1056
ices	-1057
ient	-1058
reen	-1059
▁pop	-1060
irl	-1061
▁For	-1062
ember	-1063
▁men	-1064
▁reason	-1065
ner	-1066
▁env	-1067
▁model	-1068
▁keep	-1069
▁elect	-1070
ying	-1071
▁lives	-1072
ake	-1073
▁dist	-1074
▁Here	-1075
▁hist	-1076
▁opp	-1077
▁side	-1078
▁allow	-1079
▁pie	-1080
▁beaut	-1081
▁anything	-1082
▁coming	-1083
▁pretty	-1084
▁science	-1085
▁gr	-1086
▁dollars	-1087
▁else	-1088
▁such	-1089
▁family	-1090
▁soci	-1091
▁top	-1092
▁half	-1093
▁def	-1094
ogra	-1095
ortun	-1096
▁Is	-1097
lobal	-1098
▁prot	-1099
▁stop	-1100
me	-1101
▁saw	-1102
uring	-1103
▁No	-1104
most	-1105
▁New	-1106
▁business	-1107
▁An	-1108
ead	-1109
▁matter	-1110
ality	-1111
▁environ	-1112
▁Let	-1113
der	-1114
▁across	-1115
▁bad	-1116
▁eas	-1117
olution	-1118
▁wo	-1119
▁rese	-1120
ince	-1121
gs	-1122
idd	-1123
▁ty	-1124
▁later	-1125
▁makes	-1126
▁stand	-1127
kay	-1128
▁bring	-1129
▁seen	-1130
▁says	-1131
▁asked	-1132
▁hope	-1133
▁sound	-1134
ream	-1135
▁experience	-1136
ught	-1137
ior	-1138
lf	-1139
io	-1140
ided	-1141
▁cam	-1142
▁living	-1143
▁200	-1144
▁All	-1145
▁scient	-1146
▁hour	-1147
▁simple	-1148
▁educ	-1149
▁share	-1150
▁particular	-1151
▁fig	-1152
ime	-1153
▁ey	-1154
▁ways	-1155
▁mem	-1156
▁phot	-1157
▁having	-1158
ots	-1159
ective	-1160
▁Africa	-1161
▁case	-1162
▁goes	-1163
▁aut	-1164
▁Chin	-1165
▁det	-1166
▁cult	-1167
▁happens	-1168
▁sit	-1169
ken	-1170
arth	-1171
▁complete	-1172
▁fore	-1173
▁research	-1174
▁city	-1175
▁days	-1176
▁col	-1177
▁val	-1178
where	-1179
man	-1180
▁ref	-1181
ization	-1182
llow	-1183
▁equ	-1184
▁char	-1185
▁list	-1186
▁global	-1187
arr	-1188
allen	-1189
▁air	-1190
▁picture	-1191
▁planet	-1192
ott	-1193
▁thous	-1194
▁single	-1195
▁wonder	-1196
iter	-1197
▁almost	-1198
ready	-1199
▁computer	-1200
▁problems	-1201
less	-1202
ilt	-1203
orn	-1204
▁polit	-1205
▁watch	-1206
ash	-1207
▁level	-1208
▁inside	-1209
aps	-1210
arent	-1211
▁prof	-1212
▁six	-1213
▁loc	-1214
▁both	-1215
▁environment	-1216
▁bre	-1217
▁amaz	-1218
▁rest	-1219
ants	-1220
▁while	-1221
▁community	-1222
angu	-1223
▁rob	-1224
▁test	-1225
▁mach	-1226
ograph	-1227
▁billion	-1228
▁public	-1229
▁suc	-1230
ike	-1231
med	-1232
▁dise	-1233
▁Se	-1234
▁sure	-1235
▁already	-1236
▁certain	-1237
▁girl	-1238
▁Earth	-1239
uge	-1240
▁saying	-1241
▁nothing	-1242
▁remember	-1243
▁answer	-1244
▁looked	-1245
▁yet	-1246
osed	-1247
▁someone	-1248
▁possible	-1249
▁mor	-1250
▁hear	-1251
ins	-1252
ulation	-1253
ivid	-1254
unch	-1255
no	-1256
▁challen	-1257
ases	-1258
▁par	-1259
▁langu	-1260
▁control	-1261
▁gl	-1262
▁vide	-1263
ED	-1264
▁whether	-1265
▁once	-1266
▁pain	-1267
ange	-1268
oice	-1269
▁exc	-1270
▁age	-1271
ury	-1272
▁unt	-1273
▁within	-1274
itive	-1275
▁ass	-1276
▁music	-1277
▁ideas	-1278
▁contin	-1279
▁disco	-1280
▁myself	-1281
▁amazing	-1282
▁often	-1283
imate	-1284
▁basically	-1285
▁self	-1286
▁wrong	-1287
▁exact	-1288
▁history	-1289
side	-1290
▁iss	-1291
▁Al	-1292
▁guy	-1293
▁lab	-1294
work	-1295
▁mil	-1296
undred	-1297
▁wa	-1298
▁Why	-1299
▁dire	-1300
▁beautif	-1301
ield	-1302
▁true	-1303
▁looks	-1304
▁[	-1305
▁months	-1306
▁incred	-1307
▁cost	-1308
▁product	-1309
▁treat	-1310
▁imagine	-1311
▁kill	-1312
ters	-1313
▁dev	-1314
▁night	-1315
▁United	-1316
▁heard	-1317
▁entire	-1318
ages	-1319
▁heart	-1320
Wh	-1321
cle	-1322
ene	-1323
ware	-1324
▁mag	-1325
▁Intern	-1326
aterial	-1327
▁wasn	-1328
▁sw	-1329
lish	-1330
▁friends	-1331
▁hundred	-1332
▁individ	-1333
▁large	-1334
de	-1335
ling	-1336
▁adv	-1337
▁che	-1338
▁government	-1339
▁figure	-1340
▁15	-1341
ians	-1342
▁class	-1343
▁words	-1344
iverse	-1345
bers	-1346
uck	-1347
up	-1348
▁Or	-1349
utes	-1350
ivity	-1351
▁face	-1352
▁works	-1353
▁group	-1354
ired	-1355
ering	-1356
▁news	-1357
▁state	-1358
ives	-1359
▁order	-1360
▁cond	-1361
▁aff	-1362
▁30	-1363
▁full	-1364
▁fil	-1365
▁6	-1366
▁100	-1367
iddle	-1368
▁cells	-1369
▁beautiful	-1370
uro	-1371
ected	-1372
vious	-1373
▁TED	-1374
▁incre	-1375
eah	-1376
▁couple	-1377
▁individual	-1378
land	-1379
▁sec	-1380
▁until	-1381
▁result	-1382
▁net	-1383
▁must	-1384
▁built	-1385
▁ris	-1386
▁ret	-1387
get	-1388
▁50	-1389
▁appro	-1390
▁pay	-1391
▁material	-1392
outh	-1393
▁tre	-1394
▁fund	-1395
▁'	-1396
▁front	-1397
▁piece	-1398
▁vir	-1399
▁knew	-1400
▁law	-1401
ex	-1402
▁cra	-1403
▁follow	-1404
ock	-1405
aper	-1406
line	-1407
ustr	-1408
▁const	-1409
bs	-1410
▁name	-1411
▁past	-1412
▁view	-1413
▁States	-1414
▁object	-1415
▁Fr	-1416
▁z	-1417
▁isn	-1418
▁everybody	-1419
▁deep	-1420
▁places	-1421
▁quick	-1422
▁species	-1423
▁completely	-1424
▁decided	-1425
▁became	-1426
▁language	-1427
ush	-1428
▁di	-1429
omes	-1430
▁line	-1431
▁market	-1432
atic	-1433
▁land	-1434
▁tool	-1435
▁though	-1436
ien	-1437
▁learned	-1438
▁Internet	-1439
cing	-1440
ined	-1441
▁somebody	-1442
▁abs	-1443
▁cancer	-1444
▁terr	-1445
▁9	-1446
▁success	-1447
▁education	-1448
ental	-1449
▁stories	-1450
to	-1451
▁Every	-1452
▁experim	-1453
▁At	-1454
▁video	-1455
▁woman	-1456
▁taking	-1457
..	-1458
omet	-1459
▁study	-1460
ision	-1461
ron	-1462
ats	-1463
▁train	-1464
▁America	-1465
▁free	-1466
▁engine	-1467
▁happening	-1468
▁house	-1469
▁Do	-1470
gest	-1471
▁dra	-1472
▁sca	-1473
▁since	-1474
▁students	-1475
▁jo	-1476
▁invest	-1477
▁itself	-1478
ator	-1479
▁gets	-1480
▁exactly	-1481
br	-1482
▁struct	-1483
▁against	-1484
nov	-1485
aster	-1486
▁huge	-1487
▁deal	-1488
▁nature	-1489
▁society	-1490
▁spend	-1491
ane	-1492
rop	-1493
▁animals	-1494
▁ourselves	-1495
dd	-1496
▁dru	-1497
▁stre	-1498
▁pos	-1499
acter	-1500
▁av	-1501
▁questions	-1502
▁sometimes	-1503
▁themselves	-1504
end	-1505
▁mess	-1506
▁meet	-1507
ional	-1508
▁opportun	-1509
itting	-1510
ients	-1511
▁meas	-1512
▁kinds	-1513
▁7	-1514
▁ones	-1515
icult	-1516
▁close	-1517
ogn	-1518
▁universe	-1519
etic	-1520
▁mic	-1521
▁team	-1522
▁company	-1523
▁along	-1524
▁Some	-1525
ctor	-1526
▁8	-1527
▁turns	-1528
ability	-1529
▁dep	-1530
haps	-1531
ocus	-1532
ones	-1533
▁behav	-1534
▁created	-1535
lud	-1536
▁sex	-1537
thers	-1538
▁hours	-1539
▁mother	-1540
...	-1541
▁complex	-1542
ames	-1543
▁prov	-1544
▁worked	-1545
▁couldn	-1546
▁relations	-1547
sy	-1548
att	-1549
▁parent	-1550
▁minutes	-1551
▁mass	-1552
aw	-1553
▁hold	-1554
cc	-1555
iversity	-1556
▁India	-1557
urs	-1558
▁clear	-1559
▁pred	-1560
face	-1561
▁game	-1562
▁God	-1563
▁focus	-1564
▁disease	-1565
▁difficult	-1566
eg	-1567
▁Br	-1568
ium	-1569
▁exist	-1570
▁everyone	-1571
▁oce	-1572
▁wind	-1573
ming	-1574
▁Can	-1575
▁Then	-1576
▁OK	-1577
▁ill	-1578
▁rather	-1579
istic	-1580
▁least	-1581
ature	-1582
▁guys	-1583
▁program	-1584
ples	-1585
▁emp	-1586
▁black	-1587
illions	-1588
▁thousands	-1589
▁liter	-1590
▁third	-1591
▁bott	-1592
▁innov	-1593
▁instead	-1594
▁others	-1595
ted	-1596
ination	-1597
▁won	-1598
▁arch	-1599
▁fly	-1600
▁mot	-1601
▁gave	-1602
▁jour	-1603
ee	-1604
▁lots	-1605
▁miss	-1606
iqu	-1607
ibly	-1608
▁York	-1609
▁norm	-1610
iol	-1611
ented	-1612
▁Ar	-1613
▁early	-1614
▁happy	-1615
ither	-1616
▁speak	-1617
▁listen	-1618
ially	-1619
▁sens	-1620
▁rad	-1621
▁—	-1622
ale	-1623
▁var	-1624
▁field	-1625
cul	-1626
wards	-1627
▁aud	-1628
▁step	-1629
▁outside	-1630
▁math	-1631
▁taken	-1632
▁natural	-1633
orth	-1634
▁death	-1635
▁extra	-1636
▁amount	-1637
▁changed	-1638
▁simp	-1639
▁systems	-1640
▁difference	-1641
▁bab	-1642
▁pot	-1643
▁bro	-1644
▁leg	-1645
ential	-1646
▁fail	-1647
erv	-1648
aking	-1649
olved	-1650
▁cir	-1651
▁dig	-1652
▁recent	-1653
▁effect	-1654
not	-1655
ider	-1656
app	-1657
▁network	-1658
▁record	-1659
▁Euro	-1660
▁China	-1661
ared	-1662
utions	-1663
▁Pe	-1664
ological	-1665
▁interact	-1666
▁shap	-1667
▁relationship	-1668
▁da	-1669
▁American	-1670
▁middle	-1671
▁hy	-1672
▁colle	-1673
▁leave	-1674
uss	-1675
▁saf	-1676
▁support	-1677
▁learning	-1678
▁...	-1679
▁Okay	-1680
▁machine	-1681
▁ve	-1682
▁typ	-1683
▁Sh	-1684
▁lim	-1685
The	-1686
ased	-1687
vered	-1688
▁dream	-1689
▁ident	-1690
els	-1691
▁es	-1692
ully	-1693
▁oper	-1694
fect	-1695
ides	-1696
▁cut	-1697
▁cities	-1698
▁ant	-1699
▁turned	-1700
▁behind	-1701
era	-1702
▁seven	-1703
▁rev	-1704
elt	-1705
inary	-1706
▁red	-1707
▁hands	-1708
▁eyes	-1709
▁beginning	-1710
▁given	-1711
cious	-1712
olute	-1713
▁area	-1714
ret	-1715
iving	-1716
▁century	-1717
▁explain	-1718
▁yourself	-1719
▁pick	-1720
▁communic	-1721
▁short	-1722
▁takes	-1723
▁Europe	-1724
▁seeing	-1725
▁local	-1726
verage	-1727
rew	-1728
▁common	-1729
▁finally	-1730
▁sent	-1731
▁easy	-1732
▁Chr	-1733
▁reach	-1734
ges	-1735
▁del	-1736
▁low	-1737
▁perhaps	-1738
aring	-1739
▁green	-1740
▁On	-1741
▁needed	-1742
lock	-1743
gen	-1744
▁break	-1745
▁opt	-1746
▁access	-1747
▁Man	-1748
▁fre	-1749
▁sym	-1750
▁behavior	-1751
sych	-1752
▁terms	-1753
▁culture	-1754
▁population	-1755
year	-1756
▁began	-1757
▁fish	-1758
▁intell	-1759
▁moving	-1760
▁reality	-1761
inal	-1762
▁Eng	-1763
▁companies	-1764
ipp	-1765
itions	-1766
ison	-1767
▁father	-1768
▁during	-1769
▁pattern	-1770
▁realized	-1771
ney	-1772
▁To	-1773
astic	-1774
▁viol	-1775
▁super	-1776
▁Not	-1777
ove	-1778
reme	-1779
▁oil	-1780
▁tot	-1781
▁needs	-1782
▁simply	-1783
▁disc	-1784
▁stay	-1785
idence	-1786
▁impro	-1787
jor	-1788
▁12	-1789
itch	-1790
▁non	-1791
▁longer	-1792
ery	-1793
▁serv	-1794
▁image	-1795
▁powerful	-1796
▁emot	-1797
▁obvious	-1798
ern	-1799
ump	-1800
▁week	-1801
▁18	-1802
▁cannot	-1803
▁surv	-1804
▁trad	-1805
▁parts	-1806
▁tem	-1807
▁chem	-1808
▁friend	-1809
NA	-1810
▁occ	-1811
▁felt	-1812
▁famil	-1813
▁phone	-1814
▁paper	-1815
▁includ	-1816
▁wonderful	-1817
▁eight	-1818
▁absolute	-1819
itect	-1820
▁tried	-1821
▁repres	-1822
▁parents	-1823
ode	-1824
ised	-1825
▁psych	-1826
▁event	-1827
▁Just	-1828
▁perfect	-1829
▁size	-1830
▁perform	-1831
▁sun	-1832
▁major	-1833
gle	-1834
▁ge	-1835
hood	-1836
fully	-1837
▁insp	-1838
lease	-1839
ero	-1840
▁ess	-1841
▁special	-1842
ton	-1843
▁wall	-1844
▁grand	-1845
▁press	-1846
▁expect	-1847
▁arg	-1848
rought	-1849
ource	-1850
port	-1851
rodu	-1852
▁approach	-1853
ey	-1854
▁poor	-1855
▁media	-1856
▁whatever	-1857
▁pract	-1858
bo	-1859
▁♪	-1860
osp	-1861
▁priv	-1862
▁quickly	-1863
▁40	-1864
▁fall	-1865
▁blood	-1866
▁surpr	-1867
▁squ	-1868
ibility	-1869
▁feed	-1870
▁situ	-1871
Well	-1872
▁dark	-1873
▁spent	-1874
ony	-1875
▁emb	-1876
ources	-1877
▁People	-1878
▁buy	-1879
ged	-1880
ledge	-1881
▁economic	-1882
▁opportunity	-1883
crib	-1884
▁present	-1885
ising	-1886
▁robot	-1887
avor	-1888
ived	-1889
▁strong	-1890
▁interested	-1891
▁requ	-1892
▁enc	-1893
▁gone	-1894
▁weeks	-1895
ards	-1896
▁protect	-1897
▁humans	-1898
▁personal	-1899
ax	-1900
▁conv	-1901
▁yes	-1902
▁ground	-1903
▁scale	-1904
zy	-1905
ilar	-1906
▁ocean	-1907
▁direct	-1908
▁recogn	-1909
▁measure	-1910
▁architect	-1911
unt	-1912
▁ability	-1913
▁changes	-1914
▁political	-1915
▁key	-1916
oph	-1917
▁civ	-1918
▁near	-1919
▁fight	-1920
ift	-1921
▁risk	-1922
▁CA	-1923
▁Tw	-1924
▁growth	-1925
▁travel	-1926
▁sitting	-1927
▁known	-1928
▁eat	-1929
ators	-1930
▁fear	-1931
▁vers	-1932
izing	-1933
room	-1934
orld	-1935
bor	-1936
▁consum	-1937
▁blue	-1938
ouch	-1939
▁leaders	-1940
▁either	-1941
▁May	-1942
▁mult	-1943
▁Right	-1944
ains	-1945
▁sum	-1946
▁impact	-1947
▁predict	-1948
▁challenge	-1949
rent	-1950
▁extreme	-1951
▁dest	-1952
cially	-1953
oy	-1954
▁Our	-1955
▁lost	-1956
▁intern	-1957
▁shows	-1958
▁economy	-1959
▁morning	-1960
lt	-1961
oh	-1962
▁physical	-1963
▁technolog	-1964
ler	-1965
▁mov	-1966
▁obs	-1967
▁write	-1968
▁surface	-1969
▁cy	-1970
▁send	-1971
▁respons	-1972
urb	-1973
uth	-1974
▁ap	-1975
ills	-1976
▁climate	-1977
iny	-1978
▁DNA	-1979
anger	-1980
You	-1981
▁wouldn	-1982
▁cool	-1983
▁value	-1984
▁evolution	-1985
▁incredible	-1986
▁feet	-1987
▁democ	-1988
▁feeling	-1989
▁caus	-1990
▁white	-1991
▁structure	-1992
▁photograph	-1993
▁based	-1994
▁average	-1995
lect	-1996
ral	-1997
What	-1998
▁har	-1999
▁born	-2000
▁animal	-2001
▁cal	-2002
▁orig	-2003
▁areas	-2004
▁neigh	-2005
sh	-2006
▁win	-2007
▁brought	-2008
entially	-2009
▁fast	-2010
ateg	-2011
▁post	-2012
▁patients	-2013
ales	-2014
ument	-2015
▁comb	-2016
▁draw	-2017
▁nice	-2018
▁micro	-2019
amp	-2020
▁growing	-2021
ows	-2022
▁redu	-2023
▁hundreds	-2024
▁25	-2025
dden	-2026
▁mar	-2027
▁pull	-2028
▁anal	-2029
▁indust	-2030
▁numbers	-2031
oll	-2032
▁sudden	-2033
▁box	-2034
▁film	-2035
▁bottom	-2036
ule	-2037
▁soft	-2038
ustain	-2039
▁realize	-2040
ole	-2041
▁foot	-2042
▁scientists	-2043
erm	-2044
▁profess	-2045
chie	-2046
com	-2047
▁die	-2048
▁hor	-2049
▁bene	-2050
▁alone	-2051
▁attention	-2052
▁medic	-2053
▁wrote	-2054
▁literally	-2055
▁experiment	-2056
of	-2057
▁understanding	-2058
vent	-2059
▁slow	-2060
ression	-2061
cl	-2062
▁vol	-2063
▁images	-2064
eed	-2065
hor	-2066
▁pur	-2067
▁knowledge	-2068
ified	-2069
▁prin	-2070
▁ste	-2071
▁serious	-2072
ug	-2073
▁mole	-2074
▁deg	-2075
▁seems	-2076
▁starting	-2077
loy	-2078
▁color	-2079
ensive	-2080
▁technologies	-2081
ned	-2082
ored	-2083
▁sle	-2084
▁circ	-2085
▁Z	-2086
ging	-2087
▁favor	-2088
▁meaning	-2089
acy	-2090
▁main	-2091
ext	-2092
▁hosp	-2093
▁fundam	-2094
▁books	-2095
▁forward	-2096
▁running	-2097
▁text	-2098
▁prom	-2099
▁instit	-2100
cr	-2101
lu	-2102
▁ast	-2103
▁ball	-2104
▁South	-2105
▁miles	-2106
▁giving	-2107
▁movement	-2108
▁fac	-2109
▁stra	-2110
▁civil	-2111
▁tools	-2112
▁telling	-2113
▁millions	-2114
ny	-2115
▁World	-2116
ev	-2117
▁flo	-2118
▁sea	-2119
aged	-2120
▁spread	-2121
▁convers	-2122
eng	-2123
▁map	-2124
▁Yeah	-2125
▁dead	-2126
▁polic	-2127
▁development	-2128
▁developed	-2129
oose	-2130
▁rock	-2131
▁guess	-2132
iod	-2133
ption	-2134
▁similar	-2135
bon	-2136
▁crit	-2137
▁soon	-2138
▁online	-2139
▁describ	-2140
por	-2141
head	-2142
▁sho	-2143
▁road	-2144
▁collect	-2145
▁experien	-2146
ped	-2147
▁compet	-2148
oon	-2149
▁anyone	-2150
▁absolutely	-2151
▁path	-2152
▁audience	-2153
par	-2154
chan	-2155
▁vill	-2156
▁suff	-2157
▁force	-2158
▁issue	-2159
▁touch	-2160
▁achie	-2161
▁thank	-2162
▁center	-2163
▁talked	-2164
▁theory	-2165
ades	-2166
▁hot	-2167
▁depe	-2168
▁worth	-2169
▁intellig	-2170
▁fu	-2171
▁ice	-2172
ggest	-2173
▁sell	-2174
▁proper	-2175
by	-2176
bit	-2177
amed	-2178
iant	-2179
▁gives	-2180
▁trust	-2181
ilities	-2182
▁chance	-2183
▁forest	-2184
▁concept	-2185
▁hon	-2186
▁relig	-2187
▁stage	-2188
pecially	-2189
▁suggest	-2190
▁electric	-2191
omen	-2192
▁avail	-2193
▁tradition	-2194
▁sil	-2195
▁period	-2196
▁bra	-2197
racy	-2198
▁tele	-2199
▁fire	-2200
▁girls	-2201
▁arr	-2202
▁rul	-2203
▁issues	-2204
oud	-2205
▁sn	-2206
▁With	-2207
▁attack	-2208
▁visual	-2209
▁current	-2210
▁playing	-2211
▁sustain	-2212
ai	-2213
▁normal	-2214
▁subject	-2215
ique	-2216
▁showed	-2217
▁solution	-2218
▁vac	-2219
ances	-2220
▁English	-2221
Th	-2222
▁lif	-2223
▁solve	-2224
ished	-2225
▁cars	-2226
▁rate	-2227
▁truth	-2228
▁among	-2229
▁track	-2230
▁creating	-2231
▁industry	-2232
▁fem	-2233
▁camp	-2234
▁stat	-2235
▁type	-2236
▁recently	-2237
▁aren	-2238
▁react	-2239
ency	-2240
▁est	-2241
▁By	-2242
▁seem	-2243
▁benef	-2244
▁situation	-2245
asing	-2246
oices	-2247
ences	-2248
▁plant	-2249
▁modern	-2250
▁discovered	-2251
pect	-2252
iet	-2253
▁voice	-2254
asc	-2255
▁Goo	-2256
▁lay	-2257
▁developing	-2258
▁Am	-2259
ites	-2260
urity	-2261
▁capital	-2262
imens	-2263
▁prop	-2264
▁sever	-2265
▁asking	-2266
▁especially	-2267
▁innovation	-2268
▁reasons	-2269
▁resources	-2270
yond	-2271
▁knows	-2272
▁choice	-2273
phere	-2274
▁produce	-2275
▁available	-2276
▁conscious	-2277
ival	-2278
like	-2279
▁designed	-2280
itiz	-2281
▁ult	-2282
▁sold	-2283
▁tiny	-2284
▁er	-2285
▁arm	-2286
▁emerg	-2287
▁smart	-2288
apt	-2289
▁cop	-2290
▁save	-2291
▁evidence	-2292
iction	-2293
ify	-2294
▁becomes	-2295
▁computers	-2296
▁drive	-2297
▁eye	-2298
▁fur	-2299
▁imm	-2300
▁aw	-2301
▁haven	-2302
▁shape	-2303
▁mechan	-2304
▁patient	-2305
▁pictures	-2306
ung	-2307
▁clos	-2308
▁several	-2309
▁song	-2310
▁report	-2311
▁search	-2312
▁journey	-2313
▁changing	-2314
▁involved	-2315
▁Ph	-2316
arily	-2317
▁bigger	-2318
▁mathem	-2319
▁medical	-2320
▁transform	-2321
▁dom	-2322
abor	-2323
▁baby	-2324
assion	-2325
▁sleep	-2326
▁digital	-2327
lear	-2328
▁groups	-2329
▁generation	-2330
ister	-2331
ishing	-2332
▁table	-2333
▁likely	-2334
ik	-2335
▁danger	-2336
▁street	-2337
▁incredibly	-2338
▁Sp	-2339
▁199	-2340
▁Inst	-2341
▁Google	-2342
▁beyond	-2343
▁putting	-2344
ude	-2345
▁dou	-2346
▁poll	-2347
▁bar	-2348
▁Yes	-2349
▁safe	-2350
pid	-2351
pre	-2352
▁towards	-2353
▁din	-2354
▁sat	-2355
▁unf	-2356
▁First	-2357
▁lived	-2358
ma	-2359
fort	-2360
▁citiz	-2361
▁necess	-2362
▁Chinese	-2363
ns	-2364
▁flow	-2365
▁except	-2366
oms	-2367
▁De	-2368
istan	-2369
erence	-2370
wh	-2371
book	-2372
come	-2373
light	-2374
▁message	-2375
▁effective	-2376
▁basic	-2377
▁communities	-2378
▁60	-2379
rest	-2380
▁flu	-2381
oring	-2382
▁rain	-2383
▁solar	-2384
▁writing	-2385
▁extraord	-2386
▁fa	-2387
▁rece	-2388
▁bed	-2389
▁lea	-2390
▁died	-2391
▁mount	-2392
▁carbon	-2393
▁function	-2394
▁potential	-2395
▁ep	-2396
▁speed	-2397
lict	-2398
ously	-2399
▁breat	-2400
▁defin	-2401
▁mob	-2402
▁nine	-2403
▁201	-2404
▁stru	-2405
▁North	-2406
▁neighbor	-2407
ips	-2408
▁drug	-2409
▁drugs	-2410
▁fair	-2411
ires	-2412
▁Com	-2413
▁block	-2414
▁sounds	-2415
▁violence	-2416
▁clean	-2417
Oh	-2418
▁ce	-2419
▁device	-2420
▁Oh	-2421
▁bird	-2422
▁tend	-2423
▁games	-2424
▁schools	-2425
▁starts	-2426
ief	-2427
vert	-2428
ration	-2429
▁anybody	-2430
medi	-2431
▁software	-2432
50	-2433
uly	-2434
pped	-2435
▁national	-2436
▁character	-2437
▁Maybe	-2438
nam	-2439
▁After	-2440
▁activ	-2441
▁camera	-2442
▁screen	-2443
▁examples	-2444
▁log	-2445
igher	-2446
▁rules	-2447
▁Im	-2448
▁af	-2449
▁certainly	-2450
▁revolution	-2451
▁wish	-2452
▁rights	-2453
▁particularly	-2454
usion	-2455
▁office	-2456
▁biggest	-2457
ran	-2458
irth	-2459
ctors	-2460
▁bacter	-2461
▁princi	-2462
▁showing	-2463
▁walking	-2464
rast	-2465
▁neur	-2466
▁rich	-2467
▁action	-2468
▁account	-2469
idge	-2470
ressed	-2471
▁higher	-2472
▁return	-2473
▁general	-2474
▁particip	-2475
ask	-2476
▁code	-2477
ners	-2478
onse	-2479
▁boy	-2480
▁hit	-2481
▁nuc	-2482
▁okay	-2483
▁onto	-2484
umb	-2485
▁son	-2486
▁quality	-2487
▁neg	-2488
▁virt	-2489
▁moved	-2490
▁peace	-2491
oun	-2492
▁crazy	-2493
▁largest	-2494
▁Re	-2495
▁virus	-2496
▁door	-2497
▁ready	-2498
iar	-2499
view	-2500
▁cross	-2501
▁totally	-2502
ughter	-2503
▁compassion	-2504
▁scientific	-2505
une	-2506
▁adm	-2507
▁cause	-2508
tend	-2509
more	-2510
isions	-2511
▁movie	-2512
▁memory	-2513
▁creative	-2514
uit	-2515
antly	-2516
▁prim	-2517
▁exciting	-2518
how	-2519
oke	-2520
▁skin	-2521
▁materials	-2522
▁obviously	-2523
▁Of	-2524
ground	-2525
▁represent	-2526
▁ec	-2527
itary	-2528
▁effic	-2529
▁vision	-2530
▁further	-2531
▁div	-2532
▁fix	-2533
▁syn	-2534
ought	-2535
▁cris	-2536
▁Where	-2537
▁choose	-2538
▁threat	-2539
▁Pr	-2540
▁aware	-2541
▁meant	-2542
▁plants	-2543
▁response	-2544
▁pa	-2545
▁apart	-2546
▁wants	-2547
▁chemical	-2548
cient	-2549
▁diag	-2550
▁marr	-2551
▁Pro	-2552
▁dro	-2553
▁detail	-2554
▁results	-2555
▁favorite	-2556
▁fundamental	-2557
▁individuals	-2558
for	-2559
▁80	-2560
▁rele	-2561
licated	-2562
▁nobody	-2563
▁teachers	-2564
▁extremely	-2565
put	-2566
ores	-2567
▁prison	-2568
▁progress	-2569
▁push	-2570
▁birth	-2571
▁watching	-2572
eter	-2573
▁role	-2574
▁Bra	-2575
▁projects	-2576
▁grew	-2577
xy	-2578
nal	-2579
osphere	-2580
▁supposed	-2581
▁11	-2582
▁Who	-2583
verty	-2584
▁colleag	-2585
▁everywhere	-2586
▁led	-2587
iding	-2588
▁capt	-2589
▁context	-2590
▁passion	-2591
▁eventually	-2592
aur	-2593
▁Ge	-2594
▁link	-2595
▁named	-2596
▁introdu	-2597
▁student	-2598
▁happiness	-2599
ze	-2600
▁tar	-2601
▁meth	-2602
▁print	-2603
akes	-2604
▁carry	-2605
▁waste	-2606
▁African	-2607
▁gas	-2608
itten	-2609
pective	-2610
▁models	-2611
▁allowed	-2612
▁hospital	-2613
▁security	-2614
imp	-2615
ina	-2616
▁farm	-2617
▁adult	-2618
▁Most	-2619
iation	-2620
▁stick	-2621
▁worse	-2622
▁extraordinary	-2623
▁Cal	-2624
▁separ	-2625
▁objects	-2626
icle	-2627
▁Any	-2628
oming	-2629
▁Even	-2630
▁goal	-2631
ruction	-2632
▁immedi	-2633
▁connected	-2634
eth	-2635
▁pu	-2636
▁Tod	-2637
▁check	-2638
▁accept	-2639
▁notice	-2640
▁improve	-2641
▁consider	-2642
▁thousand	-2643
edom	-2644
▁conc	-2645
▁magn	-2646
▁tree	-2647
▁trees	-2648
▁faster	-2649
▁discover	-2650
lex	-2651
erve	-2652
▁fill	-2653
▁continue	-2654
▁buildings	-2655
odies	-2656
▁Brit	-2657
▁shown	-2658
▁tells	-2659
▁conflict	-2660
▁including	-2661
We	-2662
apan	-2663
▁jobs	-2664
▁terror	-2665
▁signific	-2666
▁mis	-2667
▁earl	-2668
▁positive	-2669
▁minds	-2670
▁16	-2671
▁Joh	-2672
▁War	-2673
▁bank	-2674
▁wife	-2675
▁bunch	-2676
▁cases	-2677
.,	-2678
anc	-2679
ids	-2680
ured	-2681
▁pen	-2682
▁spir	-2683
ossible	-2684
▁poverty	-2685
▁strateg	-2686
ana	-2687
▁clin	-2688
▁sequ	-2689
▁trial	-2690
▁taught	-2691
▁families	-2692
▁essentially	-2693
ims	-2694
▁Japan	-2695
ffic	-2696
▁deb	-2697
▁gal	-2698
▁depend	-2699
▁transl	-2700
▁discuss	-2701
conds	-2702
ission	-2703
▁assum	-2704
▁launch	-2705
mend	-2706
▁West	-2707
▁robots	-2708
rage	-2709
ulate	-2710
▁above	-2711
▁killed	-2712
▁increase	-2713
▁suddenly	-2714
ops	-2715
▁fra	-2716
▁village	-2717
bol	-2718
urban	-2719
▁late	-2720
▁graph	-2721
▁standing	-2722
▁democracy	-2723
▁somewhere	-2724
▁conversation	-2725
▁Today	-2726
▁finan	-2727
▁genes	-2728
▁doctor	-2729
▁14	-2730
▁labor	-2731
▁disapp	-2732
▁source	-2733
▁temper	-2734
▁collabor	-2735
▁decision	-2736
▁dam	-2737
▁mine	-2738
▁mist	-2739
▁allows	-2740
▁concer	-2741
▁wealth	-2742
ortunately	-2743
▁fing	-2744
▁influ	-2745
▁affect	-2746
▁college	-2747
▁medicine	-2748
ounds	-2749
▁card	-2750
▁appear	-2751
▁brains	-2752
▁finding	-2753
the	-2754
iers	-2755
iger	-2756
▁fant	-2757
▁Those	-2758
▁ended	-2759
▁truly	-2760
▁repl	-2761
▁Chris	-2762
▁police	-2763
▁remark	-2764
▁conditions	-2765
▁complicated	-2766
ech	-2767
▁17	-2768
cape	-2769
▁lose	-2770
▁excited	-2771
▁teacher	-2772
▁impossible	-2773
la	-2774
▁luck	-2775
▁crisis	-2776
▁larger	-2777
▁minute	-2778
izations	-2779
men	-2780
▁wait	-2781
▁achieve	-2782
▁activity	-2783
▁bom	-2784
▁older	-2785
▁sorts	-2786
▁mathemat	-2787
atory	-2788
▁webs	-2789
ror	-2790
ster	-2791
▁Don	-2792
ining	-2793
▁successful	-2794
▁Le	-2795
let	-2796
ued	-2797
▁fine	-2798
others	-2799
though	-2800
▁citizens	-2801
▁perspective	-2802
!"	-2803
▁blind	-2804
▁forms	-2805
▁Christ	-2806
▁indeed	-2807
▁manage	-2808
▁univers	-2809
ipt	-2810
rate	-2811
▁enj	-2812
▁cold	-2813
▁site	-2814
▁position	-2815
isms	-2816
rams	-2817
▁bur	-2818
▁kil	-2819
▁kept	-2820
▁pack	-2821
estern	-2822
▁lands	-2823
▁straight	-2824
▁dy	-2825
▁phen	-2826
▁pieces	-2827
▁publish	-2828
▁usually	-2829
rap	-2830
cise	-2831
fact	-2832
inct	-2833
useum	-2834
▁phil	-2835
▁star	-2836
inated	-2837
▁lower	-2838
▁port	-2839
▁corre	-2840
▁afford	-2841
▁products	-2842
mb	-2843
▁burn	-2844
▁fasc	-2845
nces	-2846
▁sky	-2847
▁Somet	-2848
▁stars	-2849
▁policy	-2850
▁nuclear	-2851
ama	-2852
▁cat	-2853
▁freedom	-2854
▁international	-2855
▁fram	-2856
▁points	-2857
▁anymore	-2858
▁mention	-2859
▁reading	-2860
▁bal	-2861
▁Look	-2862
▁wild	-2863
▁author	-2864
▁studies	-2865
▁traditional	-2866
urt	-2867
ring	-2868
▁contrib	-2869
▁Q	-2870
▁Are	-2871
▁series	-2872
▁specific	-2873
▁training	-2874
▁decisions	-2875
soci	-2876
▁Like	-2877
▁effort	-2878
▁TV	-2879
▁Car	-2880
▁purp	-2881
▁earth	-2882
▁throw	-2883
▁somehow	-2884
amm	-2885
▁cart	-2886
▁lines	-2887
▁service	-2888
onst	-2889
▁ign	-2890
▁swe	-2891
▁workers	-2892
▁military	-2893
▁organization	-2894
IV	-2895
▁doc	-2896
▁galax	-2897
▁beings	-2898
▁square	-2899
▁hop	-2900
▁heav	-2901
▁please	-2902
▁phenomen	-2903
▁electricity	-2904
time	-2905
▁jud	-2906
▁term	-2907
▁town	-2908
▁trick	-2909
▁distrib	-2910
▁massive	-2911
▁bacteria	-2912
▁solutions	-2913
ays	-2914
rad	-2915
▁Go	-2916
iven	-2917
sequ	-2918
▁alg	-2919
agine	-2920
▁loved	-2921
rom	-2922
▁weren	-2923
▁smaller	-2924
enn	-2925
ugh	-2926
▁HIV	-2927
▁sou	-2928
▁upon	-2929
▁zero	-2930
▁moral	-2931
▁patterns	-2932
▁roll	-2933
▁enorm	-2934
▁prote	-2935
▁bodies	-2936
ologists	-2937
▁address	-2938
▁healthy	-2939
▁seconds	-2940
▁dangerous	-2941
No	-2942
▁Sw	-2943
▁198	-2944
ently	-2945
▁page	-2946
▁quant	-2947
imately	-2948
▁engage	-2949
▁region	-2950
▁biology	-2951
zz	-2952
▁13	-2953
▁career	-2954
▁employ	-2955
▁unique	-2956
▁intelligence	-2957
▁21	-2958
▁Ab	-2959
epend	-2960
thern	-2961
▁sand	-2962
▁yeah	-2963
▁strugg	-2964
▁written	-2965
▁recognize	-2966
dom	-2967
▁oxy	-2968
aging	-2969
▁Afgh	-2970
▁alive	-2971
itation	-2972
▁actual	-2973
▁detect	-2974
▁provide	-2975
▁respond	-2976
▁becoming	-2977
▁machines	-2978
▁urban	-2979
▁remind	-2980
▁slight	-2981
▁architecture	-2982
eral	-2983
sect	-2984
▁thr	-2985
▁magic	-2986
▁secret	-2987
▁version	-2988
▁critical	-2989
▁Americans	-2990
▁treatment	-2991
fer	-2992
imb	-2993
▁cloud	-2994
▁skills	-2995
oint	-2996
▁board	-2997
▁forth	-2998
▁increasing	-2999
go	-3000
rab	-3001
▁price	-3002
▁private	-3003
▁Ag	-3004
ping	-3005
▁Act	-3006
▁whe	-3007
▁vacc	-3008
ashing	-3009
▁physics	-3010
▁waiting	-3011
▁dog	-3012
▁eth	-3013
▁sal	-3014
▁cook	-3015
▁willing	-3016
▁greatest	-3017
oid	-3018
▁store	-3019
▁worry	-3020
ustrial	-3021
▁content	-3022
▁earlier	-3023
▁strange	-3024
▁expensive	-3025
▁governments	-3026
▁neighborhood	-3027
▁web	-3028
▁Mars	-3029
▁shot	-3030
▁costs	-3031
▁famous	-3032
▁comfort	-3033
▁mental	-3034
▁anywhere	-3035
▁diseases	-3036
rum	-3037
erman	-3038
▁vict	-3039
▁molec	-3040
inating	-3041
▁Afghan	-3042
back	-3043
▁trou	-3044
▁drink	-3045
▁doctors	-3046
▁exh	-3047
ained	-3048
aries	-3049
▁desp	-3050
▁offic	-3051
▁choices	-3052
▁listening	-3053
aly	-3054
ceed	-3055
▁Mar	-3056
acity	-3057
erson	-3058
▁coun	-3059
▁jump	-3060
lebr	-3061
itude	-3062
▁laws	-3063
▁occur	-3064
▁spect	-3065
oles	-3066
ried	-3067
▁cover	-3068
▁match	-3069
▁determ	-3070
▁challenges	-3071
ball	-3072
iced	-3073
▁ann	-3074
▁rid	-3075
▁park	-3076
▁clearly	-3077
▁explore	-3078
▁greater	-3079
▁himself	-3080
▁institutions	-3081
iti	-3082
cies	-3083
▁cry	-3084
▁Which	-3085
▁method	-3086
▁mobile	-3087
▁walked	-3088
▁painting	-3089
▁direction	-3090
▁transport	-3091
oty	-3092
▁lad	-3093
▁catch	-3094
▁floor	-3095
▁weight	-3096
▁Another	-3097
▁Imagine	-3098
▁genetic	-3099
▁services	-3100
▁immediately	-3101
0,	-3102
ube	-3103
ables	-3104
atives	-3105
▁final	-3106
▁calcul	-3107
▁X	-3108
▁Ad	-3109
eless	-3110
▁City	-3111
▁East	-3112
▁cust	-3113
▁glass	-3114
▁throughout	-3115
resh	-3116
▁ran	-3117
orrow	-3118
▁apply	-3119
▁oppos	-3120
▁types	-3121
▁plastic	-3122
▁familiar	-3123
SA	-3124
ndom	-3125
▁pan	-3126
iling	-3127
▁gradu	-3128
▁decade	-3129
▁multip	-3130
▁driving	-3131
iest	-3132
▁fit	-3133
attle	-3134
▁optim	-3135
▁saving	-3136
▁humanity	-3137
ulf	-3138
▁Bl	-3139
rees	-3140
▁veh	-3141
▁celebr	-3142
▁University	-3143
airs	-3144
▁Ste	-3145
itted	-3146
▁email	-3147
▁levels	-3148
▁societ	-3149
▁pressure	-3150
▁financial	-3151
mic	-3152
▁atm	-3153
▁sam	-3154
▁Cent	-3155
▁crow	-3156
▁hero	-3157
istics	-3158
▁range	-3159
▁random	-3160
▁neurons	-3161
▁teaching	-3162
yr	-3163
met	-3164
▁Ex	-3165
▁fuel	-3166
▁helped	-3167
▁decades	-3168
▁environmental	-3169
uted	-3170
▁Har	-3171
▁autom	-3172
▁integ	-3173
▁income	-3174
▁meeting	-3175
▁website	-3176
▁programs	-3177
▁active	-3178
▁female	-3179
▁fantastic	-3180
▁ple	-3181
▁prep	-3182
▁broad	-3183
▁beauty	-3184
▁honest	-3185
▁values	-3186
atically	-3187
▁consequ	-3188
▁respect	-3189
▁terrible	-3190
orry	-3191
▁Isl	-3192
▁ord	-3193
▁legs	-3194
▁laugh	-3195
▁forget	-3196
▁90	-3197
▁hous	-3198
▁vari	-3199
▁ahead	-3200
▁encou	-3201
▁enjoy	-3202
▁interview	-3203
na	-3204
unk	-3205
▁Ken	-3206
▁surger	-3207
▁practice	-3208
iot	-3209
ises	-3210
▁male	-3211
rastruct	-3212
▁therefore	-3213
▁connection	-3214
▁production	-3215
ica	-3216
udd	-3217
ches	-3218
▁Mus	-3219
▁race	-3220
▁rise	-3221
▁spirit	-3222
▁popular	-3223
▁politics	-3224
▁engineering	-3225
▁Many	-3226
vision	-3227
▁German	-3228
▁decide	-3229
▁various	-3230
▁colleagues	-3231
▁Cl	-3232
cope	-3233
▁500	-3234
▁dram	-3235
▁worst	-3236
▁physic	-3237
bb	-3238
used	-3239
ystem	-3240
▁hair	-3241
▁following	-3242
ils	-3243
▁Two	-3244
▁motiv	-3245
▁nation	-3246
▁Western	-3247
▁effects	-3248
▁journal	-3249
▁although	-3250
▁standard	-3251
wise	-3252
antic	-3253
▁Second	-3254
▁stopped	-3255
▁remarkable	-3256
▁performance	-3257
pro	-3258
▁dynam	-3259
▁associ	-3260
▁useful	-3261
▁streets	-3262
▁daughter	-3263
▁invented	-3264
▁understood	-3265
▁consciousness	-3266
ec	-3267
ox	-3268
▁i	-3269
ondon	-3270
▁surround	-3271
itor	-3272
rated	-3273
ologist	-3274
▁shared	-3275
▁speech	-3276
▁enormous	-3277
▁instance	-3278
▁infrastruct	-3279
iles	-3280
▁tiss	-3281
▁London	-3282
▁destro	-3283
▁relative	-3284
▁atmosphere	-3285
zil	-3286
aign	-3287
load	-3288
prene	-3289
reprene	-3290
ement	-3291
ornia	-3292
▁weap	-3293
▁condition	-3294
▁collective	-3295
ios	-3296
▁70	-3297
▁base	-3298
▁uses	-3299
▁Calif	-3300
▁diagn	-3301
▁Brazil	-3302
▁babies	-3303
▁24	-3304
osing	-3305
▁drop	-3306
▁organizations	-3307
key	-3308
▁Per	-3309
ufact	-3310
▁John	-3311
ricult	-3312
▁flying	-3313
▁invent	-3314
▁mostly	-3315
▁mal	-3316
▁Cong	-3317
▁raise	-3318
▁whose	-3319
▁summer	-3320
itter	-3321
▁gent	-3322
▁surve	-3323
▁demonst	-3324
▁directly	-3325
▁relationships	-3326
▁Austr	-3327
▁Think	-3328
▁slide	-3329
▁supply	-3330
ervation	-3331
▁survive	-3332
▁California	-3333
▁temperature	-3334
raid	-3335
▁Sch	-3336
▁aid	-3337
▁nut	-3338
▁tax	-3339
inate	-3340
iring	-3341
▁Face	-3342
▁express	-3343
▁possibly	-3344
equ	-3345
pes	-3346
▁ban	-3347
▁scr	-3348
board	-3349
▁Your	-3350
▁total	-3351
▁altern	-3352
▁slightly	-3353
uct	-3354
▁sad	-3355
▁sus	-3356
▁yell	-3357
▁below	-3358
▁smell	-3359
▁afraid	-3360
▁artist	-3361
▁commer	-3362
▁states	-3363
▁symbol	-3364
▁Instead	-3365
▁creativity	-3366
olve	-3367
▁task	-3368
▁anyway	-3369
▁purpose	-3370
gy	-3371
ray	-3372
iate	-3373
▁His	-3374
▁scan	-3375
▁trade	-3376
▁belief	-3377
▁communicate	-3378
now	-3379
▁197	-3380
▁pig	-3381
anced	-3382
▁From	-3383
▁heat	-3384
▁sick	-3385
▁displ	-3386
▁radio	-3387
▁custom	-3388
▁reflect	-3389
▁capacity	-3390
▁societies	-3391
▁Afghanistan	-3392
iber	-3393
▁gene	-3394
▁tens	-3395
▁easily	-3396
ya	-3397
How	-3398
▁Dr	-3399
▁ir	-3400
▁mut	-3401
▁causes	-3402
▁electron	-3403
▁profound	-3404
▁television	-3405
▁legal	-3406
▁meters	-3407
▁switch	-3408
▁prevent	-3409
lications	-3410
▁manufact	-3411
▁entreprene	-3412
▁dad	-3413
arter	-3414
▁tremend	-3415
▁cultural	-3416
▁identity	-3417
▁infrastructure	-3418
yle	-3419
order	-3420
▁paid	-3421
▁speaking	-3422
Why	-3423
cks	-3424
vest	-3425
▁hus	-3426
▁doub	-3427
▁shark	-3428
▁insect	-3429
▁stress	-3430
▁members	-3431
▁biological	-3432
ky	-3433
cles	-3434
ened	-3435
water	-3436
▁loss	-3437
▁bought	-3438
▁agricult	-3439
yl	-3440
ira	-3441
nel	-3442
arian	-3443
▁swim	-3444
▁funny	-3445
▁gentle	-3446
▁philos	-3447
▁campaign	-3448
▁experiments	-3449
▁significant	-3450
0.	-3451
arm	-3452
band	-3453
▁300	-3454
▁hyd	-3455
▁mix	-3456
▁boys	-3457
cience	-3458
▁shock	-3459
▁dimens	-3460
▁sustainable	-3461
▁responsibility	-3462
▁Pl	-3463
▁et	-3464
uing	-3465
▁ang	-3466
▁rule	-3467
▁vast	-3468
▁central	-3469
▁National	-3470
▁experiences	-3471
af	-3472
wood	-3473
▁San	-3474
▁corner	-3475
▁Facebook	-3476
▁controll	-3477
5,	-3478
▁ut	-3479
oper	-3480
▁Dav	-3481
▁Arab	-3482
▁mamm	-3483
▁dying	-3484
▁twice	-3485
▁histor	-3486
▁played	-3487
▁answers	-3488
▁communication	-3489
It	-3490
▁196	-3491
▁mid	-3492
phone	-3493
▁dance	-3494
▁feels	-3495
▁visit	-3496
▁reduce	-3497
▁degrees	-3498
▁noticed	-3499
▁emotional	-3500
ancy	-3501
▁gun	-3502
▁broken	-3503
▁closer	-3504
▁mission	-3505
▁inspired	-3506
▁differently	-3507
ked	-3508
empt	-3509
rench	-3510
▁beat	-3511
▁highly	-3512
▁nearly	-3513
▁contact	-3514
▁markets	-3515
▁published	-3516
▁surprising	-3517
aling	-3518
ening	-3519
icles	-3520
▁microb	-3521
▁helping	-3522
▁networks	-3523
fr	-3524
raq	-3525
izes	-3526
oting	-3527
▁compon	-3528
▁expand	-3529
▁oxygen	-3530
▁target	-3531
▁window	-3532
▁devices	-3533
aced	-3534
cell	-3535
rupt	-3536
cules	-3537
▁gold	-3538
▁analy	-3539
▁liber	-3540
▁rapid	-3541
▁volunt	-3542
▁planets	-3543
amb	-3544
lies	-3545
▁lack	-3546
▁rare	-3547
anging	-3548
▁shift	-3549
▁seemed	-3550
▁mountain	-3551
▁original	-3552
▁hom	-3553
▁coff	-3554
▁forces	-3555
▁surgery	-3556
▁independ	-3557
edd	-3558
mon	-3559
adem	-3560
house	-3561
othes	-3562
▁wood	-3563
▁Great	-3564
▁habit	-3565
ception	-3566
▁spaces	-3567
▁evolved	-3568
▁produced	-3569
▁diversity	-3570
▁Te	-3571
▁ur	-3572
atell	-3573
night	-3574
▁crowd	-3575
▁lights	-3576
▁efficient	-3577
▁differences	-3578
win	-3579
▁Iraq	-3580
▁hole	-3581
▁reco	-3582
▁agree	-3583
▁brand	-3584
▁photo	-3585
▁Indian	-3586
▁dreams	-3587
▁gotten	-3588
▁passed	-3589
▁addition	-3590
anda	-3591
isco	-3592
▁ver	-3593
idden	-3594
▁Mich	-3595
▁fort	-3596
ashion	-3597
▁resist	-3598
▁iP	-3599
icon	-3600
orith	-3601
▁trip	-3602
▁bringing	-3603
ID	-3604
▁$	-3605
off	-3606
▁cru	-3607
▁Over	-3608
▁poet	-3609
▁1,000	-3610
▁attract	-3611
▁missing	-3612
▁religion	-3613
▁designers	-3614
▁scientist	-3615
reg	-3616
▁inj	-3617
▁hall	-3618
▁basis	-3619
▁birds	-3620
▁Thanks	-3621
▁demand	-3622
▁algorith	-3623
▁conference	-3624
edia	-3625
orge	-3626
term	-3627
▁blog	-3628
▁boat	-3629
▁none	-3630
▁plat	-3631
▁wire	-3632
▁weird	-3633
▁consid	-3634
▁eating	-3635
▁tun	-3636
▁join	-3637
▁wide	-3638
▁flight	-3639
▁satell	-3640
▁ancient	-3641
▁classroom	-3642
▁molecules	-3643
lim	-3644
▁oh	-3645
ander	-3646
ulner	-3647
▁Russ	-3648
▁host	-3649
icking	-3650
▁Austral	-3651
▁deliver	-3652
▁forever	-3653
▁knowing	-3654
▁trouble	-3655
▁spending	-3656
ears	-3657
reci	-3658
▁climb	-3659
▁museum	-3660
▁raised	-3661
▁complexity	-3662
ri	-3663
gth	-3664
ste	-3665
▁Par	-3666
rength	-3667
▁accom	-3668
▁rough	-3669
▁industrial	-3670
1,	-3671
hy	-3672
aul	-3673
ius	-3674
▁Sc	-3675
▁Again	-3676
▁aspect	-3677
▁creates	-3678
▁opposite	-3679
▁studying	-3680
▁structures	-3681
ef	-3682
val	-3683
▁Ro	-3684
▁fol	-3685
ording	-3686
▁hearing	-3687
cop	-3688
rael	-3689
▁hack	-3690
atures	-3691
artment	-3692
▁imagination	-3693
ees	-3694
rel	-3695
▁etc	-3696
▁fat	-3697
▁reb	-3698
cript	-3699
▁seas	-3700
▁fully	-3701
▁easier	-3702
▁strength	-3703
▁background	-3704
mp	-3705
exic	-3706
▁ske	-3707
▁tom	-3708
inist	-3709
▁trib	-3710
orders	-3711
▁lucky	-3712
▁10,000	-3713
▁sexual	-3714
▁matters	-3715
▁traffic	-3716
▁commercial	-3717
▁ultimately	-3718
▁possibility	-3719
ett	-3720
▁CO	-3721
▁core	-3722
▁rout	-3723
▁teen	-3724
▁Islam	-3725
▁genome	-3726
roud	-3727
▁cla	-3728
pping	-3729
▁crim	-3730
▁fold	-3731
ifying	-3732
▁coffee	-3733
▁failure	-3734
▁describe	-3735
▁opportunities	-3736
▁Mc	-3737
care	-3738
▁airpl	-3739
▁party	-3740
ography	-3741
▁correct	-3742
▁focused	-3743
▁moments	-3744
▁investment	-3745
▁tremendous	-3746
iam	-3747
irt	-3748
hand	-3749
ively	-3750
▁Char	-3751
▁Will	-3752
▁parad	-3753
▁vulner	-3754
▁However	-3755
▁turning	-3756
▁negative	-3757
▁Gu	-3758
rical	-3759
▁Iran	-3760
▁Take	-3761
▁shop	-3762
▁Mexic	-3763
▁brill	-3764
▁enter	-3765
▁giant	-3766
▁magaz	-3767
▁mouth	-3768
osystem	-3769
▁notion	-3770
▁despite	-3771
▁justice	-3772
▁partners	-3773
▁landscape	-3774
▁importantly	-3775
2,	-3776
ae	-3777
▁harm	-3778
▁held	-3779
▁infect	-3780
▁platform	-3781
▁hell	-3782
▁repe	-3783
aining	-3784
▁metap	-3785
▁proud	-3786
▁tough	-3787
▁virtual	-3788
▁1.	-3789
▁Con	-3790
▁forg	-3791
▁adapt	-3792
▁photos	-3793
▁kilomet	-3794
▁entirely	-3795
▁Ob	-3796
ipped	-3797
▁offer	-3798
▁therap	-3799
▁Actually	-3800
▁ecosystem	-3801
▁ing	-3802
▁bomb	-3803
▁dinos	-3804
▁benefits	-3805
▁Ed	-3806
ysis	-3807
▁Dar	-3808
ratic	-3809
▁Good	-3810
▁More	-3811
▁cred	-3812
▁puzz	-3813
▁stem	-3814
icians	-3815
▁accur	-3816
▁calls	-3817
▁advant	-3818
ulations	-3819
▁sharing	-3820
▁distance	-3821
▁emotions	-3822
▁necessarily	-3823
8,	-3824
gra	-3825
zen	-3826
gypt	-3827
ties	-3828
vere	-3829
▁Nor	-3830
based	-3831
ulated	-3832
▁David	-3833
mission	-3834
▁Israel	-3835
▁brings	-3836
▁artists	-3837
▁regular	-3838
▁Sometimes	-3839
9,	-3840
ager	-3841
▁fab	-3842
▁fro	-3843
▁stuck	-3844
▁bright	-3845
▁desert	-3846
▁fairly	-3847
▁opened	-3848
▁phones	-3849
▁yellow	-3850
▁brother	-3851
▁billions	-3852
IDS	-3853
▁bag	-3854
▁cand	-3855
▁subst	-3856
▁Middle	-3857
▁batter	-3858
▁particles	-3859
bert	-3860
edic	-3861
mark	-3862
▁alt	-3863
itely	-3864
▁reve	-3865
▁tast	-3866
▁Egypt	-3867
▁bound	-3868
▁attempt	-3869
▁figured	-3870
▁husband	-3871
▁suffering	-3872
cest	-3873
▁amb	-3874
▁nor	-3875
rogen	-3876
▁appreci	-3877
▁emotion	-3878
▁creatures	-3879
▁phenomenon	-3880
▁En	-3881
▁Mr	-3882
This	-3883
▁mos	-3884
▁cogn	-3885
▁mill	-3886
▁mort	-3887
▁seed	-3888
inally	-3889
▁epide	-3890
▁invis	-3891
▁river	-3892
▁walls	-3893
▁inform	-3894
▁Washing	-3895
▁destroy	-3896
▁require	-3897
▁shouldn	-3898
ibilities	-3899
▁necessary	-3900
do	-3901
my	-3902
eal	-3903
tle	-3904
reet	-3905
▁See	-3906
▁fle	-3907
▁mig	-3908
▁tor	-3909
celer	-3910
▁Asia	-3911
▁bridge	-3912
▁caught	-3913
▁Twitter	-3914
▁concent	-3915
▁foreign	-3916
▁typical	-3917
▁accident	-3918
▁elements	-3919
ada	-3920
aker	-3921
▁400	-3922
▁bud	-3923
▁tum	-3924
▁exer	-3925
▁cheap	-3926
▁maint	-3927
▁pleas	-3928
connect	-3929
▁ancest	-3930
▁charge	-3931
▁remote	-3932
▁argument	-3933
▁definition	-3934
▁leadership	-3935
7,	-3936
cra	-3937
▁Su	-3938
▁Kore	-3939
▁horr	-3940
▁helps	-3941
▁tissue	-3942
▁religious	-3943
▁Washington	-3944
vant	-3945
▁den	-3946
▁disp	-3947
▁north	-3948
▁sorry	-3949
▁breast	-3950
▁events	-3951
▁letter	-3952
▁stream	-3953
ifically	-3954
▁childhood	-3955
aff	-3956
▁Once	-3957
▁bone	-3958
▁flag	-3959
▁note	-3960
▁ship	-3961
idents	-3962
▁European	-3963
▁university	-3964
atr	-3965
ibr	-3966
ley	-3967
pan	-3968
iage	-3969
verse	-3970
ctions	-3971
▁faith	-3972
▁wheel	-3973
▁corpor	-3974
▁gender	-3975
▁pounds	-3976
▁fashion	-3977
▁holding	-3978
▁studied	-3979
▁succeed	-3980
▁influence	-3981
mit	-3982
roll	-3983
▁fresh	-3984
▁convin	-3985
▁deeply	-3986
▁lesson	-3987
▁responsible	-3988
▁1,	-3989
▁tit	-3990
▁poem	-3991
▁avoid	-3992
▁coast	-3993
▁indic	-3994
▁sport	-3995
▁adults	-3996
▁counter	-3997
▁leading	-3998
▁restaur	-3999
kn	-4000
aria	-4001
urch	-4002
▁Dan	-4003
▁egg	-4004
▁unc	-4005
▁wis	-4006
alled	-4007
▁bees	-4008
▁narr	-4009
dimens	-4010
▁Niger	-4011
▁newsp	-4012
▁cooper	-4013
▁failed	-4014
▁sister	-4015
▁volunte	-4016
▁believed	-4017
▁compared	-4018
▁previous	-4019
▁Web	-4020
▁Rich	-4021
▁bull	-4022
itable	-4023
uments	-4024
▁cycle	-4025
▁embra	-4026
▁heads	-4027
▁leads	-4028
▁degree	-4029
▁sector	-4030
▁signal	-4031
▁transp	-4032
▁farmers	-4033
▁brilliant	-4034
▁discovery	-4035
▁engineers	-4036
▁organisms	-4037
▁president	-4038
▁Me	-4039
▁Tr	-4040
▁Aud	-4041
▁ble	-4042
▁Bill	-4043
▁Park	-4044
▁agre	-4045
▁spot	-4046
▁French	-4047
▁balance	-4048
ification	-4049
▁fighting	-4050
▁majority	-4051
▁competition	-4052
▁fascinating	-4053
exp	-4054
rict	-4055
ulpt	-4056
▁opin	-4057
▁wear	-4058
▁bread	-4059
lection	-4060
▁colors	-4061
▁double	-4062
▁sculpt	-4063
▁document	-4064
▁strategy	-4065
▁construct	-4066
▁NA	-4067
ford	-4068
uman	-4069
▁und	-4070
istry	-4071
▁chick	-4072
▁frequ	-4073
▁quote	-4074
▁married	-4075
▁wearing	-4076
▁finished	-4077
▁joy	-4078
▁rot	-4079
▁shr	-4080
iable	-4081
▁adop	-4082
▁exch	-4083
elling	-4084
▁crime	-4085
▁equal	-4086
▁prost	-4087
issions	-4088
▁capable	-4089
▁managed	-4090
▁philosoph	-4091
▁unfortunately	-4092
lin	-4093
oses	-4094
thes	-4095
vity	-4096
▁hyp	-4097
▁smo	-4098
▁moon	-4099
▁shel	-4100
▁dollar	-4101
▁grandm	-4102
▁acceler	-4103
▁benefit	-4104
▁prototy	-4105
▁watched	-4106
▁otherwise	-4107
▁businesses	-4108
omy	-4109
uild	-4110
▁due	-4111
eared	-4112
throp	-4113
▁argue	-4114
▁mouse	-4115
▁belong	-4116
▁unlike	-4117
▁related	-4118
dimensional	-4119
inc	-4120
ses	-4121
ugg	-4122
▁Her	-4123
stein	-4124
▁tons	-4125
▁names	-4126
▁prior	-4127
▁closed	-4128
▁oceans	-4129
▁leaving	-4130
▁limited	-4131
▁everyday	-4132
▁Co	-4133
▁Ha	-4134
▁Ne	-4135
hold	-4136
oted	-4137
agers	-4138
▁pros	-4139
▁purs	-4140
▁tour	-4141
▁Franc	-4142
▁hidden	-4143
▁sequence	-4144
▁constantly	-4145
▁institution	-4146
athy	-4147
cked	-4148
pper	-4149
▁Gen	-4150
▁gard	-4151
▁hate	-4152
▁exhib	-4153
▁truck	-4154
▁British	-4155
▁surprise	-4156
uros	-4157
▁150	-4158
▁cos	-4159
▁Pres	-4160
▁grad	-4161
▁soil	-4162
▁faces	-4163
iration	-4164
▁concerned	-4165
▁professional	-4166
ij	-4167
wide	-4168
▁Big	-4169
▁Did	-4170
▁pet	-4171
▁Very	-4172
▁ment	-4173
▁lunch	-4174
▁motor	-4175
▁novel	-4176
▁steps	-4177
ruption	-4178
▁creation	-4179
▁followed	-4180
▁invisible	-4181
If	-4182
▁Col	-4183
▁gar	-4184
▁Paul	-4185
▁foss	-4186
▁iron	-4187
▁whom	-4188
▁categ	-4189
▁grown	-4190
▁paint	-4191
▁simpl	-4192
▁breath	-4193
▁master	-4194
▁element	-4195
▁normally	-4196
▁received	-4197
▁separate	-4198
IT	-4199
cil	-4200
▁gay	-4201
▁pun	-4202
lands	-4203
▁edge	-4204
▁moves	-4205
▁noise	-4206
▁expert	-4207
▁fellow	-4208
▁refuge	-4209
▁safety	-4210
▁trained	-4211
▁intellect	-4212
word	-4213
alley	-4214
apers	-4215
ength	-4216
illed	-4217
right	-4218
▁Bang	-4219
▁intu	-4220
▁king	-4221
▁folks	-4222
▁grass	-4223
▁plane	-4224
▁slowly	-4225
ographic	-4226
▁highest	-4227
▁described	-4228
▁perfectly	-4229
▁interaction	-4230
ux	-4231
▁Fl	-4232
▁Des	-4233
estic	-4234
force	-4235
itute	-4236
known	-4237
ulous	-4238
▁coal	-4239
▁frag	-4240
urally	-4241
▁astron	-4242
▁artific	-4243
▁invited	-4244
▁multiple	-4245
▁advantage	-4246
▁mentioned	-4247
▁kilometers	-4248
▁App	-4249
▁Gra	-4250
▁mir	-4251
▁Have	-4252
▁bear	-4253
▁mosqu	-4254
▁begins	-4255
▁exists	-4256
▁finger	-4257
▁leader	-4258
▁insight	-4259
ha	-4260
sec	-4261
▁roof	-4262
▁click	-4263
▁pages	-4264
oration	-4265
▁forced	-4266
▁motion	-4267
▁quantum	-4268
▁survival	-4269
▁Everybody	-4270
▁principles	-4271
irm	-4272
set	-4273
ume	-4274
enty	-4275
craft	-4276
▁Amaz	-4277
▁Each	-4278
▁anti	-4279
▁brief	-4280
▁homes	-4281
▁talks	-4282
▁attach	-4283
▁commit	-4284
▁replace	-4285
▁currently	-4286
▁consequences	-4287
mar	-4288
aked	-4289
cket	-4290
oman	-4291
▁fed	-4292
▁odd	-4293
uries	-4294
▁Does	-4295
▁fell	-4296
terday	-4297
▁reward	-4298
▁insects	-4299
▁weapons	-4300
▁metaphor	-4301
▁planning	-4302
▁cognitive	-4303
▁surprised	-4304
DP	-4305
oe	-4306
▁dry	-4307
essed	-4308
▁empt	-4309
ipping	-4310
▁harder	-4311
▁letters	-4312
▁precise	-4313
▁identify	-4314
▁launched	-4315
▁considered	-4316
ino	-4317
▁Sun	-4318
▁era	-4319
asion	-4320
▁Life	-4321
▁myth	-4322
forest	-4323
ushing	-4324
▁equip	-4325
▁inequ	-4326
▁shoes	-4327
▁stood	-4328
▁surge	-4329
vention	-4330
▁debate	-4331
▁paying	-4332
▁protein	-4333
▁feedback	-4334
▁magazine	-4335
lied	-4336
▁nan	-4337
▁tox	-4338
ublic	-4339
▁hasn	-4340
▁seat	-4341
▁movies	-4342
▁versus	-4343
▁compare	-4344
▁existence	-4345
▁mathematics	-4346
RI	-4347
Yes	-4348
ami	-4349
▁init	-4350
ancing	-4351
▁quiet	-4352
▁stock	-4353
▁dinner	-4354
▁extend	-4355
▁unless	-4356
▁Audience	-4357
▁seriously	-4358
▁civilization	-4359
anes	-4360
▁sla	-4361
▁Green	-4362
▁crash	-4363
▁eleph	-4364
▁inner	-4365
▁leaves	-4366
▁stupid	-4367
▁factory	-4368
▁signals	-4369
▁theater	-4370
▁associated	-4371
rete	-4372
▁pow	-4373
▁arms	-4374
▁band	-4375
▁exec	-4376
▁libr	-4377
▁nerv	-4378
▁nutr	-4379
ildren	-4380
▁camer	-4381
▁limit	-4382
lication	-4383
▁curious	-4384
▁Australia	-4385
▁depression	-4386
▁comfortable	-4387
▁generations	-4388
▁Three	-4389
▁south	-4390
▁spoke	-4391
▁desire	-4392
▁select	-4393
▁article	-4394
▁experts	-4395
▁investig	-4396
▁President	-4397
▁alternative	-4398
urd	-4399
▁cro	-4400
▁ves	-4401
▁King	-4402
▁load	-4403
▁scen	-4404
▁Would	-4405
▁scene	-4406
▁wisdom	-4407
▁worried	-4408
▁soldiers	-4409
anz	-4410
pet	-4411
uff	-4412
▁lie	-4413
▁tal	-4414
ortex	-4415
▁stim	-4416
▁chair	-4417
▁layer	-4418
▁lifet	-4419
▁saved	-4420
▁Mexico	-4421
▁battle	-4422
▁frustr	-4423
▁Germany	-4424
▁calling	-4425
▁equival	-4426
▁mothers	-4427
▁treated	-4428
▁operating	-4429
▁experienced	-4430
uous	-4431
▁GDP	-4432
▁org	-4433
▁wave	-4434
encies	-4435
▁Their	-4436
▁recon	-4437
▁circle	-4438
▁finish	-4439
▁micros	-4440
▁videos	-4441
▁England	-4442
▁drawing	-4443
▁contract	-4444
▁marriage	-4445
▁molecule	-4446
▁struggle	-4447
▁hopefully	-4448
▁processes	-4449
▁agriculture	-4450
icy	-4451
▁Rem	-4452
▁Res	-4453
anted	-4454
▁isol	-4455
▁weak	-4456
▁2,000	-4457
▁academ	-4458
▁circum	-4459
▁picked	-4460
▁illustr	-4461
▁testing	-4462
▁resource	-4463
▁equipment	-4464
▁principle	-4465
▁researchers	-4466
▁PM	-4467
▁Bas	-4468
▁gap	-4469
▁glo	-4470
place	-4471
▁abst	-4472
ensity	-4473
itness	-4474
▁daily	-4475
▁sympt	-4476
▁fields	-4477
▁incent	-4478
▁vessel	-4479
▁100,000	-4480
▁nervous	-4481
▁expected	-4482
▁galaxies	-4483
▁healthcare	-4484
ago	-4485
bel	-4486
▁El	-4487
iors	-4488
▁Red	-4489
iques	-4490
▁lies	-4491
▁puts	-4492
▁wake	-4493
▁wond	-4494
▁Times	-4495
▁filled	-4496
▁covered	-4497
▁partner	-4498
▁warming	-4499
ests	-4500
odes	-4501
esome	-4502
▁date	-4503
▁soph	-4504
acters	-4505
▁coral	-4506
▁risks	-4507
▁Darwin	-4508
▁toward	-4509
▁Richard	-4510
▁engineer	-4511
▁sentence	-4512
▁continent	-4513
▁characters	-4514
▁statistics	-4515
4,	-4516
ok	-4517
Hey	-4518
▁Sm	-4519
▁Rep	-4520
▁agg	-4521
▁spl	-4522
neath	-4523
▁hadn	-4524
▁tick	-4525
ession	-4526
lement	-4527
thetic	-4528
▁Kenya	-4529
▁round	-4530
▁fourth	-4531
▁gather	-4532
▁island	-4533
▁arrived	-4534
▁release	-4535
▁vehicle	-4536
▁designer	-4537
▁ordinary	-4538
▁emissions	-4539
▁connections	-4540
3,	-4541
gar	-4542
hab	-4543
▁35	-4544
apse	-4545
vard	-4546
▁MIT	-4547
▁Pal	-4548
▁ants	-4549
▁bits	-4550
▁hide	-4551
▁lawy	-4552
▁meat	-4553
▁shut	-4554
▁soul	-4555
▁vote	-4556
▁compl	-4557
▁rural	-4558
▁teles	-4559
▁autism	-4560
▁caused	-4561
▁damage	-4562
▁cameras	-4563
▁privile	-4564
▁weather	-4565
▁clinical	-4566
▁economics	-4567
▁Everything	-4568
▁consumption	-4569
That	-4570
roph	-4571
▁hun	-4572
▁row	-4573
olves	-4574
umber	-4575
▁lapt	-4576
▁rein	-4577
▁tall	-4578
▁warm	-4579
▁antib	-4580
osition	-4581
▁George	-4582
▁shapes	-4583
▁thinks	-4584
▁property	-4585
▁reaction	-4586
▁according	-4587
▁languages	-4588
▁artificial	-4589
▁importance	-4590
▁increasingly	-4591
ara	-4592
new	-4593
cale	-4594
down	-4595
▁flat	-4596
lation	-4597
▁colon	-4598
▁facts	-4599
▁users	-4600
▁voices	-4601
▁keeping	-4602
▁universal	-4603
▁equivalent	-4604
▁intelligent	-4605
▁transformation	-4606
add	-4607
▁ax	-4608
otic	-4609
▁illeg	-4610
▁reform	-4611
▁dealing	-4612
▁dynamic	-4613
▁organic	-4614
▁selling	-4615
▁setting	-4616
▁analysis	-4617
▁convinced	-4618
▁technical	-4619
▁entrepreneurs	-4620
▁possibilities	-4621
ato	-4622
car	-4623
▁CE	-4624
▁pil	-4625
akers	-4626
isher	-4627
▁AIDS	-4628
▁rates	-4629
▁feelings	-4630
▁distribution	-4631
alt	-4632
cend	-4633
irty	-4634
semb	-4635
▁Ein	-4636
▁dial	-4637
▁chain	-4638
▁concl	-4639
▁neuro	-4640
ressive	-4641
▁galaxy	-4642
▁losing	-4643
▁opening	-4644
▁victims	-4645
▁essential	-4646
▁organized	-4647
▁wondering	-4648
▁techniques	-4649
▁grandmother	-4650
cast	-4651
ocol	-4652
sing	-4653
▁cow	-4654
▁uns	-4655
▁blow	-4656
▁enem	-4657
▁qual	-4658
▁heavy	-4659
▁prove	-4660
▁neuros	-4661
▁factors	-4662
▁released	-4663
▁tomorrow	-4664
▁satellite	-4665
▁underneath	-4666
low	-4667
▁Je	-4668
▁dol	-4669
▁nar	-4670
print	-4671
▁driver	-4672
▁medium	-4673
▁symmet	-4674
▁players	-4675
▁station	-4676
▁airplane	-4677
▁criminal	-4678
▁requires	-4679
▁yesterday	-4680
.'	-4681
oot	-4682
mber	-4683
ogen	-4684
▁Bar	-4685
▁ends	-4686
▁valu	-4687
▁cards	-4688
▁estab	-4689
▁perce	-4690
▁sites	-4691
▁solid	-4692
▁explan	-4693
▁Harvard	-4694
▁display	-4695
▁illness	-4696
▁killing	-4697
▁promise	-4698
▁Francisco	-4699
▁movements	-4700
▁collection	-4701
▁dimensions	-4702
2.	-4703
au	-4704
zing	-4705
▁Gree	-4706
▁Last	-4707
▁tail	-4708
▁deeper	-4709
▁conduct	-4710
▁reprodu	-4711
▁variety	-4712
▁Japanese	-4713
▁messages	-4714
onym	-4715
uses	-4716
▁god	-4717
▁Ange	-4718
▁empty	-4719
▁signs	-4720
▁veget	-4721
▁houses	-4722
▁muscle	-4723
▁Einstein	-4724
▁whenever	-4725
▁chemicals	-4726
▁sophistic	-4727
▁represents	-4728
▁transition	-4729
▁construction	-4730
6,	-4731
▁Mo	-4732
frie	-4733
▁poo	-4734
itals	-4735
▁NASA	-4736
▁arts	-4737
▁gall	-4738
▁kick	-4739
▁shif	-4740
▁broke	-4741
▁dolph	-4742
▁infin	-4743
▁battery	-4744
▁radical	-4745
▁sources	-4746
▁entertain	-4747
▁management	-4748
gn	-4749
ym	-4750
van	-4751
aled	-4752
life	-4753
osis	-4754
▁Atl	-4755
▁Ben	-4756
▁Int	-4757
▁rat	-4758
erves	-4759
iency	-4760
▁2000	-4761
▁Swed	-4762
▁diet	-4763
▁hang	-4764
▁pure	-4765
▁claim	-4766
▁manip	-4767
▁toile	-4768
▁height	-4769
▁thoughts	-4770
▁designing	-4771
▁independent	-4772
hi	-4773
oom	-4774
zed	-4775
cipl	-4776
icip	-4777
▁Ant	-4778
▁tow	-4779
▁gain	-4780
▁gang	-4781
▁surf	-4782
▁chimp	-4783
▁metal	-4784
▁advert	-4785
▁nations	-4786
▁rapidly	-4787
▁sending	-4788
▁advanced	-4789
▁cultures	-4790
▁epidemic	-4791
▁trillion	-4792
▁electrical	-4793
▁expression	-4794
▁properties	-4795
▁Tom	-4796
▁mer	-4797
▁tap	-4798
abled	-4799
▁bare	-4800
ension	-4801
▁honor	-4802
akistan	-4803
ulating	-4804
▁Amazon	-4805
▁School	-4806
▁budget	-4807
▁facing	-4808
▁appropr	-4809
▁cutting	-4810
▁emerging	-4811
▁graduate	-4812
▁gentlemen	-4813
▁introduce	-4814
▁profession	-4815
▁effectively	-4816
gets	-4817
▁mel	-4818
▁copy	-4819
▁gift	-4820
▁resc	-4821
▁snow	-4822
▁holes	-4823
▁liked	-4824
▁smile	-4825
▁waves	-4826
▁Street	-4827
▁details	-4828
▁official	-4829
▁interface	-4830
▁professor	-4831
▁inequality	-4832
ald	-4833
▁fal	-4834
▁ten	-4835
▁auth	-4836
▁hurt	-4837
▁Center	-4838
▁credit	-4839
▁fossil	-4840
▁player	-4841
▁prefer	-4842
▁remain	-4843
▁trials	-4844
▁malaria	-4845
▁exchange	-4846
▁lifetime	-4847
ait	-4848
fish	-4849
resp	-4850
▁Cam	-4851
▁Los	-4852
▁reef	-4853
▁chart	-4854
▁grade	-4855
▁fortun	-4856
▁poetry	-4857
▁Britain	-4858
▁capture	-4859
▁Pakistan	-4860
▁exercise	-4861
▁required	-4862
▁carefully	-4863
▁politicians	-4864
▁intellectual	-4865
▁BG	-4866
uary	-4867
▁lat	-4868
▁phr	-4869
▁pip	-4870
▁flex	-4871
▁jail	-4872
▁recy	-4873
▁Could	-4874
▁Since	-4875
▁awful	-4876
▁negot	-4877
▁assign	-4878
▁engaged	-4879
▁forests	-4880
▁funding	-4881
▁Anderson	-4882
▁Congress	-4883
▁microbes	-4884
▁chemistry	-4885
▁disappear	-4886
▁vulnerable	-4887
▁specifically	-4888
30	-4889
Do	-4890
ael	-4891
rim	-4892
rog	-4893
olds	-4894
▁ens	-4895
organ	-4896
▁Phil	-4897
▁dots	-4898
▁liqu	-4899
▁remo	-4900
▁unit	-4901
enture	-4902
▁sight	-4903
▁accompl	-4904
▁courage	-4905
▁lessons	-4906
▁location	-4907
▁valuable	-4908
▁encourage	-4909
▁evolutionary	-4910
hes	-4911
lom	-4912
min	-4913
uel	-4914
aurs	-4915
bble	-4916
engu	-4917
▁Jew	-4918
▁Sat	-4919
▁peak	-4920
▁user	-4921
urance	-4922
▁goals	-4923
▁minim	-4924
▁Canada	-4925
▁length	-4926
▁member	-4927
▁review	-4928
▁worlds	-4929
▁depends	-4930
▁opinion	-4931
▁circumst	-4932
▁mountains	-4933
▁producing	-4934
▁relatively	-4935
▁'9	-4936
bors	-4937
usive	-4938
▁bran	-4939
▁maps	-4940
▁define	-4941
▁consist	-4942
▁mistake	-4943
▁participate	-4944
rs	-4945
Don	-4946
fit	-4947
cont	-4948
itan	-4949
olly	-4950
▁Lad	-4951
▁san	-4952
▁chap	-4953
▁pray	-4954
▁sees	-4955
itarian	-4956
▁assist	-4957
▁blocks	-4958
▁buying	-4959
▁former	-4960
▁contain	-4961
▁extract	-4962
▁memories	-4963
▁invention	-4964
▁foundation	-4965
uh	-4966
mas	-4967
abet	-4968
▁Yet	-4969
▁pal	-4970
▁ped	-4971
▁rub	-4972
icago	-4973
▁cure	-4974
▁lady	-4975
▁unus	-4976
▁fewer	-4977
▁obser	-4978
▁refer	-4979
▁satis	-4980
▁staff	-4981
▁formed	-4982
▁vaccine	-4983
▁generate	-4984
▁fundament	-4985
▁mathematical	-4986
lly	-4987
▁45	-4988
▁Qu	-4989
▁Mil	-4990
lying	-4991
▁evil	-4992
▁myst	-4993
▁ride	-4994
porary	-4995
stream	-4996
▁ideal	-4997
▁keeps	-4998
▁kitch	-4999
▁occup	-5000
▁bottle	-5001
▁forgot	-5002
▁Nigeria	-5003
▁centers	-5004
▁however	-5005
▁roughly	-5006
▁convince	-5007
▁establish	-5008
▁conversations	-5009
ov	-5010
▁II	-5011
oston	-5012
▁cave	-5013
▁intr	-5014
▁added	-5015
▁beach	-5016
▁input	-5017
▁serve	-5018
▁shoot	-5019
▁sides	-5020
▁analog	-5021
chnology	-5022
▁Chicago	-5023
▁neighbors	-5024
▁combination	-5025
1.	-5026
60	-5027
bre	-5028
log	-5029
▁75	-5030
▁Mart	-5031
▁bath	-5032
▁bill	-5033
▁shad	-5034
▁grain	-5035
▁reven	-5036
▁shall	-5037
▁factor	-5038
▁encoura	-5039
▁include	-5040
▁install	-5041
▁mosquit	-5042
▁carrying	-5043
▁Institute	-5044
▁worldwide	-5045
▁corruption	-5046
▁environments	-5047
▁manufacturing	-5048
▁GP	-5049
▁bul	-5050
▁lic	-5051
▁Alex	-5052
▁desk	-5053
▁mira	-5054
▁nose	-5055
father	-5056
▁pitch	-5057
▁steel	-5058
▁winter	-5059
▁actions	-5060
▁cartoon	-5061
▁outcome	-5062
▁affected	-5063
▁disaster	-5064
▁spectrum	-5065
▁increased	-5066
▁components	-5067
▁discussion	-5068
▁processing	-5069
▁ho	-5070
▁Sim	-5071
▁nav	-5072
▁YouT	-5073
▁decl	-5074
▁diss	-5075
▁inev	-5076
isters	-5077
ternal	-5078
▁James	-5079
▁hyper	-5080
▁pregn	-5081
▁teeth	-5082
▁Boston	-5083
▁compar	-5084
▁option	-5085
▁pulled	-5086
▁illegal	-5087
▁primary	-5088
▁consumer	-5089
▁existing	-5090
▁behaviors	-5091
▁molecular	-5092
▁introduced	-5093
▁situations	-5094
xim	-5095
▁99	-5096
▁Gh	-5097
hyth	-5098
mers	-5099
▁Ber	-5100
icing	-5101
ograp	-5102
vable	-5103
friend	-5104
▁Frank	-5105
▁Women	-5106
▁pengu	-5107
▁drives	-5108
▁status	-5109
▁thanks	-5110
▁YouTube	-5111
▁attacks	-5112
▁fishing	-5113
▁rational	-5114
▁symptoms	-5115
▁dinosaurs	-5116
▁employees	-5117
▁convention	-5118
▁protection	-5119
▁restaurant	-5120
what	-5121
▁Tur	-5122
▁Wik	-5123
▁adj	-5124
▁rom	-5125
icide	-5126
▁Bank	-5127
▁grid	-5128
▁pair	-5129
angers	-5130
rument	-5131
▁curve	-5132
▁dress	-5133
▁sugar	-5134
▁topic	-5135
▁arrest	-5136
▁liquid	-5137
▁applied	-5138
▁awesome	-5139
▁reached	-5140
abilities	-5141
▁concrete	-5142
▁mistakes	-5143
▁generally	-5144
▁hospitals	-5145
▁newspaper	-5146
▁traveling	-5147
▁definitely	-5148
▁meaningful	-5149
▁physically	-5150
▁potentially	-5151
▁sophisticated	-5152
can	-5153
▁Dep	-5154
▁Min	-5155
▁bow	-5156
ended	-5157
▁fert	-5158
▁lect	-5159
▁reci	-5160
▁thin	-5161
▁Steve	-5162
▁horiz	-5163
▁horse	-5164
▁interp	-5165
▁regard	-5166
▁sample	-5167
▁scared	-5168
▁season	-5169
▁severe	-5170
▁recorded	-5171
▁activities	-5172
▁destruction	-5173
atin	-5174
whel	-5175
▁Bro	-5176
▁que	-5177
olving	-5178
▁flies	-5179
▁shame	-5180
▁organs	-5181
▁sharks	-5182
▁kitchen	-5183
▁quarter	-5184
▁unusual	-5185
▁viruses	-5186
▁awareness	-5187
▁interests	-5188
▁instrument	-5189
ta	-5190
uits	-5191
nding	-5192
▁Four	-5193
▁runs	-5194
▁spin	-5195
▁Other	-5196
▁atoms	-5197
▁cyber	-5198
▁false	-5199
▁goods	-5200
▁Anyway	-5201
▁desper	-5202
▁mirror	-5203
▁perman	-5204
▁dropped	-5205
▁regions	-5206
▁abstract	-5207
▁stronger	-5208
▁protected	-5209
▁radiation	-5210
▁typically	-5211
▁inspiration	-5212
▁photographs	-5213
▁fundamentally	-5214
bur	-5215
igm	-5216
ita	-5217
aren	-5218
cred	-5219
gent	-5220
▁Mic	-5221
▁bee	-5222
▁iPh	-5223
eline	-5224
etics	-5225
▁Coll	-5226
▁dogs	-5227
▁hung	-5228
▁suit	-5229
▁estim	-5230
▁garden	-5231
▁options	-5232
▁witness	-5233
▁password	-5234
▁prepared	-5235
▁passionate	-5236
spe	-5237
▁ju	-5238
ifth	-5239
ront	-5240
▁Gal	-5241
aters	-5242
ework	-5243
gment	-5244
▁Also	-5245
▁tank	-5246
▁dedic	-5247
▁Muslim	-5248
▁joined	-5249
▁senses	-5250
▁spring	-5251
▁Michael	-5252
▁dramatic	-5253
▁overwhel	-5254
▁innovative	-5255
umps	-5256
▁194	-5257
▁asp	-5258
▁acqu	-5259
▁biom	-5260
▁renew	-5261
▁France	-5262
▁Nobody	-5263
▁bubble	-5264
▁conver	-5265
▁Perhaps	-5266
▁empathy	-5267
▁empower	-5268
▁feature	-5269
▁pleasure	-5270
▁ultimate	-5271
▁collected	-5272
▁explained	-5273
▁framework	-5274
▁mechanism	-5275
▁naturally	-5276
▁providing	-5277
▁personally	-5278
▁challenging	-5279
▁collaboration	-5280
80	-5281
cal	-5282
rat	-5283
▁US	-5284
Look	-5285
berg	-5286
▁cast	-5287
▁vert	-5288
▁aging	-5289
▁notes	-5290
▁sweet	-5291
▁Valley	-5292
▁attend	-5293
▁clever	-5294
▁sports	-5295
▁Charles	-5296
▁fiction	-5297
▁gravity	-5298
▁operate	-5299
▁apparent	-5300
▁features	-5301
▁mortality	-5302
▁conservation	-5303
▁technological	-5304
500	-5305
iat	-5306
gged	-5307
ingu	-5308
▁Jer	-5309
▁cha	-5310
▁eld	-5311
enced	-5312
▁drag	-5313
▁pian	-5314
▁memor	-5315
itution	-5316
▁aftern	-5317
▁contem	-5318
▁ingred	-5319
▁clothes	-5320
▁instrum	-5321
▁confront	-5322
▁hydrogen	-5323
▁organism	-5324
▁relevant	-5325
▁ancestors	-5326
▁2.	-5327
▁anx	-5328
▁dip	-5329
▁rig	-5330
▁sen	-5331
point	-5332
▁hits	-5333
▁navig	-5334
▁ought	-5335
▁tests	-5336
inction	-5337
▁Russia	-5338
▁driven	-5339
▁handle	-5340
▁sphere	-5341
▁survey	-5342
▁falling	-5343
▁harvest	-5344
▁privacy	-5345
▁sensors	-5346
▁silence	-5347
▁internal	-5348
▁transfer	-5349
▁computing	-5350
▁narrative	-5351
▁practical	-5352
▁terrorism	-5353
▁underwater	-5354
ris	-5355
▁Em	-5356
asks	-5357
ault	-5358
hips	-5359
opia	-5360
▁CEO	-5361
orous	-5362
▁Talk	-5363
▁clip	-5364
▁plus	-5365
▁ring	-5366
▁While	-5367
▁auton	-5368
▁coord	-5369
▁uncom	-5370
▁acting	-5371
▁replic	-5372
▁solved	-5373
▁studio	-5374
▁amounts	-5375
▁figures	-5376
▁antibiot	-5377
▁printing	-5378
▁vehicles	-5379
▁pollution	-5380
▁algorithms	-5381
▁productive	-5382
▁applications	-5383
▁transportation	-5384
20	-5385
uls	-5386
vis	-5387
▁Jan	-5388
▁wel	-5389
▁Part	-5390
▁eggs	-5391
▁horm	-5392
▁joke	-5393
▁doubt	-5394
▁lying	-5395
▁polar	-5396
▁storm	-5397
▁thick	-5398
▁toxic	-5399
▁tumor	-5400
eration	-5401
▁fisher	-5402
▁tested	-5403
▁Angeles	-5404
▁remains	-5405
▁equality	-5406
▁horrible	-5407
▁afternoon	-5408
▁democratic	-5409
▁efficiency	-5410
In	-5411
gl	-5412
ss	-5413
ham	-5414
mes	-5415
ums	-5416
olic	-5417
▁Art	-5418
▁Pac	-5419
▁spo	-5420
scale	-5421
▁Mont	-5422
▁fake	-5423
▁hunt	-5424
▁mile	-5425
▁wars	-5426
iosity	-5427
▁State	-5428
▁clock	-5429
▁hoping	-5430
▁puzzle	-5431
▁equally	-5432
▁singing	-5433
▁younger	-5434
▁policies	-5435
▁functions	-5436
▁confidence	-5437
▁literature	-5438
▁perception	-5439
▁Dem	-5440
▁Mon	-5441
▁Rob	-5442
▁mak	-5443
being	-5444
▁tape	-5445
▁Korea	-5446
▁domin	-5447
▁initi	-5448
▁ridic	-5449
▁skill	-5450
▁songs	-5451
▁taste	-5452
▁border	-5453
▁fabric	-5454
▁parall	-5455
▁breathe	-5456
▁burning	-5457
▁chicken	-5458
▁fingers	-5459
▁parking	-5460
▁contrast	-5461
▁domestic	-5462
▁election	-5463
▁proteins	-5464
▁swimming	-5465
▁authority	-5466
▁appreciate	-5467
▁surrounded	-5468
ads	-5469
och	-5470
▁Unf	-5471
▁cere	-5472
▁diam	-5473
▁lens	-5474
▁nurs	-5475
▁outc	-5476
Americ	-5477
▁Paris	-5478
▁chose	-5479
▁court	-5480
▁frame	-5481
▁multi	-5482
▁boring	-5483
▁church	-5484
▁cortex	-5485
▁comment	-5486
▁defined	-5487
▁intense	-5488
▁musical	-5489
▁visible	-5490
▁operation	-5491
▁conclusion	-5492
▁Day	-5493
▁Pol	-5494
▁toy	-5495
▁Five	-5496
▁mere	-5497
▁obst	-5498
▁subs	-5499
▁zoom	-5500
▁3,000	-5501
▁score	-5502
▁stret	-5503
▁agreed	-5504
▁critic	-5505
▁reject	-5506
cription	-5507
▁housing	-5508
▁unknown	-5509
▁violent	-5510
▁accurate	-5511
▁combined	-5512
▁infected	-5513
▁Something	-5514
▁constrain	-5515
▁emergency	-5516
▁marketing	-5517
▁Unfortunately	-5518
ls	-5519
itual	-5520
▁bicy	-5521
▁milk	-5522
▁pill	-5523
▁scar	-5524
athers	-5525
▁fixed	-5526
▁rooms	-5527
▁advice	-5528
▁deploy	-5529
▁remove	-5530
▁rocket	-5531
▁stayed	-5532
▁worker	-5533
▁discipl	-5534
▁evening	-5535
▁nowhere	-5536
▁psychology	-5537
▁circumstances	-5538
yn	-5539
den	-5540
itz	-5541
mal	-5542
osh	-5543
▁Ma	-5544
anta	-5545
oons	-5546
▁Mal	-5547
▁gut	-5548
lines	-5549
▁club	-5550
▁cord	-5551
▁flew	-5552
▁tack	-5553
▁zone	-5554
herent	-5555
▁hotel	-5556
▁roads	-5557
▁stone	-5558
▁teams	-5559
▁title	-5560
▁iPhone	-5561
▁suffer	-5562
▁volume	-5563
▁Project	-5564
▁combine	-5565
▁command	-5566
▁largely	-5567
▁tonight	-5568
▁occurred	-5569
▁somewhat	-5570
▁sunlight	-5571
▁wireless	-5572
▁percentage	-5573
▁psychological	-5574
orb	-5575
sem	-5576
▁Ac	-5577
foot	-5578
▁Eth	-5579
▁Come	-5580
▁Only	-5581
▁Port	-5582
▁Stan	-5583
▁busy	-5584
▁orch	-5585
arrass	-5586
illing	-5587
owered	-5588
▁abuse	-5589
▁admit	-5590
▁angry	-5591
▁cents	-5592
▁depth	-5593
▁films	-5594
▁recom	-5595
▁trend	-5596
▁unexp	-5597
▁upper	-5598
▁Health	-5599
▁deaths	-5600
▁inject	-5601
▁borders	-5602
▁records	-5603
▁birthday	-5604
▁download	-5605
▁implement	-5606
▁interpret	-5607
▁sustainability	-5608
5.	-5609
aser	-5610
▁600	-5611
▁Law	-5612
▁Rev	-5613
ingly	-5614
itors	-5615
stand	-5616
▁Sept	-5617
▁loud	-5618
▁trig	-5619
▁wine	-5620
▁Wikip	-5621
▁judge	-5622
▁plans	-5623
▁prime	-5624
▁assume	-5625
▁button	-5626
▁genius	-5627
aneously	-5628
onscious	-5629
▁advance	-5630
▁allowing	-5631
▁constant	-5632
▁presentation	-5633
adic	-5634
over	-5635
▁GPS	-5636
▁ack	-5637
aming	-5638
▁pool	-5639
making	-5640
ounced	-5641
source	-5642
▁Found	-5643
▁Micro	-5644
▁flood	-5645
▁resil	-5646
▁split	-5647
▁cooking	-5648
▁electro	-5649
▁suppose	-5650
▁presence	-5651
▁September	-5652
▁centuries	-5653
▁embarrass	-5654
▁sensitive	-5655
▁statement	-5656
▁department	-5657
▁unexpected	-5658
▁exploration	-5659
St	-5660
ula	-5661
▁23	-5662
elly	-5663
▁Air	-5664
▁Med	-5665
▁Thom	-5666
▁barr	-5667
▁elev	-5668
▁5,000	-5669
▁House	-5670
▁plate	-5671
▁theme	-5672
▁youth	-5673
▁Before	-5674
▁Number	-5675
▁explos	-5676
ollywood	-5677
▁embrace	-5678
▁offered	-5679
▁creature	-5680
▁instruct	-5681
▁outcomes	-5682
▁selection	-5683
▁resistance	-5684
▁explanation	-5685
ias	-5686
nes	-5687
ola	-5688
onds	-5689
▁bes	-5690
▁Adam	-5691
▁glam	-5692
▁grab	-5693
▁item	-5694
▁sets	-5695
▁About	-5696
▁bones	-5697
▁expon	-5698
▁frank	-5699
▁divide	-5700
▁flower	-5701
▁laptop	-5702
▁string	-5703
▁Finally	-5704
▁overall	-5705
▁pushing	-5706
▁reverse	-5707
▁therapy	-5708
▁distinct	-5709
▁tracking	-5710
▁wondered	-5711
▁Wikipedia	-5712
▁controlled	-5713
▁greenhouse	-5714
▁grandfather	-5715
8.	-5716
fin	-5717
▁Fe	-5718
Yeah	-5719
ctic	-5720
▁Sil	-5721
▁dot	-5722
▁meg	-5723
uting	-5724
▁Mary	-5725
▁mice	-5726
▁boxes	-5727
▁faced	-5728
▁rocks	-5729
▁narrow	-5730
▁patent	-5731
▁ritual	-5732
▁closely	-5733
▁existed	-5734
▁library	-5735
▁receive	-5736
▁solving	-5737
▁floating	-5738
▁maintain	-5739
▁destroyed	-5740
▁determine	-5741
▁technique	-5742
▁capitalism	-5743
▁laboratory	-5744
▁appropriate	-5745
My	-5746
ih	-5747
▁27	-5748
xide	-5749
▁hur	-5750
belie	-5751
ching	-5752
entic	-5753
▁Mark	-5754
▁cosm	-5755
▁disg	-5756
▁furn	-5757
▁pump	-5758
called	-5759
▁aston	-5760
▁crack	-5761
▁datab	-5762
▁error	-5763
▁label	-5764
onymous	-5765
▁enable	-5766
▁ladies	-5767
▁marine	-5768
▁signed	-5769
▁struck	-5770
▁Pacific	-5771
▁causing	-5772
▁feeding	-5773
▁flowers	-5774
▁savings	-5775
▁administ	-5776
▁drinking	-5777
▁application	-5778
But	-5779
ups	-5780
heim	-5781
look	-5782
▁van	-5783
acing	-5784
arant	-5785
iture	-5786
▁clus	-5787
▁cock	-5788
▁ears	-5789
▁silk	-5790
▁Never	-5791
▁guide	-5792
▁logic	-5793
▁march	-5794
▁weigh	-5795
▁acknow	-5796
▁extent	-5797
▁myster	-5798
▁aspects	-5799
▁channel	-5800
▁conclud	-5801
▁corresp	-5802
▁director	-5803
▁equation	-5804
▁measured	-5805
▁provided	-5806
▁subjects	-5807
▁customers	-5808
▁presented	-5809
▁spiritual	-5810
▁transformed	-5811
ata	-5812
▁aim	-5813
▁tab	-5814
▁dign	-5815
▁elim	-5816
▁hook	-5817
▁icon	-5818
asters	-5819
▁Black	-5820
▁Count	-5821
▁Obama	-5822
▁globe	-5823
▁grows	-5824
▁limits	-5825
▁papers	-5826
▁scenar	-5827
▁Science	-5828
▁carried	-5829
▁decline	-5830
▁diction	-5831
▁extinct	-5832
▁neither	-5833
▁samples	-5834
connected	-5835
▁Everyone	-5836
▁engaging	-5837
▁hypothes	-5838
▁suggests	-5839
▁villages	-5840
▁breathing	-5841
▁architects	-5842
agn	-5843
box	-5844
nic	-5845
que	-5846
vey	-5847
▁["	-5848
iled	-5849
rors	-5850
▁pin	-5851
▁acts	-5852
▁firm	-5853
▁wash	-5854
▁Mount	-5855
▁chrom	-5856
▁scary	-5857
▁tired	-5858
▁lifest	-5859
▁relate	-5860
▁stands	-5861
ographer	-5862
▁circuit	-5863
▁classes	-5864
▁transpl	-5865
▁vessels	-5866
▁collapse	-5867
▁economists	-5868
▁dramatically	-5869
Is	-5870
dr	-5871
za	-5872
nda	-5873
▁22	-5874
▁La	-5875
iety	-5876
▁raw	-5877
eness	-5878
iters	-5879
ounce	-5880
▁June	-5881
▁chip	-5882
▁choo	-5883
▁impl	-5884
▁stri	-5885
▁stro	-5886
▁Apple	-5887
▁colum	-5888
▁falls	-5889
▁flash	-5890
▁knock	-5891
▁males	-5892
▁pharm	-5893
▁phase	-5894
▁piano	-5895
▁Museum	-5896
▁Please	-5897
▁clinic	-5898
▁encoun	-5899
▁owners	-5900
▁phrase	-5901
▁January	-5902
▁balloon	-5903
▁suicide	-5904
▁Remember	-5905
▁brothers	-5906
▁Christmas	-5907
▁spreading	-5908
▁standards	-5909
▁electronic	-5910
▁mathematic	-5911
▁implications	-5912
alu	-5913
emb	-5914
vas	-5915
▁ru	-5916
Okay	-5917
keys	-5918
omic	-5919
rade	-5920
▁Bab	-5921
▁mad	-5922
▁army	-5923
▁lets	-5924
▁ours	-5925
▁root	-5926
▁Antar	-5927
▁Latin	-5928
▁dozen	-5929
▁secure	-5930
etically	-5931
inations	-5932
▁anticip	-5933
▁wherever	-5934
▁Basically	-5935
▁economies	-5936
▁privilege	-5937
▁recording	-5938
/1	-5939
uum	-5940
▁Ke	-5941
east	-5942
tail	-5943
▁Che	-5944
▁Jul	-5945
icted	-5946
▁gras	-5947
arency	-5948
▁decre	-5949
▁Global	-5950
▁Thomas	-5951
▁evolve	-5952
▁linked	-5953
▁pocket	-5954
▁portra	-5955
▁whales	-5956
▁frankly	-5957
▁proport	-5958
▁surgeon	-5959
▁windows	-5960
▁paradigm	-5961
▁vaccines	-5962
▁arguments	-5963
▁committed	-5964
▁continued	-5965
▁prototype	-5966
▁mechanical	-5967
▁educational	-5968
▁instruments	-5969
▁personality	-5970
▁recognition	-5971
hol	-5972
aint	-5973
hour	-5974
soft	-5975
tech	-5976
▁Jim	-5977
▁Sam	-5978
▁ath	-5979
▁cup	-5980
sters	-5981
▁biod	-5982
profit	-5983
▁Human	-5984
▁Union	-5985
▁accum	-5986
▁anger	-5987
▁explo	-5988
▁legis	-5989
▁prize	-5990
▁stere	-5991
▁tight	-5992
▁barely	-5993
▁fright	-5994
▁placed	-5995
▁scream	-5996
▁finance	-5997
▁Republic	-5998
▁occasion	-5999
▁overcome	-6000
▁properly	-6001
▁celebrate	-6002
▁component	-6003
▁identical	-6004
▁measuring	-6005
▁represented	-6006
▁automatically	-6007
wr	-6008
▁Gl	-6009
▁NG	-6010
▁Sa	-6011
cers	-6012
illy	-6013
rant	-6014
well	-6015
▁10,	-6016
▁250	-6017
▁irr	-6018
level	-6019
▁Next	-6020
▁bike	-6021
▁gray	-6022
▁limb	-6023
▁neut	-6024
▁seek	-6025
▁breed	-6026
▁dense	-6027
▁honey	-6028
▁walks	-6029
▁clouds	-6030
▁diplom	-6031
▁embedd	-6032
▁monkey	-6033
▁profit	-6034
▁storyt	-6035
▁chromos	-6036
▁efforts	-6037
▁painful	-6038
▁shoulder	-6039
▁traveled	-6040
▁colleague	-6041
▁insurance	-6042
▁translate	-6043
▁microscope	-6044
▁populations	-6045
▁entertainment	-6046
bl	-6047
tes	-6048
uce	-6049
bage	-6050
lymp	-6051
nded	-6052
▁pul	-6053
▁twe	-6054
inals	-6055
▁Gold	-6056
▁gest	-6057
▁nest	-6058
▁poly	-6059
▁fruit	-6060
▁recyc	-6061
▁Island	-6062
▁Robert	-6063
▁rising	-6064
▁thrown	-6065
▁Central	-6066
▁careful	-6067
▁classic	-6068
▁dancing	-6069
▁achieved	-6070
▁imagined	-6071
▁instinct	-6072
▁parallel	-6073
▁curiosity	-6074
▁increases	-6075
▁precisely	-6076
▁distributed	-6077
4.	-6078
bi	-6079
gic	-6080
erge	-6081
ogue	-6082
oned	-6083
otes	-6084
▁Cop	-6085
▁bat	-6086
▁fan	-6087
▁hem	-6088
itory	-6089
otion	-6090
using	-6091
▁Comm	-6092
▁dust	-6093
ateful	-6094
imeter	-6095
▁Olymp	-6096
▁humor	-6097
▁maxim	-6098
▁polio	-6099
▁candid	-6100
▁missed	-6101
▁pushed	-6102
▁script	-6103
▁cheaper	-6104
▁collaps	-6105
▁conserv	-6106
▁guarant	-6107
▁methods	-6108
▁wanting	-6109
▁infinite	-6110
▁footprint	-6111
▁directions	-6112
▁performing	-6113
70	-6114
mm	-6115
gly	-6116
iel	-6117
oca	-6118
aret	-6119
iday	-6120
ille	-6121
rary	-6122
rect	-6123
rets	-6124
▁Spe	-6125
▁lun	-6126
▁1950	-6127
▁glob	-6128
▁tent	-6129
▁ther	-6130
arters	-6131
licity	-6132
rating	-6133
▁Ghana	-6134
▁ignor	-6135
▁persu	-6136
▁shell	-6137
▁style	-6138
▁whist	-6139
▁Sweden	-6140
▁interf	-6141
▁mainly	-6142
▁toilet	-6143
▁mystery	-6144
▁raising	-6145
▁robotic	-6146
▁spectac	-6147
▁academic	-6148
▁disorder	-6149
▁Microsoft	-6150
▁exploring	-6151
▁collecting	-6152
▁journalist	-6153
ek	-6154
▁Ah	-6155
uity	-6156
▁Haw	-6157
▁ben	-6158
▁sne	-6159
eters	-6160
iance	-6161
iform	-6162
▁boss	-6163
▁loop	-6164
▁mush	-6165
▁bombs	-6166
▁enemy	-6167
▁stack	-6168
▁tasks	-6169
▁vital	-6170
raction	-6171
through	-6172
▁crying	-6173
▁hunger	-6174
▁obstac	-6175
▁repair	-6176
▁appears	-6177
▁entered	-6178
▁inspire	-6179
▁mammals	-6180
▁poorest	-6181
▁captured	-6182
▁illusion	-6183
▁produces	-6184
▁Hollywood	-6185
▁apartment	-6186
▁Foundation	-6187
▁Revolution	-6188
▁accessible	-6189
▁connecting	-6190
▁volunteers	-6191
▁conventional	-6192
▁expectations	-6193
Be	-6194
ape	-6195
azz	-6196
ban	-6197
son	-6198
▁py	-6199
▁Pan	-6200
▁Pat	-6201
▁vag	-6202
attan	-6203
earch	-6204
oster	-6205
▁Ethi	-6206
▁pace	-6207
▁prem	-6208
▁alien	-6209
▁blank	-6210
▁seeds	-6211
▁toler	-6212
▁traum	-6213
▁whale	-6214
▁assemb	-6215
▁filter	-6216
▁hearts	-6217
▁immune	-6218
▁proced	-6219
▁spinal	-6220
▁designs	-6221
▁diverse	-6222
▁removed	-6223
▁Africans	-6224
▁obsessed	-6225
▁pregnant	-6226
▁corporate	-6227
▁disorders	-6228
▁behavioral	-6229
▁exhibition	-6230
▁recognized	-6231
▁controlling	-6232
oes	-6233
cean	-6234
rous	-6235
▁Bon	-6236
▁Dis	-6237
▁gig	-6238
▁tea	-6239
aving	-6240
opher	-6241
pring	-6242
usted	-6243
▁Gulf	-6244
▁Manh	-6245
▁bias	-6246
▁leap	-6247
▁White	-6248
▁aside	-6249
▁metab	-6250
▁orbit	-6251
▁plays	-6252
▁smoke	-6253
▁tries	-6254
erences	-6255
iveness	-6256
▁escape	-6257
▁geomet	-6258
▁invite	-6259
▁traged	-6260
▁citizen	-6261
▁density	-6262
▁herself	-6263
▁rebuild	-6264
▁slavery	-6265
▁synthes	-6266
▁whereas	-6267
▁appeared	-6268
▁darkness	-6269
▁meetings	-6270
▁reaching	-6271
ologically	-6272
▁Manhattan	-6273
▁consumers	-6274
▁household	-6275
▁permanent	-6276
▁reference	-6277
▁telescope	-6278
▁uncomfort	-6279
▁fascinated	-6280
▁philosophy	-6281
▁interacting	-6282
▁experiencing	-6283
▁interactions	-6284
Let	-6285
▁Po	-6286
ener	-6287
iggs	-6288
wich	-6289
▁Pre	-6290
▁Sec	-6291
clear	-6292
licit	-6293
mates	-6294
▁plot	-6295
▁champ	-6296
▁drove	-6297
▁units	-6298
▁wound	-6299
illance	-6300
▁astero	-6301
▁chocol	-6302
▁hungry	-6303
▁ignore	-6304
▁needle	-6305
▁pollen	-6306
▁writer	-6307
▁earthqu	-6308
▁prosper	-6309
▁unbelie	-6310
▁accepted	-6311
▁concepts	-6312
▁embedded	-6313
▁grateful	-6314
▁isolated	-6315
▁reported	-6316
▁treating	-6317
▁depending	-6318
▁recommend	-6319
▁telephone	-6320
▁contribute	-6321
▁resolution	-6322
▁interactive	-6323
▁universities	-6324
aks	-6325
ari	-6326
bal	-6327
cut	-6328
emp	-6329
hib	-6330
org	-6331
sum	-6332
amin	-6333
case	-6334
▁Get	-6335
▁gla	-6336
▁sed	-6337
esign	-6338
esity	-6339
leton	-6340
orter	-6341
while	-6342
▁Bush	-6343
▁cash	-6344
astern	-6345
▁Inter	-6346
▁Super	-6347
▁abund	-6348
▁adopt	-6349
▁delic	-6350
▁dirty	-6351
▁sales	-6352
▁schol	-6353
anthrop	-6354
attered	-6355
▁colony	-6356
▁devast	-6357
▁plenty	-6358
▁victim	-6359
▁exposed	-6360
▁habitat	-6361
▁license	-6362
▁organize	-6363
▁romantic	-6364
▁authentic	-6365
▁confident	-6366
▁practices	-6367
▁uncertain	-6368
▁commitment	-6369
▁strategies	-6370
fl	-6371
iac	-6372
ota	-6373
rid	-6374
sey	-6375
▁Op	-6376
ello	-6377
exas	-6378
keep	-6379
onna	-6380
walk	-6381
▁Lab	-6382
▁NGO	-6383
▁Nat	-6384
▁Syr	-6385
copes	-6386
under	-6387
▁Jack	-6388
▁Jeff	-6389
▁dict	-6390
▁golf	-6391
▁lung	-6392
▁pour	-6393
▁rush	-6394
lessly	-6395
▁Democ	-6396
▁likes	-6397
▁recru	-6398
century	-6399
ishment	-6400
▁heroes	-6401
▁repeat	-6402
▁retire	-6403
▁Nations	-6404
▁Nothing	-6405
▁dignity	-6406
▁divided	-6407
▁attached	-6408
▁elephant	-6409
▁involves	-6410
▁vertical	-6411
▁productivity	-6412
▁International	-6413
▁uncomfortable	-6414
3.	-6415
7.	-6416
PA	-6417
appy	-6418
esis	-6419
osen	-6420
▁Cor	-6421
▁Oct	-6422
▁Tor	-6423
▁beg	-6424
▁enh	-6425
▁tip	-6426
hythm	-6427
think	-6428
▁Narr	-6429
▁pink	-6430
▁sacr	-6431
phones	-6432
▁Higgs	-6433
▁Texas	-6434
▁banks	-6435
▁doors	-6436
▁fluid	-6437
▁fuels	-6438
▁utter	-6439
ogether	-6440
▁behave	-6441
▁eradic	-6442
▁fertil	-6443
▁latest	-6444
▁legacy	-6445
▁satisf	-6446
children	-6447
▁airport	-6448
▁monkeys	-6449
▁muscles	-6450
▁controls	-6451
▁globally	-6452
▁hardware	-6453
▁magnetic	-6454
▁shooting	-6455
▁lifestyle	-6456
▁apparently	-6457
▁controvers	-6458
▁engagement	-6459
▁entrepreneur	-6460
han	-6461
nels	-6462
ship	-6463
zens	-6464
▁Mad	-6465
▁bon	-6466
▁spr	-6467
▁tag	-6468
flies	-6469
worth	-6470
▁Turn	-6471
▁cous	-6472
▁cute	-6473
▁emph	-6474
▁flip	-6475
▁ugly	-6476
▁vibr	-6477
ivered	-6478
orking	-6479
ptions	-6480
▁aband	-6481
▁fifth	-6482
▁attrib	-6483
▁borrow	-6484
▁corals	-6485
▁defend	-6486
▁facial	-6487
▁lovely	-6488
▁powers	-6489
▁slides	-6490
▁surely	-6491
▁concern	-6492
▁scratch	-6493
▁sisters	-6494
▁Atlantic	-6495
▁district	-6496
▁recovery	-6497
▁paintings	-6498
▁searching	-6499
▁antibiotics	-6500
▁manufacture	-6501
▁transparency	-6502
▁neighborhoods	-6503
6.	-6504
gers	-6505
▁9/1	-6506
▁dio	-6507
angle	-6508
isons	-6509
osure	-6510
▁fulf	-6511
▁prev	-6512
▁till	-6513
▁tube	-6514
abetes	-6515
mented	-6516
▁Voice	-6517
▁brown	-6518
▁chief	-6519
▁crops	-6520
▁liver	-6521
▁usual	-6522
▁excell	-6523
▁layers	-6524
▁oldest	-6525
▁prices	-6526
▁scales	-6527
▁beliefs	-6528
▁diagram	-6529
▁lecture	-6530
▁parties	-6531
▁Stanford	-6532
▁breaking	-6533
▁estimate	-6534
▁particle	-6535
▁provides	-6536
▁stations	-6537
▁textbook	-6538
▁dedicated	-6539
▁virtually	-6540
▁cooperation	-6541
▁surveillance	-6542
uk	-6543
hop	-6544
top	-6545
▁Hi	-6546
▁Rw	-6547
▁id	-6548
ched	-6549
zees	-6550
▁Jes	-6551
▁ate	-6552
▁tri	-6553
There	-6554
agger	-6555
ckets	-6556
iated	-6557
▁rent	-6558
apping	-6559
▁Congo	-6560
▁Grand	-6561
▁Space	-6562
▁Woman	-6563
▁helic	-6564
▁purch	-6565
▁yield	-6566
section	-6567
▁Indeed	-6568
▁rescue	-6569
▁spider	-6570
▁weapon	-6571
▁amongst	-6572
▁instant	-6573
▁obesity	-6574
▁pretend	-6575
▁reconst	-6576
▁section	-6577
▁visited	-6578
▁delivered	-6579
▁elsewhere	-6580
▁furniture	-6581
▁intuitive	-6582
▁sculpture	-6583
▁historical	-6584
▁optimistic	-6585
▁consequence	-6586
▁underground	-6587
AR	-6588
ida	-6589
▁Hy	-6590
ideo	-6591
lims	-6592
ocal	-6593
tery	-6594
ubes	-6595
udes	-6596
▁Bay	-6597
▁Boy	-6598
▁Del	-6599
▁unp	-6600
archy	-6601
class	-6602
iders	-6603
▁High	-6604
▁Pole	-6605
▁ages	-6606
▁axis	-6607
▁corn	-6608
▁lock	-6609
▁rely	-6610
anzees	-6611
▁digit	-6612
▁skull	-6613
▁views	-6614
▁Martin	-6615
▁agenda	-6616
▁hardly	-6617
▁Islamic	-6618
▁crucial	-6619
▁dioxide	-6620
▁distant	-6621
▁federal	-6622
▁impacts	-6623
▁initial	-6624
▁monitor	-6625
▁opposed	-6626
▁suspect	-6627
▁football	-6628
▁laughing	-6629
▁mushroom	-6630
▁penguins	-6631
▁algorithm	-6632
▁backwards	-6633
▁generated	-6634
▁inspiring	-6635
▁intention	-6636
▁mechanics	-6637
▁reduction	-6638
▁functional	-6639
▁incentives	-6640
aws	-6641
emic	-6642
lete	-6643
▁Leg	-6644
▁Nob	-6645
▁lin	-6646
▁mim	-6647
power	-6648
▁1990	-6649
▁Budd	-6650
▁Cons	-6651
▁cens	-6652
▁hire	-6653
▁Peter	-6654
▁chest	-6655
▁minor	-6656
▁sheep	-6657
▁spark	-6658
▁upset	-6659
▁yours	-6660
uration	-6661
▁capita	-6662
▁chosen	-6663
▁conven	-6664
▁dozens	-6665
▁frozen	-6666
▁locked	-6667
American	-6668
▁recover	-6669
▁focusing	-6670
▁encounter	-6671
▁Department	-6672
-1	-6673
hen	-6674
oir	-6675
doll	-6676
pass	-6677
▁hat	-6678
▁lob	-6679
alian	-6680
▁Back	-6681
▁Step	-6682
▁Wall	-6683
▁beer	-6684
▁earn	-6685
▁peer	-6686
▁rail	-6687
▁sket	-6688
▁Haiti	-6689
▁conce	-6690
▁laser	-6691
▁meter	-6692
▁pyram	-6693
▁route	-6694
▁stops	-6695
▁wings	-6696
forward	-6697
ughters	-6698
▁Palest	-6699
▁paraly	-6700
▁silent	-6701
▁stable	-6702
▁William	-6703
▁concert	-6704
▁delight	-6705
▁orchest	-6706
▁picking	-6707
▁Narrator	-6708
▁agencies	-6709
▁sandwich	-6710
▁investing	-6711
▁advertising	-6712
▁disappeared	-6713
▁spectacular	-6714
▁communications	-6715
ka	-6716
▁65	-6717
▁DH	-6718
fall	-6719
▁Eve	-6720
▁Tal	-6721
▁tro	-6722
▁wip	-6723
▁Stud	-6724
▁dish	-6725
▁Nobel	-6726
▁Scott	-6727
▁imper	-6728
▁reput	-6729
▁50,000	-6730
▁Really	-6731
▁poison	-6732
▁spoken	-6733
▁surviv	-6734
▁charity	-6735
▁consume	-6736
▁disrupt	-6737
▁essence	-6738
▁granted	-6739
▁printed	-6740
▁touched	-6741
▁external	-6742
▁refugees	-6743
▁animation	-6744
▁chocolate	-6745
▁integrated	-6746
▁motivation	-6747
▁protecting	-6748
▁electronics	-6749
▁transparent	-6750
▁breakthrough	-6751
▁characteristics	-6752
9.	-6753
ua	-6754
ali	-6755
asy	-6756
bed	-6757
bra	-6758
oma	-6759
▁$1	-6760
ding	-6761
oded	-6762
osal	-6763
oust	-6764
▁195	-6765
▁Ice	-6766
▁Net	-6767
▁aqu	-6768
▁cab	-6769
▁wet	-6770
allow	-6771
cence	-6772
going	-6773
quare	-6774
▁Arch	-6775
▁debt	-6776
▁dive	-6777
▁excl	-6778
▁fool	-6779
▁quit	-6780
heimer	-6781
▁Italy	-6782
▁Video	-6783
▁pilot	-6784
▁shake	-6785
▁sheet	-6786
▁tears	-6787
▁expans	-6788
▁output	-6789
▁shadow	-6790
▁talent	-6791
▁trends	-6792
▁anxiety	-6793
▁bicycle	-6794
▁ceiling	-6795
▁letting	-6796
▁passing	-6797
▁refugee	-6798
▁astronom	-6799
▁diabetes	-6800
▁northern	-6801
▁repeated	-6802
▁theories	-6803
▁objective	-6804
▁affordable	-6805
▁mechanisms	-6806
▁transplant	-6807
▁photography	-6808
▁programming	-6809
▁participation	-6810
arp	-6811
cel	-6812
ras	-6813
▁Bu	-6814
born	-6815
ione	-6816
▁Fin	-6817
▁Rio	-6818
▁Vir	-6819
▁gam	-6820
▁gro	-6821
▁obl	-6822
▁wra	-6823
ctica	-6824
▁1980	-6825
▁Girl	-6826
▁alco	-6827
▁susp	-6828
mitted	-6829
othing	-6830
▁advoc	-6831
▁apple	-6832
▁drawn	-6833
▁drill	-6834
▁elder	-6835
▁gonna	-6836
▁legit	-6837
▁manif	-6838
▁marry	-6839
▁proof	-6840
▁veter	-6841
▁20,000	-6842
▁Jewish	-6843
▁absorb	-6844
▁actors	-6845
▁margin	-6846
▁orange	-6847
▁Muslims	-6848
▁clients	-6849
▁defense	-6850
▁hanging	-6851
▁officer	-6852
▁baseball	-6853
▁choosing	-6854
▁contains	-6855
▁dolphins	-6856
▁educated	-6857
▁Christian	-6858
▁announced	-6859
▁conflicts	-6860
▁continues	-6861
▁strangers	-6862
▁terrorist	-6863
▁Antarctica	-6864
▁rainforest	-6865
▁discoveries	-6866
▁ingredients	-6867
▁neuroscience	-6868
BI	-6869
▁x	-6870
ket	-6871
lyn	-6872
rol	-6873
uba	-6874
war	-6875
▁Ug	-6876
ober	-6877
▁Bob	-6878
▁Hom	-6879
▁ric	-6880
isted	-6881
omous	-6882
state	-6883
▁mold	-6884
▁tech	-6885
▁tied	-6886
dollar	-6887
usions	-6888
▁River	-6889
▁chaos	-6890
▁coach	-6891
▁finds	-6892
▁naked	-6893
▁punch	-6894
▁perpet	-6895
▁sacred	-6896
▁smooth	-6897
▁chapter	-6898
▁disturb	-6899
▁drivers	-6900
▁helicop	-6901
▁pointed	-6902
▁reduced	-6903
▁welcome	-6904
▁wheelch	-6905
▁Research	-6906
▁dominant	-6907
▁laughter	-6908
▁diagnosed	-6909
▁governance	-6910
▁struggling	-6911
▁demonstrate	-6912
So	-6913
li	-6914
▁Ox	-6915
▁na	-6916
fold	-6917
▁Fre	-6918
▁Sea	-6919
▁Ten	-6920
▁Was	-6921
▁hip	-6922
stage	-6923
▁1970	-6924
▁Sing	-6925
▁Tell	-6926
▁boom	-6927
▁east	-6928
▁kiss	-6929
▁pand	-6930
▁trop	-6931
utical	-6932
▁opens	-6933
▁paras	-6934
viously	-6935
▁emphas	-6936
▁nurses	-6937
▁reveal	-6938
▁settle	-6939
▁shaped	-6940
▁subtle	-6941
▁October	-6942
▁circles	-6943
▁happier	-6944
▁attitude	-6945
▁database	-6946
▁dynamics	-6947
▁inherent	-6948
▁lighting	-6949
▁shopping	-6950
▁southern	-6951
▁dimension	-6952
▁elections	-6953
▁boundaries	-6954
▁identified	-6955
▁ridiculous	-6956
▁astonishing	-6957
▁improvement	-6958
aj	-6959
Can	-6960
def	-6961
arsh	-6962
irds	-6963
thal	-6964
▁10-	-6965
▁der	-6966
▁fib	-6967
▁hol	-6968
▁pra	-6969
▁Span	-6970
▁bubb	-6971
▁quad	-6972
▁sink	-6973
▁4,000	-6974
▁angle	-6975
▁brave	-6976
▁diver	-6977
▁glaci	-6978
▁links	-6979
▁lungs	-6980
▁relax	-6981
▁strip	-6982
▁Things	-6983
▁adjust	-6984
▁agency	-6985
▁farmer	-6986
▁lawyer	-6987
▁neural	-6988
▁origin	-6989
▁senior	-6990
▁chances	-6991
▁painted	-6992
▁reports	-6993
▁session	-6994
▁symbols	-6995
▁tragedy	-6996
aceutical	-6997
▁surfaces	-6998
▁daughters	-6999
▁highlight	-7000
▁disability	-7001
▁simplicity	-7002
▁chimpanzees	-7003
▁innovations	-7004
mi	-7005
And	-7006
bul	-7007
edy	-7008
omb	-7009
▁32	-7010
▁Ap	-7011
▁Jo	-7012
icks	-7013
rons	-7014
▁Alz	-7015
▁Bel	-7016
▁nit	-7017
athan	-7018
front	-7019
gging	-7020
itate	-7021
tical	-7022
▁adap	-7023
▁enth	-7024
▁laid	-7025
▁mood	-7026
▁salt	-7027
arents	-7028
ietnam	-7029
▁Smith	-7030
▁edges	-7031
▁extre	-7032
▁flows	-7033
▁schem	-7034
▁intent	-7035
▁landed	-7036
▁rarely	-7037
▁richer	-7038
▁stages	-7039
▁tricks	-7040
▁anthrop	-7041
▁traject	-7042
▁bathroom	-7043
▁reminded	-7044
▁symmetry	-7045
▁Alzheimer	-7046
▁synthetic	-7047
▁disappoint	-7048
▁earthquake	-7049
▁philanthrop	-7050
▁probability	-7051
auc	-7052
ixt	-7053
izer	-7054
ulum	-7055
▁'60	-7056
▁MRI	-7057
▁mur	-7058
▁unh	-7059
Where	-7060
oding	-7061
▁Mand	-7062
▁dump	-7063
▁glad	-7064
▁incl	-7065
▁lift	-7066
▁neat	-7067
▁pile	-7068
▁Ocean	-7069
▁cryst	-7070
▁exped	-7071
▁monit	-7072
▁roots	-7073
▁seats	-7074
▁skept	-7075
▁threw	-7076
▁ultra	-7077
unction	-7078
▁adding	-7079
▁emerge	-7080
▁regret	-7081
▁served	-7082
▁shrimp	-7083
▁stores	-7084
▁consult	-7085
▁smoking	-7086
▁aircraft	-7087
▁artistic	-7088
▁informed	-7089
▁minister	-7090
▁returned	-7091
▁abilities	-7092
▁adventure	-7093
▁dependent	-7094
▁musicians	-7095
▁physicist	-7096
▁originally	-7097
▁permission	-7098
▁terrorists	-7099
▁assumptions	-7100
▁agricultural	-7101
▁intervention	-7102
ams	-7103
cap	-7104
erd	-7105
pox	-7106
ura	-7107
▁2,	-7108
▁Ok	-7109
▁gh	-7110
ason	-7111
rich	-7112
▁Sou	-7113
▁Sov	-7114
▁aer	-7115
▁dim	-7116
▁lux	-7117
▁caps	-7118
▁mail	-7119
▁sits	-7120
▁tear	-7121
▁toys	-7122
▁Bible	-7123
▁Third	-7124
▁blame	-7125
▁fract	-7126
▁holds	-7127
▁realm	-7128
▁thumb	-7129
▁unpre	-7130
astroph	-7131
igation	-7132
▁Uganda	-7133
▁athlet	-7134
▁commod	-7135
▁degrad	-7136
▁funded	-7137
▁injury	-7138
▁neuron	-7139
▁rating	-7140
▁Through	-7141
▁Vietnam	-7142
▁Whether	-7143
▁ethical	-7144
▁failing	-7145
▁millenn	-7146
▁miracle	-7147
▁promote	-7148
▁sensory	-7149
▁warning	-7150
▁Ethiopia	-7151
▁facility	-7152
▁flexible	-7153
▁Obviously	-7154
▁calculate	-7155
▁predicted	-7156
▁separated	-7157
▁afterwards	-7158
▁capability	-7159
▁determined	-7160
▁mysterious	-7161
▁suggesting	-7162
▁underlying	-7163
▁predictions	-7164
▁biodiversity	-7165
▁participants	-7166
▁photographer	-7167
fe	-7168
tw	-7169
▁0.	-7170
When	-7171
fess	-7172
phor	-7173
urse	-7174
▁Bur	-7175
▁Hel	-7176
▁Lar	-7177
▁Mac	-7178
▁aes	-7179
▁bio	-7180
enger	-7181
ested	-7182
field	-7183
inder	-7184
inson	-7185
ribly	-7186
▁1960	-7187
▁Cour	-7188
▁Sund	-7189
▁Time	-7190
▁bars	-7191
▁hier	-7192
▁nets	-7193
▁tort	-7194
▁wise	-7195
▁Child	-7196
▁Johns	-7197
▁begun	-7198
▁disag	-7199
▁evalu	-7200
▁gases	-7201
▁merely	-7202
▁observ	-7203
▁prosec	-7204
▁robust	-7205
▁simult	-7206
▁theore	-7207
fficient	-7208
▁Eastern	-7209
▁General	-7210
▁briefly	-7211
▁pulling	-7212
▁speaker	-7213
▁conclude	-7214
▁includes	-7215
▁restrict	-7216
▁speakers	-7217
▁depressed	-7218
▁sentences	-7219
▁suggested	-7220
▁teenagers	-7221
▁variation	-7222
▁additional	-7223
▁biologists	-7224
▁ecosystems	-7225
▁treatments	-7226
▁experimental	-7227
▁successfully	-7228
▁grandchildren	-7229
Ch	-7230
Wow	-7231
ena	-7232
esh	-7233
rey	-7234
▁26	-7235
▁95	-7236
ahar	-7237
ardo	-7238
bits	-7239
iece	-7240
▁120	-7241
▁191	-7242
▁Mor	-7243
▁Som	-7244
▁Wal	-7245
▁wid	-7246
arity	-7247
capes	-7248
iment	-7249
▁clim	-7250
▁eleg	-7251
▁hill	-7252
▁soap	-7253
makers	-7254
mingly	-7255
yright	-7256
▁Prize	-7257
▁arrow	-7258
▁flour	-7259
▁reson	-7260
isphere	-7261
unclear	-7262
▁Nature	-7263
▁Virgin	-7264
▁Within	-7265
▁breaks	-7266
▁ethnic	-7267
▁linear	-7268
▁poster	-7269
▁tribes	-7270
▁alcohol	-7271
▁comprom	-7272
▁females	-7273
▁imaging	-7274
▁lawyers	-7275
▁magical	-7276
▁targets	-7277
▁crossing	-7278
▁throwing	-7279
▁accidents	-7280
▁elephants	-7281
▁positions	-7282
▁catastroph	-7283
▁categories	-7284
▁reputation	-7285
▁collaborative	-7286
▁interestingly	-7287
▁significantly	-7288
wl	-7289
agh	-7290
ete	-7291
leep	-7292
rome	-7293
▁Aug	-7294
▁Hey	-7295
▁Hum	-7296
▁Les	-7297
▁Six	-7298
▁lon	-7299
obile	-7300
▁Flor	-7301
▁Gand	-7302
▁anat	-7303
▁meal	-7304
▁stom	-7305
▁vent	-7306
▁wing	-7307
iatric	-7308
icious	-7309
▁Cambr	-7310
▁actor	-7311
▁algae	-7312
▁balls	-7313
▁lions	-7314
▁reefs	-7315
related	-7316
▁Rwanda	-7317
▁adoles	-7318
▁buried	-7319
▁combat	-7320
▁decent	-7321
▁ensure	-7322
▁fought	-7323
▁heaven	-7324
▁rivers	-7325
▁tackle	-7326
▁thresh	-7327
▁deliber	-7328
▁fastest	-7329
▁shelter	-7330
▁shocked	-7331
▁Southern	-7332
▁dinosaur	-7333
▁incident	-7334
▁measures	-7335
▁scenario	-7336
▁sleeping	-7337
▁unlikely	-7338
▁exception	-7339
▁expanding	-7340
▁frequency	-7341
▁frustrated	-7342
▁unbelievable	-7343
sp	-7344
ala	-7345
ann	-7346
aze	-7347
cip	-7348
oly	-7349
▁Ty	-7350
Talk	-7351
alty	-7352
arre	-7353
free	-7354
ocin	-7355
onic	-7356
ownt	-7357
west	-7358
yard	-7359
▁Acc	-7360
▁Put	-7361
▁Ven	-7362
amine	-7363
ifice	-7364
izoph	-7365
reens	-7366
▁None	-7367
▁Star	-7368
▁knee	-7369
▁mall	-7370
▁pupp	-7371
▁tuna	-7372
encing	-7373
soever	-7374
▁Carol	-7375
▁bears	-7376
▁burst	-7377
▁craft	-7378
▁mixed	-7379
▁pione	-7380
▁Design	-7381
▁partly	-7382
▁trucks	-7383
▁waters	-7384
▁widely	-7385
▁affects	-7386
▁analyze	-7387
▁enforce	-7388
▁printer	-7389
▁smarter	-7390
▁confused	-7391
▁proposed	-7392
▁forgotten	-7393
▁ignorance	-7394
▁immediate	-7395
▁passwords	-7396
▁radically	-7397
▁supported	-7398
▁approaches	-7399
▁inevitable	-7400
▁operations	-7401
▁whatsoever	-7402
▁wheelchair	-7403
▁professionals	-7404
sc	-7405
ani	-7406
opy	-7407
apor	-7408
▁Mod	-7409
▁Ros	-7410
▁Sur	-7411
▁ain	-7412
▁lit	-7413
erved	-7414
ician	-7415
ilize	-7416
▁Long	-7417
▁Rome	-7418
▁asks	-7419
▁cats	-7420
▁cong	-7421
▁defe	-7422
▁mate	-7423
▁neck	-7424
▁prec	-7425
cember	-7426
itudes	-7427
nocent	-7428
▁genoc	-7429
▁nerve	-7430
▁pairs	-7431
▁safer	-7432
athered	-7433
▁During	-7434
▁Oxford	-7435
▁assess	-7436
▁caring	-7437
▁panels	-7438
▁shrink	-7439
▁volcan	-7440
▁disgust	-7441
▁enables	-7442
▁founded	-7443
▁helpful	-7444
▁imagery	-7445
▁immense	-7446
▁routine	-7447
▁Children	-7448
▁arrested	-7449
▁category	-7450
▁dialogue	-7451
▁extended	-7452
▁figuring	-7453
▁documents	-7454
▁gradually	-7455
▁nutrition	-7456
▁physician	-7457
bru	-7458
liam	-7459
umes	-7460
▁700	-7461
▁Out	-7462
▁Que	-7463
adays	-7464
clock	-7465
rants	-7466
▁Cont	-7467
▁acid	-7468
▁beet	-7469
▁guns	-7470
▁whis	-7471
izarre	-7472
market	-7473
▁Gates	-7474
▁March	-7475
▁array	-7476
▁elite	-7477
▁fiber	-7478
▁joint	-7479
▁nurse	-7480
▁owner	-7481
▁trail	-7482
▁tribe	-7483
▁weeke	-7484
▁arrive	-7485
▁basket	-7486
▁domain	-7487
▁killer	-7488
▁pursue	-7489
▁sensor	-7490
▁sticks	-7491
▁Florida	-7492
▁convert	-7493
▁deserve	-7494
▁elected	-7495
▁fragile	-7496
▁hackers	-7497
▁involve	-7498
▁observe	-7499
▁origami	-7500
▁revenue	-7501
▁December	-7502
▁answered	-7503
▁entering	-7504
▁invested	-7505
▁manifest	-7506
▁stranger	-7507
▁suffered	-7508
▁intuition	-7509
▁primitive	-7510
▁prisoners	-7511
▁correspond	-7512
▁dictionary	-7513
▁translated	-7514
▁instructions	-7515
▁pharmaceutical	-7516
▁representation	-7517
EC	-7518
OK	-7519
▁LG	-7520
▁Up	-7521
igen	-7522
▁Hen	-7523
▁Lib	-7524
▁Unt	-7525
▁cas	-7526
▁ink	-7527
atrix	-7528
eller	-7529
oning	-7530
puter	-7531
tocin	-7532
▁Move	-7533
▁cert	-7534
▁stab	-7535
▁nucle	-7536
▁spots	-7537
▁trash	-7538
▁uncle	-7539
▁barrel	-7540
▁compos	-7541
▁regime	-7542
▁vacuum	-7543
izophren	-7544
▁Spanish	-7545
▁TEDTalk	-7546
▁contrad	-7547
▁enterpr	-7548
▁fabulous	-7549
▁optimism	-7550
▁smallpox	-7551
▁survived	-7552
▁expansion	-7553
▁primarily	-7554
forestation	-7555
▁attractive	-7556
▁explaining	-7557
▁satellites	-7558
▁constructed	-7559
▁surprisingly	-7560
▁globalization	-7561
"]	-7562
.]	-7563
MA	-7564
hal	-7565
ora	-7566
str	-7567
▁BF	-7568
agos	-7569
ague	-7570
atts	-7571
onia	-7572
utch	-7573
▁800	-7574
▁Gab	-7575
▁Mom	-7576
▁Moo	-7577
▁Ser	-7578
▁boo	-7579
▁hey	-7580
anged	-7581
aning	-7582
gency	-7583
riger	-7584
▁Gore	-7585
▁brib	-7586
▁brut	-7587
▁crew	-7588
▁dear	-7589
▁file	-7590
▁lake	-7591
▁mode	-7592
▁rice	-7593
employ	-7594
iology	-7595
mental	-7596
ortion	-7597
▁Court	-7598
▁chron	-7599
▁cliff	-7600
▁miser	-7601
▁sharp	-7602
▁shout	-7603
▁silly	-7604
▁burned	-7605
▁curric	-7606
▁enthus	-7607
▁inches	-7608
▁stroke	-7609
▁adopted	-7610
▁bizarre	-7611
▁emerged	-7612
▁farming	-7613
▁protest	-7614
▁pyramid	-7615
▁soldier	-7616
▁threats	-7617
▁leverage	-7618
▁refriger	-7619
▁versions	-7620
▁investors	-7621
▁paralyzed	-7622
▁perceived	-7623
▁consistent	-7624
▁industries	-7625
▁proportion	-7626
▁competitive	-7627
▁observation	-7628
▁connectivity	-7629
▁transmission	-7630
▁architectural	-7631
DA	-7632
LA	-7633
▁3.	-7634
▁KB	-7635
eart	-7636
edge	-7637
emen	-7638
half	-7639
iban	-7640
iens	-7641
part	-7642
▁Sar	-7643
▁jun	-7644
ading	-7645
▁Blue	-7646
▁bags	-7647
▁bats	-7648
▁tong	-7649
bruary	-7650
engine	-7651
rained	-7652
▁Brown	-7653
▁chips	-7654
▁civic	-7655
▁jelly	-7656
▁squee	-7657
inarily	-7658
liament	-7659
lishing	-7660
▁Arabic	-7661
▁August	-7662
▁Mother	-7663
▁Should	-7664
▁chairs	-7665
▁client	-7666
▁curren	-7667
▁intrig	-7668
▁jumped	-7669
▁upside	-7670
▁hitting	-7671
▁prepare	-7672
▁winning	-7673
istically	-7674
▁February	-7675
▁channels	-7676
▁fraction	-7677
▁included	-7678
▁innocent	-7679
▁neurolog	-7680
▁skeleton	-7681
▁gathering	-7682
▁healthier	-7683
▁initially	-7684
▁medication	-7685
▁simulation	-7686
▁threatened	-7687
▁traditions	-7688
▁schizophren	-7689
MS	-7690
bow	-7691
che	-7692
kin	-7693
▁Os	-7694
ache	-7695
eday	-7696
enly	-7697
play	-7698
▁'70	-7699
▁'90	-7700
▁Den	-7701
▁Isn	-7702
▁Kev	-7703
▁Mag	-7704
▁gee	-7705
▁sew	-7706
elled	-7707
▁Beij	-7708
▁dies	-7709
▁dumb	-7710
▁sulf	-7711
▁tone	-7712
▁wedd	-7713
semble	-7714
▁Greek	-7715
▁Titan	-7716
▁bored	-7717
▁downt	-7718
▁gotta	-7719
▁plain	-7720
▁screw	-7721
▁stake	-7722
embered	-7723
usiness	-7724
▁Saturn	-7725
▁Soviet	-7726
▁bullet	-7727
▁column	-7728
▁ending	-7729
▁orient	-7730
▁recept	-7731
▁tragic	-7732
▁Russian	-7733
▁closing	-7734
▁elderly	-7735
▁footage	-7736
▁forming	-7737
▁garbage	-7738
▁paradox	-7739
▁selfish	-7740
▁writers	-7741
▁Somebody	-7742
▁accounts	-7743
▁articles	-7744
▁climbing	-7745
▁covering	-7746
▁judgment	-7747
▁sciences	-7748
▁stereoty	-7749
▁strongly	-7750
▁explosion	-7751
▁fortunate	-7752
▁nutrients	-7753
▁difficulty	-7754
▁extinction	-7755
▁resilience	-7756
▁description	-7757
▁exponential	-7758
▁journalists	-7759
▁translation	-7760
▁capabilities	-7761
▁contemporary	-7762
▁demonstration	-7763
err	-7764
mod	-7765
sun	-7766
yan	-7767
airo	-7768
bola	-7769
road	-7770
zero	-7771
▁'80	-7772
▁Hol	-7773
▁Jud	-7774
▁cig	-7775
▁pix	-7776
▁upd	-7777
lings	-7778
opard	-7779
otted	-7780
▁Give	-7781
▁Play	-7782
▁butt	-7783
▁cott	-7784
▁duck	-7785
▁grat	-7786
▁leaf	-7787
▁plug	-7788
fessor	-7789
icient	-7790
rowing	-7791
▁Asian	-7792
▁Spain	-7793
▁funds	-7794
▁hired	-7795
▁immig	-7796
▁incor	-7797
▁panel	-7798
▁wider	-7799
▁wired	-7800
parents	-7801
▁Square	-7802
▁Turkey	-7803
▁scores	-7804
cedented	-7805
quarters	-7806
▁discrim	-7807
▁graphic	-7808
▁liberal	-7809
▁methane	-7810
▁regener	-7811
▁serving	-7812
▁colonies	-7813
▁distingu	-7814
▁homework	-7815
▁improved	-7816
▁keyboard	-7817
▁mosquito	-7818
▁navigate	-7819
▁reducing	-7820
▁scholars	-7821
▁broadcast	-7822
▁copyright	-7823
▁expertise	-7824
▁infection	-7825
▁instantly	-7826
▁threshold	-7827
▁autonomous	-7828
▁compelling	-7829
▁hypothesis	-7830
▁authorities	-7831
▁genetically	-7832
ET	-7833
va	-7834
elf	-7835
enh	-7836
uty	-7837
conf	-7838
▁Jon	-7839
▁Tim	-7840
▁aug	-7841
▁awk	-7842
▁Brun	-7843
▁Comp	-7844
▁Coun	-7845
▁Dere	-7846
▁Miss	-7847
▁bold	-7848
▁carr	-7849
▁cham	-7850
▁dism	-7851
▁irre	-7852
▁sole	-7853
urable	-7854
▁Power	-7855
▁brows	-7856
▁caves	-7857
▁excit	-7858
▁fraud	-7859
▁pride	-7860
▁spray	-7861
▁steal	-7862
▁stunt	-7863
▁tempt	-7864
▁Norway	-7865
▁dating	-7866
▁formal	-7867
▁garage	-7868
▁tracks	-7869
▁Italian	-7870
▁Silicon	-7871
▁Taliban	-7872
▁Without	-7873
▁awkward	-7874
▁bubbles	-7875
▁compete	-7876
▁demands	-7877
▁periods	-7878
▁tissues	-7879
▁uniform	-7880
▁wealthy	-7881
▁detailed	-7882
▁homeless	-7883
▁listened	-7884
▁oxytocin	-7885
▁Cambridge	-7886
▁completed	-7887
▁improving	-7888
▁qualities	-7889
▁reactions	-7890
▁remembered	-7891
▁uncertainty	-7892
▁conservative	-7893
mo	-7894
Who	-7895
ela	-7896
lar	-7897
rit	-7898
▁ub	-7899
aded	-7900
kind	-7901
ords	-7902
xual	-7903
▁20,	-7904
▁Det	-7905
▁LED	-7906
▁Lou	-7907
▁Mah	-7908
▁Nic	-7909
▁Wow	-7910
irect	-7911
maker	-7912
ville	-7913
▁gods	-7914
▁odds	-7915
▁pale	-7916
▁pige	-7917
▁triv	-7918
esthes	-7919
▁2009,	-7920
▁Jesus	-7921
▁Organ	-7922
▁Under	-7923
▁agent	-7924
▁cable	-7925
▁intim	-7926
▁kills	-7927
▁owned	-7928
▁rehab	-7929
▁shots	-7930
▁spons	-7931
▁valid	-7932
itating	-7933
▁Arctic	-7934
▁Govern	-7935
▁aggreg	-7936
▁appeal	-7937
▁convey	-7938
▁metric	-7939
▁pedest	-7940
▁unable	-7941
changing	-7942
▁beating	-7943
▁dolphin	-7944
▁drought	-7945
▁harness	-7946
▁horizon	-7947
▁manager	-7948
▁washing	-7949
▁clothing	-7950
▁drawings	-7951
▁explains	-7952
▁remained	-7953
▁gentleman	-7954
▁remaining	-7955
▁renewable	-7956
▁curriculum	-7957
▁excitement	-7958
▁facilities	-7959
▁profoundly	-7960
▁reasonable	-7961
▁structural	-7962
▁supporting	-7963
▁trajectory	-7964
▁achievement	-7965
▁established	-7966
▁interviewed	-7967
▁collectively	-7968
▁unprecedented	-7969
CA	-7970
ais	-7971
ati	-7972
ctu	-7973
agen	-7974
ails	-7975
ares	-7976
atar	-7977
fast	-7978
illa	-7979
ilty	-7980
omin	-7981
oral	-7982
viol	-7983
▁FBI	-7984
▁Tel	-7985
▁bug	-7986
▁ham	-7987
arest	-7988
asses	-7989
itous	-7990
ostic	-7991
stone	-7992
▁Both	-7993
▁alph	-7994
▁blah	-7995
▁damn	-7996
▁deli	-7997
▁exha	-7998
▁gear	-7999
▁lamp	-8000
▁outs	-8001
▁suck	-8002
▁2010,	-8003
▁Brook	-8004
▁Ebola	-8005
▁Moore	-8006
▁audio	-8007
▁fears	-8008
angible	-8009
working	-8010
▁assets	-8011
▁export	-8012
▁headed	-8013
▁mining	-8014
▁safely	-8015
▁ticket	-8016
▁tumors	-8017
▁beneath	-8018
▁besides	-8019
▁fortune	-8020
▁minimum	-8021
▁restore	-8022
▁staying	-8023
▁Northern	-8024
▁Secondly	-8025
▁applying	-8026
▁socially	-8027
▁tendency	-8028
▁unemploy	-8029
▁anonymous	-8030
▁factories	-8031
▁microbial	-8032
▁realizing	-8033
▁replicate	-8034
▁volunteer	-8035
▁prosperity	-8036
▁beautifully	-8037
▁unconscious	-8038
▁simultaneously	-8039
obs	-8040
oli	-8041
▁AB	-8042
▁rh	-8043
away	-8044
▁Bet	-8045
▁Sir	-8046
▁Tes	-8047
▁cub	-8048
▁inn	-8049
▁ven	-8050
▁July	-8051
▁Make	-8052
▁gaps	-8053
▁hors	-8054
▁loan	-8055
▁lone	-8056
▁sail	-8057
▁sett	-8058
▁soup	-8059
▁west	-8060
atever	-8061
▁2007,	-8062
▁Chile	-8063
▁Trans	-8064
▁anten	-8065
▁bucks	-8066
▁incar	-8067
▁membr	-8068
▁outer	-8069
▁pound	-8070
▁ships	-8071
▁tends	-8072
▁30,000	-8073
▁Friday	-8074
▁Scient	-8075
▁annual	-8076
▁binary	-8077
▁burden	-8078
▁cheese	-8079
▁golden	-8080
▁loving	-8081
andering	-8082
interest	-8083
▁educate	-8084
▁located	-8085
▁offices	-8086
▁profits	-8087
▁rolling	-8088
▁secrets	-8089
▁disabled	-8090
▁gathered	-8091
▁genocide	-8092
▁intended	-8093
▁observed	-8094
▁pandemic	-8095
▁peaceful	-8096
▁perceive	-8097
▁pointing	-8098
▁preserve	-8099
▁purposes	-8100
▁diagnosis	-8101
▁expecting	-8102
▁responses	-8103
▁substance	-8104
▁transcend	-8105
▁challenged	-8106
▁encouraged	-8107
▁expectancy	-8108
▁hemisphere	-8109
▁prediction	-8110
▁computation	-8111
▁corporations	-8112
▁photographed	-8113
▁institutional	-8114
He	-8115
des	-8116
eds	-8117
see	-8118
▁85	-8119
imps	-8120
kins	-8121
neys	-8122
pled	-8123
▁Far	-8124
▁sin	-8125
anges	-8126
bling	-8127
gines	-8128
human	-8129
umble	-8130
▁Bell	-8131
▁Hall	-8132
▁cake	-8133
▁clay	-8134
▁gate	-8135
▁nurt	-8136
▁phos	-8137
▁pref	-8138
▁tsun	-8139
active	-8140
aharan	-8141
▁badly	-8142
▁camps	-8143
▁fault	-8144
▁loves	-8145
▁tooth	-8146
▁Ladies	-8147
▁beaten	-8148
▁errors	-8149
▁negoti	-8150
▁occurs	-8151
▁recipe	-8152
▁skelet	-8153
▁analogy	-8154
▁arrange	-8155
▁charges	-8156
▁closest	-8157
▁courses	-8158
▁engines	-8159
▁mindset	-8160
▁neutral	-8161
▁portion	-8162
▁trigger	-8163
▁Although	-8164
▁delivery	-8165
▁downtown	-8166
▁friendly	-8167
▁musician	-8168
▁openness	-8169
▁magnitude	-8170
▁motivated	-8171
▁ownership	-8172
▁accomplish	-8173
▁assumption	-8174
▁impressive	-8175
▁physicists	-8176
▁desperately	-8177
],	-8178
].	-8179
ye	-8180
aby	-8181
bar	-8182
eda	-8183
ini	-8184
lla	-8185
▁CD	-8186
asty	-8187
cost	-8188
made	-8189
▁202	-8190
apped	-8191
chool	-8192
icial	-8193
inter	-8194
lades	-8195
oples	-8196
▁labs	-8197
▁murd	-8198
▁nerd	-8199
▁orph	-8200
▁sons	-8201
▁urge	-8202
iences	-8203
▁2000,	-8204
▁2008,	-8205
▁Henry	-8206
▁Until	-8207
▁align	-8208
▁armed	-8209
▁fancy	-8210
▁fires	-8211
▁knife	-8212
▁opera	-8213
▁spont	-8214
Saharan	-8215
otherap	-8216
▁Church	-8217
▁Sunday	-8218
▁claims	-8219
▁crimes	-8220
▁luxury	-8221
▁native	-8222
▁proved	-8223
▁silver	-8224
▁strike	-8225
▁Beijing	-8226
▁Develop	-8227
▁bedroom	-8228
▁glasses	-8229
▁hardest	-8230
▁islands	-8231
▁peoples	-8232
▁persist	-8233
▁propose	-8234
▁someday	-8235
▁spreads	-8236
▁activist	-8237
▁comments	-8238
▁failures	-8239
▁insights	-8240
▁mobility	-8241
▁precious	-8242
▁reliable	-8243
▁striking	-8244
▁substant	-8245
▁Banglades	-8246
▁airplanes	-8247
▁conducted	-8248
▁extension	-8249
▁graduated	-8250
▁workforce	-8251
▁aggressive	-8252
▁comparison	-8253
▁continuous	-8254
▁influenced	-8255
▁newspapers	-8256
▁telescopes	-8257
▁terrifying	-8258
▁discovering	-8259
▁enforcement	-8260
▁limitations	-8261
▁mathematicians	-8262
BM	-8263
udi	-8264
▁Es	-8265
▁RB	-8266
eady	-8267
erer	-8268
ifer	-8269
long	-8270
outs	-8271
umin	-8272
▁Dra	-8273
▁Ext	-8274
▁Joe	-8275
▁lap	-8276
ashed	-8277
burgh	-8278
ellig	-8279
opath	-8280
▁2050	-8281
▁Jose	-8282
▁Leon	-8283
▁Norm	-8284
▁Same	-8285
▁Sure	-8286
▁Walk	-8287
▁brid	-8288
▁dawn	-8289
▁genu	-8290
▁melt	-8291
▁rats	-8292
cation	-8293
itated	-8294
minute	-8295
orious	-8296
▁Being	-8297
▁Derek	-8298
▁Sorry	-8299
▁drown	-8300
▁energ	-8301
▁entry	-8302
▁foods	-8303
▁hated	-8304
▁incom	-8305
▁inhab	-8306
▁inher	-8307
▁items	-8308
▁lifes	-8309
▁parks	-8310
▁shore	-8311
igenous	-8312
▁branch	-8313
▁cosmic	-8314
▁hiding	-8315
▁makers	-8316
▁recall	-8317
▁traits	-8318
▁tunnel	-8319
▁upload	-8320
▁bottles	-8321
▁dressed	-8322
▁hunting	-8323
▁percept	-8324
▁profile	-8325
▁Minister	-8326
▁connects	-8327
▁magnific	-8328
▁morality	-8329
▁terribly	-8330
▁wildlife	-8331
▁obstacles	-8332
▁temporary	-8333
▁appearance	-8334
▁helicopter	-8335
▁indigenous	-8336
▁approaching	-8337
▁constraints	-8338
▁demographic	-8339
▁restaurants	-8340
▁humanitarian	-8341
▁concentration	-8342
▁deforestation	-8343
gu	-8344
All	-8345
cro	-8346
fly	-8347
▁28	-8348
▁33	-8349
▁Bo	-8350
▁Us	-8351
▁je	-8352
agon	-8353
aves	-8354
cons	-8355
four	-8356
iful	-8357
imal	-8358
rian	-8359
ropy	-8360
▁Cra	-8361
▁Met	-8362
▁nom	-8363
▁rac	-8364
ensus	-8365
gence	-8366
icked	-8367
inery	-8368
▁Camp	-8369
▁Fore	-8370
▁Mike	-8371
▁Open	-8372
▁bell	-8373
▁bind	-8374
▁infl	-8375
▁mild	-8376
▁shit	-8377
▁subt	-8378
▁synd	-8379
▁tune	-8380
▁woke	-8381
▁wrap	-8382
▁Kevin	-8383
▁Peace	-8384
▁Santa	-8385
▁drops	-8386
▁farms	-8387
▁guard	-8388
▁ratio	-8389
perform	-8390
▁Almost	-8391
▁butter	-8392
▁campus	-8393
▁estate	-8394
▁halluc	-8395
▁matrix	-8396
▁murder	-8397
▁nearby	-8398
▁nights	-8399
▁offers	-8400
▁tongue	-8401
▁Indians	-8402
▁Islands	-8403
▁cigaret	-8404
▁fluores	-8405
▁genuine	-8406
▁ignored	-8407
▁kingdom	-8408
▁logical	-8409
▁metabol	-8410
▁stepped	-8411
efficient	-8412
▁Palestin	-8413
▁believes	-8414
▁genetics	-8415
▁honestly	-8416
▁teenager	-8417
▁agreement	-8418
▁detection	-8419
▁residents	-8420
▁sacrifice	-8421
▁Technology	-8422
▁ecological	-8423
▁researcher	-8424
▁fortunately	-8425
▁vulnerability	-8426
▁straightforward	-8427
gal	-8428
lan	-8429
uke	-8430
▁36	-8431
▁Id	-8432
ifty	-8433
inth	-8434
quis	-8435
rint	-8436
▁hal	-8437
▁jew	-8438
▁les	-8439
▁tut	-8440
attoo	-8441
rence	-8442
▁Bron	-8443
▁Hill	-8444
▁Zeal	-8445
▁bend	-8446
▁bure	-8447
▁pigs	-8448
aching	-8449
ilized	-8450
weight	-8451
▁cruel	-8452
▁loans	-8453
▁queen	-8454
▁ubiqu	-8455
itative	-8456
looking	-8457
▁Argent	-8458
▁Econom	-8459
▁acoust	-8460
▁addict	-8461
▁apolog	-8462
▁builds	-8463
▁chains	-8464
▁excess	-8465
▁execut	-8466
▁guilty	-8467
▁inevit	-8468
▁manner	-8469
▁planes	-8470
▁propag	-8471
▁rubber	-8472
▁speaks	-8473
▁subway	-8474
▁mapping	-8475
▁prisons	-8476
▁pursuit	-8477
▁reminds	-8478
▁screens	-8479
▁stretch	-8480
▁concerns	-8481
▁counting	-8482
▁distract	-8483
▁historic	-8484
▁interven	-8485
▁offering	-8486
▁redesign	-8487
▁activists	-8488
▁nonprofit	-8489
▁passenger	-8490
▁preparing	-8491
▁strategic	-8492
otechnology	-8493
▁approached	-8494
▁assistance	-8495
▁discipline	-8496
▁acknowledge	-8497
▁remembering	-8498
▁grandparents	-8499
▁storytelling	-8500
.'"	-8501
bye	-8502
ege	-8503
hot	-8504
ona	-8505
▁Bh	-8506
▁MT	-8507
▁ah	-8508
oran	-8509
rats	-8510
rial	-8511
utan	-8512
wind	-8513
▁Ray	-8514
▁ash	-8515
▁dys	-8516
▁tie	-8517
anzan	-8518
arrhe	-8519
break	-8520
chron	-8521
elson	-8522
iogen	-8523
itage	-8524
itzer	-8525
▁Eric	-8526
▁Mach	-8527
▁NGOs	-8528
▁dile	-8529
▁fits	-8530
▁turb	-8531
▁Charl	-8532
▁Eight	-8533
▁amate	-8534
▁ambit	-8535
▁comet	-8536
▁encry	-8537
▁ingen	-8538
▁numer	-8539
▁patch	-8540
▁pause	-8541
▁proto	-8542
▁redef	-8543
▁winds	-8544
▁wires	-8545
angered	-8546
▁Except	-8547
▁Tanzan	-8548
▁canopy	-8549
▁drones	-8550
▁insane	-8551
▁static	-8552
otherapy	-8553
▁Johnson	-8554
▁Seattle	-8555
▁Zealand	-8556
▁descend	-8557
▁despair	-8558
▁envelop	-8559
▁flowing	-8560
▁landing	-8561
▁leather	-8562
▁patents	-8563
▁pockets	-8564
▁scanner	-8565
▁stomach	-8566
▁wedding	-8567
▁cartoons	-8568
▁circuits	-8569
▁customer	-8570
▁earliest	-8571
▁exposure	-8572
▁generous	-8573
▁geometry	-8574
▁graphics	-8575
▁managers	-8576
▁robotics	-8577
▁shifting	-8578
▁shipping	-8579
▁smallest	-8580
▁supplies	-8581
▁Alexander	-8582
▁classical	-8583
▁distances	-8584
▁empowered	-8585
▁excellent	-8586
▁receiving	-8587
▁succeeded	-8588
▁chromosome	-8589
▁classrooms	-8590
▁continuing	-8591
▁previously	-8592
▁legislation	-8593
▁reconstruct	-8594
▁specialized	-8595
▁alternatives	-8596
▁occasionally	-8597
▁temperatures	-8598
▁psychologists	-8599
ga	-8600
ava	-8601
uts	-8602
▁MS	-8603
▁SS	-8604
ousy	-8605
ules	-8606
yrus	-8607
▁Ann	-8608
▁Edu	-8609
▁Lin	-8610
▁Ver	-8611
▁via	-8612
anzee	-8613
ogram	-8614
orage	-8615
phony	-8616
produ	-8617
ushed	-8618
▁Ford	-8619
▁Josh	-8620
▁coca	-8621
▁enzy	-8622
▁fate	-8623
▁grav	-8624
▁heal	-8625
▁iPod	-8626
▁rape	-8627
▁spat	-8628
▁vary	-8629
aneous	-8630
▁2011,	-8631
▁Brian	-8632
▁Hello	-8633
▁appla	-8634
▁cabin	-8635
▁dilem	-8636
▁drone	-8637
▁eaten	-8638
▁grabb	-8639
▁hopes	-8640
▁immun	-8641
▁mayor	-8642
▁poems	-8643
▁risky	-8644
▁shine	-8645
▁stair	-8646
▁stays	-8647
▁suspe	-8648
▁tower	-8649
▁viral	-8650
fulness	-8651
▁Social	-8652
▁compre	-8653
▁correl	-8654
▁lowest	-8655
▁orders	-8656
▁parach	-8657
▁preval	-8658
▁subsid	-8659
▁tattoo	-8660
▁thread	-8661
▁trains	-8662
▁voting	-8663
standing	-8664
▁enabled	-8665
▁hormone	-8666
▁ongoing	-8667
▁princip	-8668
▁rethink	-8669
▁seeking	-8670
▁staring	-8671
▁tsunami	-8672
▁venture	-8673
▁contrary	-8674
▁currency	-8675
▁decrease	-8676
▁promised	-8677
▁affecting	-8678
▁ambitious	-8679
▁economist	-8680
▁glamorous	-8681
▁guarantee	-8682
▁locations	-8683
▁performed	-8684
▁procedure	-8685
▁reproduce	-8686
▁stability	-8687
▁assignment	-8688
▁continents	-8689
▁elementary	-8690
▁physicians	-8691
▁yourselves	-8692
▁surrounding	-8693
▁compassionate	-8694
▁administration	-8695
▁interconnected	-8696
▁extraordinarily	-8697
gi	-8698
nat	-8699
▁AK	-8700
fram	-8701
gram	-8702
ieve	-8703
mony	-8704
▁20-	-8705
▁Mel	-8706
▁Str	-8707
▁blo	-8708
▁dop	-8709
▁ski	-8710
▁vit	-8711
aches	-8712
ademy	-8713
enses	-8714
isten	-8715
press	-8716
rance	-8717
uther	-8718
world	-8719
▁Army	-8720
▁Cath	-8721
▁Homo	-8722
▁Moon	-8723
▁Shan	-8724
▁Sudd	-8725
▁ampl	-8726
▁deck	-8727
▁dung	-8728
▁indu	-8729
▁rose	-8730
▁sexy	-8731
tering	-8732
▁Bronx	-8733
▁Dutch	-8734
▁award	-8735
▁blogs	-8736
▁boats	-8737
▁cared	-8738
▁phant	-8739
▁revol	-8740
▁trace	-8741
cession	-8742
▁Nelson	-8743
▁Newton	-8744
▁Twenty	-8745
▁Yorker	-8746
▁agents	-8747
▁cotton	-8748
▁diving	-8749
▁infant	-8750
▁manual	-8751
▁proven	-8752
▁stimul	-8753
▁tempor	-8754
▁Council	-8755
▁Whereas	-8756
▁barrier	-8757
▁entropy	-8758
▁retreat	-8759
▁storage	-8760
▁teenage	-8761
▁useless	-8762
▁Whatever	-8763
▁branches	-8764
▁compound	-8765
▁incarcer	-8766
▁portrait	-8767
▁replaced	-8768
▁selected	-8769
▁transmit	-8770
▁vacation	-8771
▁estimated	-8772
▁overnight	-8773
▁phenomena	-8774
▁territory	-8775
▁describing	-8776
▁illustrate	-8777
▁impression	-8778
▁landscapes	-8779
▁monitoring	-8780
▁regardless	-8781
▁retirement	-8782
▁sufficient	-8783
▁encouraging	-8784
▁philosopher	-8785
▁interpretation	-8786
col	-8787
neg	-8788
vir	-8789
▁LT	-8790
ador	-8791
ghai	-8792
inem	-8793
lend	-8794
lers	-8795
lesh	-8796
sell	-8797
▁15-	-8798
▁Age	-8799
▁Cap	-8800
▁Emp	-8801
▁Fey	-8802
▁Sal	-8803
▁Sud	-8804
▁Way	-8805
▁hub	-8806
▁obt	-8807
▁pit	-8808
bably	-8809
enter	-8810
erent	-8811
izers	-8812
▁Fort	-8813
▁Gene	-8814
▁Penn	-8815
▁aunt	-8816
▁cath	-8817
▁crop	-8818
▁enjo	-8819
▁frog	-8820
▁gram	-8821
▁mand	-8822
▁pole	-8823
astics	-8824
iberia	-8825
vation	-8826
▁6,000	-8827
▁Delhi	-8828
▁Saudi	-8829
▁blink	-8830
▁coinc	-8831
▁crick	-8832
▁overl	-8833
▁sauce	-8834
▁spell	-8835
▁tubes	-8836
▁County	-8837
▁Howard	-8838
▁Little	-8839
▁System	-8840
▁config	-8841
▁habits	-8842
▁improv	-8843
▁livest	-8844
▁mentor	-8845
▁packed	-8846
▁tomato	-8847
▁trauma	-8848
controll	-8849
▁College	-8850
▁absence	-8851
▁artwork	-8852
▁clinics	-8853
▁continu	-8854
▁destiny	-8855
▁fathers	-8856
▁package	-8857
▁passive	-8858
▁readers	-8859
▁rituals	-8860
▁tension	-8861
▁trapped	-8862
▁Suddenly	-8863
▁hormones	-8864
▁reinvent	-8865
▁sidewalk	-8866
▁collapsed	-8867
▁describes	-8868
▁equations	-8869
▁headlines	-8870
▁incentive	-8871
▁intensive	-8872
▁miserable	-8873
▁officials	-8874
▁predators	-8875
▁realistic	-8876
▁religions	-8877
▁signature	-8878
▁chimpanzee	-8879
▁commission	-8880
▁endangered	-8881
▁manipulate	-8882
▁reflection	-8883
▁vegetables	-8884
▁magnificent	-8885
▁personalized	-8886
py	-8887
yd	-8888
▁.	-8889
Are	-8890
aid	-8891
arl	-8892
asm	-8893
mun	-8894
▁2:	-8895
▁IM	-8896
gend	-8897
ipts	-8898
izza	-8899
▁Ire	-8900
▁jet	-8901
▁pir	-8902
▁tur	-8903
aware	-8904
grade	-8905
inent	-8906
inger	-8907
▁Hist	-8908
▁Love	-8909
▁Nove	-8910
▁Prot	-8911
▁Rand	-8912
▁Supp	-8913
▁calm	-8914
▁clue	-8915
▁drew	-8916
▁neoc	-8917
▁nuts	-8918
▁rope	-8919
▁toes	-8920
arians	-8921
culiar	-8922
▁Media	-8923
▁Turns	-8924
▁altru	-8925
▁aspir	-8926
▁divor	-8927
▁exerc	-8928
▁flags	-8929
▁grave	-8930
▁sixth	-8931
▁wrist	-8932
▁zones	-8933
uilding	-8934
▁Berlin	-8935
▁Compan	-8936
▁Korean	-8937
▁covers	-8938
▁cycles	-8939
▁editor	-8940
▁freely	-8941
▁grocer	-8942
▁integr	-8943
▁marvel	-8944
▁posted	-8945
▁scenes	-8946
▁stored	-8947
▁troops	-8948
esthesia	-8949
▁200,000	-8950
▁Anybody	-8951
▁Indones	-8952
▁banking	-8953
▁bureauc	-8954
▁counsel	-8955
▁enemies	-8956
▁heading	-8957
▁highway	-8958
▁Brooklyn	-8959
▁advances	-8960
▁catching	-8961
▁complain	-8962
▁horizont	-8963
▁interior	-8964
▁momentum	-8965
▁peculiar	-8966
▁synchron	-8967
▁Professor	-8968
▁audiences	-8969
▁biologist	-8970
▁estimates	-8971
▁seemingly	-8972
▁sensation	-8973
▁statistic	-8974
▁terrified	-8975
▁Bangladesh	-8976
▁infections	-8977
▁initiative	-8978
▁punishment	-8979
▁sanitation	-8980
▁marketplace	-8981
▁predictable	-8982
▁concentrated	-8983
▁intersection	-8984
SP	-8985
law	-8986
two	-8987
▁AT	-8988
▁Bi	-8989
..."	-8990
amps	-8991
bled	-8992
cycl	-8993
irts	-8994
stru	-8995
ugal	-8996
▁Civ	-8997
▁Dad	-8998
▁Had	-8999
▁alb	-9000
▁bin	-9001
▁gif	-9002
▁jam	-9003
ctive	-9004
ifies	-9005
lfare	-9006
omics	-9007
▁Conf	-9008
▁Lake	-9009
▁Mill	-9010
▁Rock	-9011
▁Tony	-9012
▁ange	-9013
▁anno	-9014
▁cree	-9015
▁glow	-9016
▁keys	-9017
▁summ	-9018
ournal	-9019
▁Bruno	-9020
▁Watch	-9021
▁conqu	-9022
▁devil	-9023
▁hydro	-9024
▁recre	-9025
▁shirt	-9026
▁sperm	-9027
▁tweet	-9028
▁wheat	-9029
ometown	-9030
orgeous	-9031
▁advers	-9032
▁amazed	-9033
▁bother	-9034
▁fibers	-9035
▁pencil	-9036
▁relief	-9037
▁rhythm	-9038
▁stones	-9039
▁wheels	-9040
▁Mandela	-9041
▁Neander	-9042
▁Someone	-9043
▁corrupt	-9044
▁locally	-9045
▁proceed	-9046
▁request	-9047
▁resolve	-9048
▁trivial	-9049
criptions	-9050
▁Carolina	-9051
▁November	-9052
▁Shanghai	-9053
▁accuracy	-9054
▁cellular	-9055
▁dopamine	-9056
▁explicit	-9057
▁relation	-9058
▁addiction	-9059
▁amazingly	-9060
▁astronaut	-9061
▁breakfast	-9062
▁machinery	-9063
▁recycling	-9064
▁relatives	-9065
▁responded	-9066
▁Industrial	-9067
▁electrodes	-9068
▁expedition	-9069
▁generating	-9070
▁ubiquitous	-9071
▁partnership	-9072
▁politically	-9073
▁proposition	-9074
▁supermarket	-9075
▁contribution	-9076
▁measurements	-9077
▁psychologist	-9078
Sh	-9079
da	-9080
mn	-9081
200	-9082
For	-9083
eps	-9084
oln	-9085
pat	-9086
char	-9087
eros	-9088
hist	-9089
ihad	-9090
plus	-9091
▁30-	-9092
▁Cur	-9093
▁Its	-9094
▁Val	-9095
▁ech	-9096
▁jar	-9097
▁sib	-9098
adium	-9099
ament	-9100
cking	-9101
copic	-9102
sized	-9103
storm	-9104
venth	-9105
▁Jord	-9106
▁News	-9107
▁Snow	-9108
▁Vict	-9109
▁biof	-9110
▁cows	-9111
▁hipp	-9112
▁hybr	-9113
▁inch	-9114
▁indo	-9115
▁junk	-9116
▁offs	-9117
▁palm	-9118
▁rank	-9119
▁rect	-9120
driven	-9121
gments	-9122
incoln	-9123
inging	-9124
ometer	-9125
phorus	-9126
racies	-9127
▁Arist	-9128
▁Medic	-9129
▁Syria	-9130
▁blown	-9131
▁defic	-9132
▁fatal	-9133
▁femin	-9134
▁humil	-9135
▁jewel	-9136
▁loose	-9137
▁peers	-9138
▁pills	-9139
▁raped	-9140
▁sheer	-9141
▁slums	-9142
▁spill	-9143
istical	-9144
umented	-9145
▁Andrew	-9146
▁Rather	-9147
▁advent	-9148
▁asleep	-9149
▁fallen	-9150
▁gained	-9151
▁immers	-9152
▁magnet	-9153
▁motors	-9154
▁potato	-9155
▁revers	-9156
▁strain	-9157
▁valley	-9158
▁adapted	-9159
▁arguing	-9160
▁diarrhe	-9161
▁ecology	-9162
▁phantom	-9163
▁unhappy	-9164
▁attacked	-9165
▁calories	-9166
▁clusters	-9167
▁nowadays	-9168
▁prostate	-9169
▁stopping	-9170
▁syndrome	-9171
▁worrying	-9172
▁Parkinson	-9173
▁competing	-9174
▁criminals	-9175
▁dominated	-9176
▁formation	-9177
▁mosquitos	-9178
▁convenient	-9179
▁engineered	-9180
▁girlfriend	-9181
▁interviews	-9182
▁mainstream	-9183
▁variations	-9184
▁contributed	-9185
▁communicating	-9186
ado	-9187
eff	-9188
ima	-9189
ker	-9190
▁Ev	-9191
▁MK	-9192
▁od	-9193
aped	-9194
crim	-9195
list	-9196
▁Moz	-9197
▁Off	-9198
▁Tun	-9199
▁gre	-9200
▁ton	-9201
eries	-9202
ifact	-9203
ipher	-9204
▁Half	-9205
▁bang	-9206
▁batt	-9207
▁bite	-9208
▁epis	-9209
▁wore	-9210
coming	-9211
cyclop	-9212
umines	-9213
▁Clint	-9214
▁Koran	-9215
▁Swiss	-9216
▁bless	-9217
▁deals	-9218
▁grasp	-9219
▁insul	-9220
▁limbs	-9221
▁lobby	-9222
▁nodes	-9223
▁outdo	-9224
▁penet	-9225
▁plank	-9226
▁sched	-9227
▁shelf	-9228
▁taxes	-9229
ativity	-9230
bsolute	-9231
▁Anyone	-9232
▁Columb	-9233
▁behalf	-9234
▁curves	-9235
▁excuse	-9236
▁lonely	-9237
▁nerves	-9238
▁purple	-9239
▁slower	-9240
▁strict	-9241
▁Aristot	-9242
▁Ireland	-9243
▁bridges	-9244
▁cocaine	-9245
▁crossed	-9246
▁onstage	-9247
▁puzzles	-9248
▁smiling	-9249
▁terrain	-9250
▁altitude	-9251
▁barriers	-9252
▁breeding	-9253
▁diameter	-9254
▁abandoned	-9255
▁believing	-9256
▁blindness	-9257
▁cooperate	-9258
▁installed	-9259
▁interrupt	-9260
▁jellyfish	-9261
▁planetary	-9262
▁realities	-9263
▁regularly	-9264
▁frequently	-9265
▁organizing	-9266
▁prevention	-9267
▁spacecraft	-9268
▁devastating	-9269
▁discussions	-9270
▁investments	-9271
▁understands	-9272
▁accomplished	-9273
▁installation	-9274
▁transforming	-9275
▁schizophrenia	-9276
aa	-9277
dig	-9278
dis	-9279
izz	-9280
lor	-9281
net	-9282
▁42	-9283
▁DV	-9284
▁Gi	-9285
▁UN	-9286
Here	-9287
alia	-9288
mate	-9289
mill	-9290
▁Nan	-9291
▁Rom	-9292
▁Sky	-9293
▁ads	-9294
▁orb	-9295
▁shy	-9296
▁sir	-9297
odied	-9298
owers	-9299
▁Hans	-9300
▁Hope	-9301
▁Jane	-9302
▁Math	-9303
▁Soci	-9304
▁atom	-9305
▁carp	-9306
▁chat	-9307
▁coat	-9308
▁shoe	-9309
▁unst	-9310
income	-9311
lihood	-9312
person	-9313
▁Hawai	-9314
▁bench	-9315
▁comic	-9316
▁delay	-9317
▁depos	-9318
▁donor	-9319
▁embry	-9320
▁flesh	-9321
▁messy	-9322
▁minus	-9323
▁pizza	-9324
▁proph	-9325
▁pulse	-9326
▁roles	-9327
▁sweat	-9328
▁worms	-9329
rations	-9330
▁carpet	-9331
▁contam	-9332
▁dragon	-9333
▁emails	-9334
▁extrem	-9335
▁fusion	-9336
▁lifted	-9337
▁namely	-9338
▁unlock	-9339
▁vagina	-9340
function	-9341
▁Israeli	-9342
▁Lincoln	-9343
▁belongs	-9344
▁broader	-9345
▁doubled	-9346
▁elegant	-9347
▁enjoyed	-9348
▁follows	-9349
▁formula	-9350
▁gesture	-9351
▁injured	-9352
▁reactor	-9353
▁sectors	-9354
▁utterly	-9355
▁welfare	-9356
▁whistle	-9357
▁wrapped	-9358
▁Egyptian	-9359
▁Probably	-9360
▁artifact	-9361
▁asteroid	-9362
▁boundary	-9363
▁consumed	-9364
▁division	-9365
▁evolving	-9366
▁mentally	-9367
▁randomly	-9368
▁revealed	-9369
▁spinning	-9370
▁tropical	-9371
▁According	-9372
▁abundance	-9373
▁attitudes	-9374
▁correctly	-9375
▁medicines	-9376
▁calculated	-9377
▁inevitably	-9378
▁infectious	-9379
▁legitimate	-9380
▁publishing	-9381
▁consciously	-9382
▁foundations	-9383
,'	-9384
IS	-9385
OL	-9386
tr	-9387
ila	-9388
yon	-9389
▁55	-9390
▁Cr	-9391
▁SP	-9392
city	-9393
igma	-9394
olen	-9395
oter	-9396
▁193	-9397
▁350	-9398
▁Roy	-9399
▁Sus	-9400
▁Tas	-9401
▁Tra	-9402
▁avo	-9403
▁cyl	-9404
▁dil	-9405
▁oct	-9406
▁rib	-9407
▁sel	-9408
▁tin	-9409
atson	-9410
gradu	-9411
thood	-9412
ubble	-9413
uctor	-9414
urday	-9415
▁..."	-9416
▁1900	-9417
▁Abra	-9418
▁Show	-9419
▁Whit	-9420
▁bond	-9421
▁bump	-9422
▁chop	-9423
▁coin	-9424
▁dirt	-9425
▁drum	-9426
▁forb	-9427
▁jeal	-9428
▁logo	-9429
▁mask	-9430
▁stun	-9431
▁ties	-9432
▁Apoll	-9433
▁Gabby	-9434
▁Leban	-9435
▁bills	-9436
▁impul	-9437
▁lever	-9438
▁locom	-9439
▁mines	-9440
▁param	-9441
▁sends	-9442
▁shops	-9443
▁vocal	-9444
faction	-9445
▁Albert	-9446
▁Jersey	-9447
▁Pretty	-9448
▁corrid	-9449
▁cousin	-9450
▁elabor	-9451
▁format	-9452
▁horror	-9453
▁render	-9454
▁retail	-9455
▁sheets	-9456
▁summar	-9457
▁unfold	-9458
▁worthy	-9459
▁Stephen	-9460
▁colored	-9461
▁corners	-9462
▁default	-9463
▁earning	-9464
▁enhance	-9465
▁halfway	-9466
▁healing	-9467
▁rehabil	-9468
▁Business	-9469
▁Tanzania	-9470
▁Together	-9471
▁activate	-9472
▁approved	-9473
▁backyard	-9474
▁disagree	-9475
▁gorgeous	-9476
▁hometown	-9477
▁hopeless	-9478
▁opinions	-9479
▁simplest	-9480
▁touching	-9481
▁Brazilian	-9482
▁Indonesia	-9483
▁aesthetic	-9484
▁expressed	-9485
▁imagining	-9486
▁screaming	-9487
▁workplace	-9488
▁destroying	-9489
▁likelihood	-9490
▁phosphorus	-9491
▁frightening	-9492
▁neuroscient	-9493
▁technically	-9494
▁demonstrated	-9495
▁historically	-9496
▁observations	-9497
God	-9498
isy	-9499
▁Er	-9500
▁UC	-9501
iots	-9502
pril	-9503
real	-9504
thur	-9505
▁Tib	-9506
▁blu	-9507
▁rap	-9508
▁vib	-9509
cover	-9510
eping	-9511
erals	-9512
▁Coke	-9513
▁Ever	-9514
▁Hong	-9515
▁Lord	-9516
▁Mass	-9517
▁crap	-9518
▁deaf	-9519
▁dent	-9520
▁dose	-9521
▁glue	-9522
▁jazz	-9523
▁meme	-9524
▁rabb	-9525
▁verb	-9526
▁ware	-9527
▁April	-9528
▁Coast	-9529
▁Force	-9530
▁Yemen	-9531
▁bonds	-9532
▁fired	-9533
▁grace	-9534
▁illum	-9535
▁lists	-9536
▁maker	-9537
▁meals	-9538
▁resur	-9539
▁sizes	-9540
▁slime	-9541
▁tiles	-9542
▁twist	-9543
essions	-9544
powered	-9545
ressing	-9546
ructive	-9547
▁Singap	-9548
▁Victor	-9549
▁denial	-9550
▁equity	-9551
▁horses	-9552
▁iconic	-9553
▁marker	-9554
▁orphan	-9555
▁prosth	-9556
▁topics	-9557
▁Abraham	-9558
▁Clinton	-9559
▁Connect	-9560
▁Redwood	-9561
▁constit	-9562
▁couples	-9563
▁deepest	-9564
▁happily	-9565
▁implant	-9566
▁insulin	-9567
▁intrins	-9568
▁mankind	-9569
▁museums	-9570
▁nearest	-9571
▁reaches	-9572
▁refused	-9573
▁sensing	-9574
▁simpler	-9575
▁toilets	-9576
bsolutely	-9577
▁Catholic	-9578
▁Leonardo	-9579
▁Saturday	-9580
▁Security	-9581
▁expanded	-9582
▁feminist	-9583
▁findings	-9584
▁incorpor	-9585
▁kindness	-9586
▁priority	-9587
▁surgeons	-9588
▁acknowled	-9589
▁batteries	-9590
▁candidate	-9591
▁hierarchy	-9592
▁reflected	-9593
▁sequences	-9594
▁shoulders	-9595
▁therapies	-9596
▁visualize	-9597
▁automobile	-9598
▁compromise	-9599
▁microphone	-9600
▁narratives	-9601
▁phenomenal	-9602
▁privileged	-9603
▁smartphone	-9604
▁emotionally	-9605
▁overwhelmed	-9606
▁calculations	-9607
▁independence	-9608
▁introduction	-9609
"?	-9610
deg	-9611
uan	-9612
They	-9613
aeda	-9614
aken	-9615
cher	-9616
nman	-9617
oric	-9618
orph	-9619
pers	-9620
rane	-9621
unks	-9622
▁11,	-9623
▁Bol	-9624
▁Dou	-9625
▁Fed	-9626
▁Jup	-9627
▁Rad	-9628
▁Sen	-9629
▁Try	-9630
▁USA	-9631
▁Vol	-9632
▁mud	-9633
▁vel	-9634
acher	-9635
adian	-9636
eling	-9637
peare	-9638
three	-9639
ucose	-9640
▁Hosp	-9641
▁Pitt	-9642
▁Turk	-9643
▁apps	-9644
▁athe	-9645
▁biol	-9646
▁buff	-9647
▁dece	-9648
▁hint	-9649
▁sake	-9650
▁sale	-9651
▁span	-9652
▁tact	-9653
ulsion	-9654
vasive	-9655
▁2005,	-9656
▁Civil	-9657
▁Stage	-9658
▁Teles	-9659
▁jihad	-9660
▁norms	-9661
▁obese	-9662
▁regul	-9663
▁remix	-9664
▁steam	-9665
▁straw	-9666
ictions	-9667
imeters	-9668
theless	-9669
▁Disney	-9670
▁Greece	-9671
▁Watson	-9672
▁approx	-9673
▁atomic	-9674
▁depart	-9675
▁exotic	-9676
▁kidney	-9677
▁modest	-9678
▁nightm	-9679
▁pigeon	-9680
▁riding	-9681
▁selves	-9682
▁stolen	-9683
▁summit	-9684
▁tables	-9685
▁wishes	-9686
etheless	-9687
ventions	-9688
▁Feynman	-9689
▁Jupiter	-9690
▁Switzer	-9691
▁anatomy	-9692
▁assault	-9693
▁cancers	-9694
▁climbed	-9695
▁cricket	-9696
▁distort	-9697
▁genomes	-9698
▁glacier	-9699
▁kidding	-9700
▁laptops	-9701
▁origins	-9702
▁swallow	-9703
▁teaches	-9704
akespeare	-9705
▁Virginia	-9706
▁actively	-9707
▁athletes	-9708
▁contempl	-9709
▁enjoying	-9710
▁nitrogen	-9711
▁predator	-9712
▁prisoner	-9713
▁publicly	-9714
▁scanning	-9715
▁switched	-9716
▁transist	-9717
▁underest	-9718
▁websites	-9719
▁youngest	-9720
▁Singapore	-9721
▁delicious	-9722
▁eliminate	-9723
▁offspring	-9724
▁parachute	-9725
▁resistant	-9726
▁anticipate	-9727
▁remarkably	-9728
▁separation	-9729
▁subjective	-9730
▁Switzerland	-9731
▁overwhelming	-9732
▁controversial	-9733
40	-9734
BA	-9735
eu	-9736
tt	-9737
▁&	-9738
dam	-9739
oen	-9740
raw	-9741
▁RS	-9742
▁SW	-9743
erey	-9744
erry	-9745
ette	-9746
laim	-9747
mind	-9748
▁12,	-9749
▁190	-9750
▁Has	-9751
▁Mur	-9752
▁PMS	-9753
▁Ron	-9754
▁Sup	-9755
▁sav	-9756
▁sco	-9757
▁unw	-9758
asive	-9759
gener	-9760
impse	-9761
inity	-9762
ourse	-9763
rover	-9764
▁Carl	-9765
▁Nick	-9766
▁Nike	-9767
▁Wind	-9768
▁bulb	-9769
▁cuts	-9770
▁ende	-9771
▁epic	-9772
▁jack	-9773
▁thro	-9774
▁ward	-9775
olitan	-9776
thirds	-9777
▁Detro	-9778
▁Queen	-9779
▁Young	-9780
▁ambig	-9781
▁belly	-9782
▁careg	-9783
▁cream	-9784
▁drunk	-9785
▁float	-9786
▁infer	-9787
▁inhib	-9788
▁lanes	-9789
▁loads	-9790
▁memes	-9791
▁pulls	-9792
▁rings	-9793
keepers	-9794
▁60,000	-9795
▁argued	-9796
▁criter	-9797
▁divers	-9798
▁guards	-9799
▁kicked	-9800
▁sketch	-9801
▁biomass	-9802
▁chronic	-9803
▁congest	-9804
▁consent	-9805
▁farther	-9806
▁glimpse	-9807
▁hacking	-9808
▁handful	-9809
▁laughed	-9810
▁optical	-9811
▁planned	-9812
▁recruit	-9813
▁returns	-9814
▁shorter	-9815
▁Monterey	-9816
▁advocate	-9817
▁deployed	-9818
▁dropping	-9819
▁overhead	-9820
▁proposal	-9821
▁reserves	-9822
▁sexually	-9823
▁transact	-9824
▁Argentina	-9825
▁consensus	-9826
▁convicted	-9827
▁integrate	-9828
▁intensity	-9829
▁livestock	-9830
▁orchestra	-9831
▁platforms	-9832
▁precision	-9833
▁protocell	-9834
▁reporting	-9835
▁survivors	-9836
▁textbooks	-9837
▁tolerance	-9838
▁accelerate	-9839
▁determines	-9840
▁discussing	-9841
▁Shakespeare	-9842
▁distinction	-9843
▁realization	-9844
▁Organization	-9845
▁continuously	-9846
▁interventions	-9847
▁visualization	-9848
▁discrimination	-9849
BC	-9850
lif	-9851
rep	-9852
upp	-9853
▁29	-9854
▁31	-9855
▁72	-9856
▁PC	-9857
▁tu	-9858
alog	-9859
amas	-9860
fare	-9861
grad	-9862
seen	-9863
▁10.	-9864
▁Amy	-9865
▁DVD	-9866
▁Kir	-9867
▁Men	-9868
▁hob	-9869
▁wow	-9870
▁wre	-9871
aired	-9872
ansas	-9873
keley	-9874
oenix	-9875
ormal	-9876
proof	-9877
raine	-9878
▁Home	-9879
▁Lead	-9880
▁Lear	-9881
▁Rick	-9882
▁Zero	-9883
▁airl	-9884
▁blob	-9885
▁lawn	-9886
▁mesh	-9887
▁mini	-9888
Please	-9889
alysis	-9890
iously	-9891
orough	-9892
romagn	-9893
uction	-9894
ulture	-9895
▁Creat	-9896
▁Still	-9897
▁alarm	-9898
▁bleed	-9899
▁entit	-9900
▁fence	-9901
▁gains	-9902
▁insec	-9903
▁mimic	-9904
▁naive	-9905
▁nasty	-9906
▁revel	-9907
▁scaff	-9908
▁trips	-9909
ascular	-9910
itivity	-9911
▁Nether	-9912
▁canvas	-9913
▁cultiv	-9914
▁dispar	-9915
▁intact	-9916
▁marath	-9917
▁masses	-9918
▁passes	-9919
▁raises	-9920
▁shower	-9921
▁smells	-9922
▁sovere	-9923
▁typing	-9924
▁viewer	-9925
▁Academy	-9926
▁Atlanta	-9927
▁chamber	-9928
▁charged	-9929
▁cluster	-9930
▁glamour	-9931
▁glucose	-9932
▁grocery	-9933
▁harmful	-9934
▁heavily	-9935
▁hopeful	-9936
▁melting	-9937
▁penalty	-9938
▁shifted	-9939
▁trading	-9940
▁whoever	-9941
▁Berkeley	-9942
▁Interest	-9943
▁ceremony	-9944
▁ideology	-9945
▁indicate	-9946
▁injuries	-9947
▁plastics	-9948
▁Telescope	-9949
▁alongside	-9950
▁compounds	-9951
▁favorites	-9952
▁geography	-9953
▁Geographic	-9954
▁regulation	-9955
▁responding	-9956
▁Netherlands	-9957
▁composition	-9958
▁documentary	-9959
▁electromagn	-9960
▁expressions	-9961
▁fluorescent	-9962
▁instruction	-9963
▁integration	-9964
▁embarrassing	-9965
▁civilizations	-9966
leg	-9967
tra	-9968
zes	-9969
▁37	-9970
▁JH	-9971
▁Wi	-9972
▁nu	-9973
alem	-9974
bean	-9975
bing	-9976
burg	-9977
five	-9978
hear	-9979
ican	-9980
oked	-9981
orse	-9982
▁Def	-9983
▁IBM	-9984
▁Jac	-9985
▁Mer	-9986
arded	-9987
cribe	-9988
heads	-9989
month	-9990
oline	-9991
oured	-9992
ouses	-9993
▁Benj	-9994
▁chef	-9995
▁chew	-9996
▁duty	-9997
▁fest	-9998
▁jugg	-9999
▁lean	-10000
▁lion	-10001
▁mast	-10002
▁porn	-10003
▁symp	-10004
▁thus	-10005
▁torn	-10006
▁wins	-10007
degree	-10008
ending	-10009
▁Elect	-10010
▁Jones	-10011
▁McDon	-10012
▁Stone	-10013
▁Trade	-10014
▁arbit	-10015
▁artic	-10016
▁boots	-10017
▁brush	-10018
▁buses	-10019
▁decor	-10020
▁dough	-10021
▁gross	-10022
▁index	-10023
▁irony	-10024
▁maneu	-10025
▁meets	-10026
▁pants	-10027
▁reass	-10028
▁vivid	-10029
▁Apollo	-10030
▁Gandhi	-10031
▁cattle	-10032
▁cockro	-10033
▁cosmos	-10034
▁regist	-10035
▁serves	-10036
▁speeds	-10037
▁warmer	-10038
omething	-10039
ortunate	-10040
▁History	-10041
▁Iceland	-10042
▁Kingdom	-10043
▁Olympic	-10044
▁Society	-10045
▁antenna	-10046
▁carries	-10047
▁coastal	-10048
▁damaged	-10049
▁endless	-10050
▁harmony	-10051
▁labeled	-10052
▁planted	-10053
▁stadium	-10054
▁strings	-10055
▁announce	-10056
▁assembly	-10057
▁defining	-10058
▁explored	-10059
▁innovate	-10060
▁mutation	-10061
▁thrilled	-10062
▁Aristotle	-10063
▁achieving	-10064
▁bacterial	-10065
▁disasters	-10066
▁fisheries	-10067
▁returning	-10068
▁witnessed	-10069
▁biolumines	-10070
▁candidates	-10071
▁enterprise	-10072
▁journalism	-10073
▁prototypes	-10074
▁suggestion	-10075
▁collaborate	-10076
▁distinguish	-10077
▁investigate	-10078
▁programmers	-10079
▁theoretical	-10080
▁constitution	-10081
▁contributing	-10082
▁philanthropy	-10083
▁representing	-10084
jo	-10085
gon	-10086
nut	-10087
osn	-10088
rof	-10089
yal	-10090
▁3,	-10091
▁Kh	-10092
▁Ol	-10093
adel	-10094
ccer	-10095
eren	-10096
fire	-10097
ials	-10098
igan	-10099
inda	-10100
take	-10101
uana	-10102
▁Aut	-10103
▁Bre	-10104
▁Dru	-10105
▁Dub	-10106
▁Inc	-10107
▁Mos	-10108
▁Nep	-10109
▁Wol	-10110
▁mat	-10111
Thank	-10112
amboo	-10113
anium	-10114
berry	-10115
ellow	-10116
ighth	-10117
iracy	-10118
ogens	-10119
▁Kong	-10120
▁Lego	-10121
▁blew	-10122
▁depr	-10123
▁mant	-10124
▁unle	-10125
ancers	-10126
assemb	-10127
erving	-10128
gevity	-10129
unting	-10130
▁1,500	-10131
▁2004,	-10132
▁Seven	-10133
▁boost	-10134
▁candy	-10135
▁facil	-10136
▁harsh	-10137
▁juice	-10138
▁panic	-10139
▁steep	-10140
▁twent	-10141
▁twins	-10142
atories	-10143
enhagen	-10144
natural	-10145
▁40,000	-10146
▁Daniel	-10147
▁Rights	-10148
▁Steven	-10149
▁Tasman	-10150
▁bamboo	-10151
▁brands	-10152
▁comedy	-10153
▁comics	-10154
▁fluctu	-10155
▁legisl	-10156
▁losses	-10157
▁pestic	-10158
▁rotate	-10159
▁shifts	-10160
▁sooner	-10161
▁timing	-10162
▁wooden	-10163
▁Journal	-10164
▁Supreme	-10165
▁assumed	-10166
▁authors	-10167
▁dilemma	-10168
▁eastern	-10169
▁exploit	-10170
▁fulfill	-10171
▁iceberg	-10172
▁inhabit	-10173
▁matched	-10174
▁maximum	-10175
▁outrage	-10176
▁penguin	-10177
▁scaling	-10178
▁strands	-10179
▁visions	-10180
ventually	-10181
▁accompan	-10182
▁ambition	-10183
▁coverage	-10184
▁detector	-10185
▁freezing	-10186
▁helpless	-10187
▁heritage	-10188
▁intimate	-10189
▁literacy	-10190
▁managing	-10191
▁minority	-10192
▁officers	-10193
▁recycled	-10194
▁rejected	-10195
▁remotely	-10196
▁resident	-10197
▁sticking	-10198
▁visiting	-10199
ustainable	-10200
▁asteroids	-10201
▁desperate	-10202
▁electrons	-10203
▁generates	-10204
▁mutations	-10205
▁occurring	-10206
▁suspended	-10207
▁Copenhagen	-10208
▁basketball	-10209
▁documented	-10210
▁inherently	-10211
▁professors	-10212
▁projection	-10213
▁psychopath	-10214
▁sequencing	-10215
▁trustworth	-10216
▁Development	-10217
▁democracies	-10218
▁destination	-10219
▁regulations	-10220
▁trafficking	-10221
▁accelerating	-10222
▁coordination	-10223
▁headquarters	-10224
▁computational	-10225
▁accountability	-10226
▁representative	-10227
▁transformative	-10228
ETI	-10229
Man	-10230
She	-10231
▁JF	-10232
Come	-10233
iatr	-10234
olas	-10235
omed	-10236
raph	-10237
wart	-10238
▁192	-10239
▁Ele	-10240
▁Mas	-10241
▁Mid	-10242
▁Ult	-10243
▁pla	-10244
▁yog	-10245
plete	-10246
▁9/11	-10247
▁Jews	-10248
▁Libr	-10249
▁Mond	-10250
▁Nord	-10251
▁bush	-10252
▁demo	-10253
▁drif	-10254
▁fees	-10255
▁flaw	-10256
▁herd	-10257
▁obsc	-10258
▁pays	-10259
▁pipe	-10260
▁prey	-10261
ection	-10262
ergart	-10263
iances	-10264
ijuana	-10265
istine	-10266
▁Louis	-10267
▁Tunis	-10268
▁chase	-10269
▁cheat	-10270
▁clubs	-10271
▁consp	-10272
▁feeds	-10273
▁freak	-10274
▁hoped	-10275
▁inexp	-10276
▁picks	-10277
▁slice	-10278
ologies	-10279
osexual	-10280
▁25,000	-10281
▁Arthur	-10282
▁deadly	-10283
▁exceed	-10284
▁flavor	-10285
▁frames	-10286
▁grades	-10287
▁handed	-10288
▁harbor	-10289
▁immort	-10290
▁insist	-10291
▁preced	-10292
▁presum	-10293
▁soccer	-10294
▁waited	-10295
▁wasted	-10296
computer	-10297
ifferent	-10298
▁Medical	-10299
▁careers	-10300
▁generic	-10301
▁hostile	-10302
▁jumping	-10303
▁lottery	-10304
▁rewards	-10305
▁shining	-10306
▁trusted	-10307
▁annivers	-10308
▁circular	-10309
▁criteria	-10310
▁diarrhea	-10311
▁forecast	-10312
▁informal	-10313
▁protests	-10314
▁protocol	-10315
▁skeletal	-10316
▁talented	-10317
▁terrific	-10318
▁Greenland	-10319
▁attracted	-10320
▁comparing	-10321
▁inflation	-10322
▁migration	-10323
▁portraits	-10324
▁Christians	-10325
▁Eventually	-10326
▁adolescent	-10327
▁apartments	-10328
▁confronted	-10329
▁exceptions	-10330
▁concentrate	-10331
▁recognizing	-10332
▁unfortunate	-10333
▁satisfaction	-10334
▁systematically	-10335
?'	-10336
Now	-10337
eem	-10338
isc	-10339
mat	-10340
orr	-10341
psy	-10342
via	-10343
vol	-10344
▁ED	-10345
▁JA	-10346
▁MR	-10347
agan	-10348
bees	-10349
etti	-10350
imag	-10351
inci	-10352
inos	-10353
itar	-10354
olar	-10355
pack	-10356
▁Pop	-10357
▁Sah	-10358
▁Say	-10359
▁awe	-10360
▁ooh	-10361
abeth	-10362
ierra	-10363
osity	-10364
oters	-10365
piece	-10366
▁Bern	-10367
▁Free	-10368
▁Gard	-10369
▁Hind	-10370
▁Phot	-10371
▁Sand	-10372
▁Scot	-10373
▁asth	-10374
▁fier	-10375
▁mixt	-10376
▁seal	-10377
enance	-10378
orient	-10379
ounded	-10380
umbled	-10381
usalem	-10382
▁Tibet	-10383
▁Water	-10384
▁acres	-10385
▁brick	-10386
▁crude	-10387
▁erect	-10388
▁knees	-10389
▁lifel	-10390
▁stamp	-10391
▁taboo	-10392
▁wrest	-10393
▁Around	-10394
▁Joseph	-10395
▁Nathan	-10396
▁Public	-10397
▁confir	-10398
▁empath	-10399
▁evapor	-10400
▁helium	-10401
▁hybrid	-10402
▁insert	-10403
▁judges	-10404
▁lethal	-10405
▁plates	-10406
▁prepar	-10407
▁scheme	-10408
▁triang	-10409
▁viewed	-10410
▁Detroit	-10411
▁Similar	-10412
▁blowing	-10413
▁browser	-10414
▁cardiac	-10415
▁cooling	-10416
▁decides	-10417
▁filling	-10418
▁gallery	-10419
▁inmates	-10420
▁longest	-10421
▁luckily	-10422
▁ordered	-10423
▁playful	-10424
▁pouring	-10425
▁richest	-10426
▁spatial	-10427
▁streams	-10428
▁texture	-10429
▁transit	-10430
▁weekend	-10431
▁Benjamin	-10432
▁Olympics	-10433
▁analyzed	-10434
▁democrat	-10435
▁Jerusalem	-10436
▁answering	-10437
▁champions	-10438
▁collision	-10439
▁contained	-10440
▁converted	-10441
▁elaborate	-10442
▁principal	-10443
▁surgeries	-10444
▁delivering	-10445
▁opposition	-10446
▁practicing	-10447
▁systematic	-10448
▁astronomers	-10449
▁implemented	-10450
▁practically	-10451
▁transmitted	-10452
▁economically	-10453
▁mathematician	-10454
Ah	-10455
bag	-10456
bie	-10457
▁46	-10458
▁48	-10459
▁AI	-10460
▁EM	-10461
▁GG	-10462
▁JS	-10463
▁Sl	-10464
aste	-10465
flow	-10466
idal	-10467
nedy	-10468
phia	-10469
▁130	-10470
▁FDA	-10471
▁Jen	-10472
▁NSA	-10473
▁Old	-10474
▁Pot	-10475
▁Tam	-10476
▁Van	-10477
▁mas	-10478
▁pad	-10479
▁rip	-10480
asure	-10481
iolet	-10482
iumph	-10483
speed	-10484
umbai	-10485
▁Cape	-10486
▁Less	-10487
▁Plan	-10488
▁SETI	-10489
▁belt	-10490
▁bust	-10491
▁epip	-10492
▁kidn	-10493
▁slic	-10494
▁slog	-10495
▁voca	-10496
▁warr	-10497
abling	-10498
awater	-10499
eprint	-10500
stairs	-10501
▁Light	-10502
▁acids	-10503
▁alter	-10504
▁blast	-10505
▁dread	-10506
▁escal	-10507
▁favel	-10508
▁juven	-10509
▁lingu	-10510
▁loses	-10511
▁posed	-10512
▁rains	-10513
▁suits	-10514
▁tapir	-10515
▁unint	-10516
▁voted	-10517
inished	-10518
ocation	-10519
ouncing	-10520
quality	-10521
▁15,000	-10522
▁Jordan	-10523
▁Michel	-10524
▁Mumbai	-10525
▁Secret	-10526
▁accent	-10527
▁cataly	-10528
▁copies	-10529
▁enrich	-10530
▁famine	-10531
▁mammal	-10532
▁racing	-10533
▁refuse	-10534
▁underm	-10535
▁virgin	-10536
▁winner	-10537
adelphia	-10538
ependent	-10539
ergarten	-10540
ountered	-10541
▁150,000	-10542
▁Kennedy	-10543
▁Library	-10544
▁chasing	-10545
▁compreh	-10546
▁counted	-10547
▁cousins	-10548
▁enlight	-10549
▁exagger	-10550
▁forgive	-10551
▁mirrors	-10552
▁powered	-10553
▁priorit	-10554
▁superst	-10555
▁texting	-10556
▁Canadian	-10557
▁Hospital	-10558
▁McDonald	-10559
▁abundant	-10560
▁alphabet	-10561
▁attempts	-10562
▁deciding	-10563
▁entities	-10564
▁improvis	-10565
▁lifespan	-10566
▁membrane	-10567
▁multiply	-10568
▁pleasant	-10569
▁shocking	-10570
▁singular	-10571
▁visually	-10572
▁discussed	-10573
▁inclusive	-10574
▁isolation	-10575
▁neocortex	-10576
▁psychiatr	-10577
▁recession	-10578
▁screening	-10579
▁staircase	-10580
▁universes	-10581
▁Absolutely	-10582
▁irrational	-10583
▁politician	-10584
▁undergradu	-10585
▁Palestinian	-10586
▁anniversary	-10587
▁correlation	-10588
▁encountered	-10589
▁medications	-10590
▁Philadelphia	-10591
▁prostitution	-10592
Go	-10593
LS	-10594
gr	-10595
hr	-10596
vy	-10597
Not	-10598
aza	-10599
▁AM	-10600
▁CM	-10601
▁DM	-10602
▁Da	-10603
▁TK	-10604
aska	-10605
tent	-10606
uilt	-10607
▁Mat	-10608
▁Nav	-10609
▁Ram	-10610
▁Tre	-10611
▁cul	-10612
▁ego	-10613
▁nic	-10614
grand	-10615
matic	-10616
olera	-10617
vania	-10618
▁1930	-10619
▁Brad	-10620
▁CEOs	-10621
▁Desp	-10622
▁Emma	-10623
▁Keep	-10624
▁Kids	-10625
▁Mean	-10626
▁carc	-10627
▁cope	-10628
▁craw	-10629
▁dare	-10630
▁radi	-10631
▁toll	-10632
▁vice	-10633
boards	-10634
orters	-10635
ounder	-10636
ricane	-10637
▁2003,	-10638
▁Alice	-10639
▁Georg	-10640
▁Harry	-10641
▁Laden	-10642
▁advis	-10643
▁alert	-10644
▁chess	-10645
▁codes	-10646
▁couch	-10647
▁drain	-10648
▁fever	-10649
▁flock	-10650
▁infra	-10651
▁marks	-10652
▁occas	-10653
▁probe	-10654
▁spare	-10655
▁spite	-10656
▁texts	-10657
▁wages	-10658
▁watts	-10659
ilation	-10660
izabeth	-10661
ounding	-10662
percent	-10663
rection	-10664
ulative	-10665
▁Arabia	-10666
▁Bhutan	-10667
▁Hawaii	-10668
▁Luther	-10669
▁Recent	-10670
▁abroad	-10671
▁admire	-10672
▁aliens	-10673
▁allies	-10674
▁casual	-10675
▁chimps	-10676
▁counts	-10677
▁courts	-10678
▁crowds	-10679
▁donors	-10680
▁pixels	-10681
▁prohib	-10682
▁purely	-10683
▁scaled	-10684
▁stairs	-10685
▁steady	-10686
▁submit	-10687
▁clarity	-10688
▁digging	-10689
▁eternal	-10690
▁exhibit	-10691
▁fantasy	-10692
▁folding	-10693
▁rescued	-10694
▁reserve	-10695
▁shaking	-10696
▁squeeze	-10697
▁adoption	-10698
▁assemble	-10699
▁basement	-10700
▁cleaning	-10701
▁deserves	-10702
▁dreaming	-10703
▁elevator	-10704
▁entrance	-10705
▁habitats	-10706
▁outbreak	-10707
▁stressed	-10708
▁administr	-10709
▁blueprint	-10710
▁commodity	-10711
▁deception	-10712
▁emergence	-10713
▁magazines	-10714
▁reasoning	-10715
▁resilient	-10716
▁conceptual	-10717
▁employment	-10718
▁fertilizer	-10719
▁horizontal	-10720
▁ingredient	-10721
▁interfaces	-10722
▁invitation	-10723
▁networking	-10724
▁preventing	-10725
▁protective	-10726
▁sculptures	-10727
▁chromosomes	-10728
▁functioning	-10729
▁orientation	-10730
▁preparation	-10731
▁disappointed	-10732
▁prescription	-10733
▁approximately	-10734
▁revolutionary	-10735
Af	-10736
As	-10737
RA	-10738
ki	-10739
kyo	-10740
pos	-10741
syl	-10742
wan	-10743
▁4.	-10744
▁BM	-10745
▁Gr	-10746
▁Ra	-10747
▁ov	-10748
anas	-10749
aver	-10750
food	-10751
pace	-10752
step	-10753
teen	-10754
▁1.2	-10755
▁203	-10756
▁30,	-10757
▁Add	-10758
▁Arm	-10759
▁Luc	-10760
▁Nam	-10761
▁Sum	-10762
▁Tar	-10763
▁Ted	-10764
▁nap	-10765
▁rod	-10766
▁sem	-10767
aurus	-10768
elect	-10769
ennis	-10770
rates	-10771
viron	-10772
▁Chap	-10773
▁Fund	-10774
▁Matt	-10775
▁Oper	-10776
▁adds	-10777
▁blur	-10778
▁flee	-10779
▁panc	-10780
▁piss	-10781
▁scal	-10782
▁tags	-10783
▁turt	-10784
ailand	-10785
airobi	-10786
inable	-10787
shaped	-10788
uminum	-10789
ustice	-10790
▁Craig	-10791
▁Later	-10792
▁Sarah	-10793
▁Tokyo	-10794
▁asset	-10795
▁bulbs	-10796
▁cares	-10797
▁cloth	-10798
▁deter	-10799
▁mater	-10800
▁rigid	-10801
▁scans	-10802
▁seals	-10803
▁slave	-10804
▁stare	-10805
▁yards	-10806
issance	-10807
reating	-10808
umbling	-10809
▁Associ	-10810
▁Having	-10811
▁Sierra	-10812
▁Spring	-10813
▁Thirty	-10814
▁Wright	-10815
▁brutal	-10816
▁cables	-10817
▁circul	-10818
▁digest	-10819
▁dishes	-10820
▁equals	-10821
▁exquis	-10822
▁floors	-10823
▁lately	-10824
▁mapped	-10825
▁server	-10826
▁tribal	-10827
▁unfair	-10828
pectives	-10829
restrial	-10830
sylvania	-10831
▁Nairobi	-10832
▁Suppose	-10833
▁ashamed	-10834
▁budgets	-10835
▁commons	-10836
▁compute	-10837
▁condoms	-10838
▁contest	-10839
▁creator	-10840
▁gardens	-10841
▁honored	-10842
▁menstru	-10843
▁motions	-10844
▁squares	-10845
▁strikes	-10846
▁tightly	-10847
▁triumph	-10848
ationally	-10849
▁Mountain	-10850
▁Nigerian	-10851
▁Thailand	-10852
▁calculus	-10853
▁checking	-10854
▁cocktail	-10855
▁cylinder	-10856
▁encyclop	-10857
▁envelope	-10858
▁motivate	-10859
▁peripher	-10860
▁prospect	-10861
▁siblings	-10862
▁simulate	-10863
▁targeted	-10864
▁variable	-10865
▁Meanwhile	-10866
▁apologize	-10867
▁astronomy	-10868
▁cardboard	-10869
▁celebrity	-10870
▁libraries	-10871
▁lightning	-10872
▁longevity	-10873
▁negotiate	-10874
▁secondary	-10875
▁disconnect	-10876
▁disturbing	-10877
▁empowering	-10878
▁Fortunately	-10879
▁transported	-10880
▁Pennsylvania	-10881
▁kindergarten	-10882
▁significance	-10883
▁exponentially	-10884
▁participating	-10885
▁philosophical	-10886
▁scientifically	-10887
Fi	-10888
IN	-10889
sm	-10890
ecd	-10891
erk	-10892
jud	-10893
oto	-10894
vin	-10895
▁CP	-10896
▁Di	-10897
▁Py	-10898
▁RM	-10899
▁ol	-10900
▁vo	-10901
fund	-10902
isan	-10903
offs	-10904
roup	-10905
wing	-10906
▁12-	-10907
▁15,	-10908
▁900	-10909
▁Ara	-10910
▁Lev	-10911
▁Pen	-10912
▁RNA	-10913
▁caf	-10914
▁goo	-10915
▁nud	-10916
Every	-10917
ancer	-10918
avors	-10919
digit	-10920
epher	-10921
inema	-10922
▁Cold	-10923
▁Post	-10924
▁Ross	-10925
▁alar	-10926
▁beef	-10927
▁bowl	-10928
▁cage	-10929
▁cups	-10930
▁esca	-10931
▁fuck	-10932
▁outl	-10933
▁reck	-10934
▁semi	-10935
▁solo	-10936
▁ster	-10937
▁surg	-10938
▁wage	-10939
minded	-10940
normal	-10941
violet	-10942
▁2012,	-10943
▁8,000	-10944
▁Color	-10945
▁Goals	-10946
▁Roman	-10947
▁anecd	-10948
▁clips	-10949
▁paths	-10950
▁reper	-10951
▁rhyth	-10952
▁tanks	-10953
▁Mozart	-10954
▁Office	-10955
▁boards	-10956
▁contra	-10957
▁foster	-10958
▁graphs	-10959
▁hugely	-10960
▁intric	-10961
▁mutual	-10962
▁nicely	-10963
▁overse	-10964
▁rolled	-10965
▁temple	-10966
aggering	-10967
▁Despite	-10968
▁Lebanon	-10969
▁Mexican	-10970
▁Somalia	-10971
▁acquire	-10972
▁applies	-10973
▁cholera	-10974
▁dancers	-10975
▁filters	-10976
▁grabbed	-10977
▁heating	-10978
▁legally	-10979
▁pleased	-10980
▁segment	-10981
▁spiders	-10982
▁telecom	-10983
▁trailer	-10984
▁western	-10985
effective	-10986
▁acquired	-10987
▁admitted	-10988
▁ancestor	-10989
▁chickens	-10990
▁displays	-10991
▁famously	-10992
▁frontier	-10993
▁gestures	-10994
▁inventor	-10995
▁persuade	-10996
▁prosecut	-10997
▁reflects	-10998
▁regional	-10999
▁revenues	-11000
▁scaffold	-11001
▁tangible	-11002
▁analyzing	-11003
▁associate	-11004
▁embracing	-11005
▁extensive	-11006
▁integrity	-11007
▁successes	-11008
▁surviving	-11009
▁therapist	-11010
▁addressing	-11011
▁critically	-11012
▁enormously	-11013
▁millimeter	-11014
▁parliament	-11015
▁presenting	-11016
▁profitable	-11017
▁prosthetic	-11018
▁considering	-11019
▁cooperative	-11020
▁disciplines	-11021
▁nonetheless	-11022
▁progression	-11023
▁projections	-11024
▁researching	-11025
▁appreciation	-11026
▁authenticity	-11027
▁deliberately	-11028
▁laboratories	-11029
▁philosophers	-11030
▁reproductive	-11031
▁characteristic	-11032
tz	-11033
▁#	-11034
Did	-11035
afe	-11036
har	-11037
pay	-11038
zzy	-11039
▁Av	-11040
▁BJ	-11041
▁DP	-11042
▁DR	-11043
▁Ky	-11044
▁MA	-11045
▁eB	-11046
AIDS	-11047
Just	-11048
aire	-11049
chem	-11050
expl	-11051
eyed	-11052
held	-11053
inch	-11054
page	-11055
ucks	-11056
ylon	-11057
▁'50	-11058
▁1.5	-11059
▁Gar	-11060
▁fir	-11061
▁ger	-11062
▁voy	-11063
▁zoo	-11064
Point	-11065
brush	-11066
glect	-11067
graph	-11068
▁2008	-11069
▁2010	-11070
▁Book	-11071
▁Bosn	-11072
▁Dick	-11073
▁Tues	-11074
▁Year	-11075
▁beds	-11076
▁bugs	-11077
▁cycl	-11078
▁disk	-11079
▁fans	-11080
▁germ	-11081
▁odor	-11082
▁pose	-11083
▁toss	-11084
▁trap	-11085
advant	-11086
bulary	-11087
engers	-11088
inding	-11089
orship	-11090
resist	-11091
solete	-11092
▁2006,	-11093
▁Clear	-11094
▁Cyrus	-11095
▁acute	-11096
▁album	-11097
▁awake	-11098
▁camel	-11099
▁ghost	-11100
▁jumps	-11101
▁morph	-11102
▁rises	-11103
▁strat	-11104
▁sucks	-11105
▁usage	-11106
▁wives	-11107
ourcing	-11108
violent	-11109
▁Alaska	-11110
▁Monday	-11111
▁absurd	-11112
▁checks	-11113
▁copied	-11114
▁cracks	-11115
▁filmed	-11116
▁ironic	-11117
▁mating	-11118
▁occupy	-11119
▁potent	-11120
▁precip	-11121
▁tagged	-11122
▁themes	-11123
▁transm	-11124
▁tricky	-11125
▁urgent	-11126
▁virtue	-11127
▁Charlie	-11128
▁Iranian	-11129
▁Swedish	-11130
▁Tuesday	-11131
▁blessed	-11132
▁desires	-11133
▁dismiss	-11134
▁greatly	-11135
▁impress	-11136
▁logging	-11137
▁neglect	-11138
▁reforms	-11139
▁relates	-11140
▁surveys	-11141
▁talents	-11142
▁travels	-11143
▁warrior	-11144
▁winners	-11145
▁aluminum	-11146
▁angiogen	-11147
▁baseline	-11148
▁cheating	-11149
▁colorful	-11150
▁consists	-11151
▁envision	-11152
▁internet	-11153
▁marathon	-11154
▁maximize	-11155
▁modeling	-11156
▁parasite	-11157
▁passions	-11158
▁pathways	-11159
▁referred	-11160
▁thinkers	-11161
▁disadvant	-11162
▁massively	-11163
▁millennia	-11164
▁observing	-11165
▁parenting	-11166
▁satisfied	-11167
▁struggled	-11168
▁vegetable	-11169
▁wandering	-11170
▁warehouse	-11171
engineering	-11172
▁accumulate	-11173
▁altogether	-11174
▁congestion	-11175
▁households	-11176
▁identities	-11177
▁intentions	-11178
▁locomotion	-11179
▁priorities	-11180
▁procedures	-11181
▁programmed	-11182
▁repeatedly	-11183
▁staggering	-11184
▁vocabulary	-11185
▁Christopher	-11186
▁empowerment	-11187
▁frequencies	-11188
▁frustration	-11189
▁inexpensive	-11190
▁maintenance	-11191
▁sensitivity	-11192
▁substantial	-11193
▁ultraviolet	-11194
▁improvements	-11195
▁individually	-11196
▁partnerships	-11197
▁authoritarian	-11198
▁investigation	-11199
Ex	-11200
HC	-11201
PT	-11202
pa	-11203
sa	-11204
bot	-11205
▁AG	-11206
arly	-11207
bian	-11208
intu	-11209
mass	-11210
osov	-11211
pted	-11212
ucky	-11213
umbs	-11214
velt	-11215
ylac	-11216
▁Ast	-11217
▁Syl	-11218
▁arc	-11219
▁fog	-11220
▁jaw	-11221
▁mit	-11222
▁mum	-11223
▁spa	-11224
Would	-11225
idesp	-11226
ieval	-11227
ittee	-11228
ivals	-11229
ocity	-11230
pound	-11231
rison	-11232
▁Abed	-11233
▁Cost	-11234
▁Wait	-11235
▁adul	-11236
▁beam	-11237
▁calc	-11238
▁curt	-11239
▁dood	-11240
▁folk	-11241
▁hamb	-11242
▁holy	-11243
▁merg	-11244
▁pron	-11245
▁shed	-11246
▁unac	-11247
▁worm	-11248
cribed	-11249
ertips	-11250
estone	-11251
ilated	-11252
imalay	-11253
ograms	-11254
▁2001,	-11255
▁Beach	-11256
▁Broad	-11257
▁Indus	-11258
▁Small	-11259
▁Sudan	-11260
▁ambul	-11261
▁arise	-11262
▁chunk	-11263
▁clues	-11264
▁fails	-11265
▁greet	-11266
▁moist	-11267
▁mycel	-11268
▁noisy	-11269
▁paste	-11270
▁roofs	-11271
▁simul	-11272
▁slept	-11273
▁towns	-11274
▁zeros	-11275
frontal	-11276
iterate	-11277
▁Edward	-11278
▁Hubble	-11279
▁angles	-11280
▁beside	-11281
▁biases	-11282
▁candle	-11283
▁closet	-11284
▁dancer	-11285
▁earned	-11286
▁eighth	-11287
▁grains	-11288
▁mixing	-11289
▁scarce	-11290
▁traces	-11291
▁viable	-11292
▁Everest	-11293
▁Himalay	-11294
▁Montana	-11295
▁columns	-11296
▁dispers	-11297
▁episode	-11298
▁explode	-11299
▁flights	-11300
▁fossils	-11301
▁honesty	-11302
▁matches	-11303
▁monster	-11304
▁passage	-11305
▁pathway	-11306
▁reclaim	-11307
▁touches	-11308
▁utility	-11309
idespread	-11310
izational	-11311
mentation	-11312
ropolitan	-11313
▁balloons	-11314
▁detected	-11315
▁gasoline	-11316
▁goodness	-11317
▁headline	-11318
▁humility	-11319
▁infrared	-11320
▁interpre	-11321
▁maneuver	-11322
▁minerals	-11323
▁missions	-11324
▁obsolete	-11325
▁obstacle	-11326
▁pipeline	-11327
▁seawater	-11328
▁sometime	-11329
▁survivor	-11330
▁uniquely	-11331
generation	-11332
ographical	-11333
▁Elizabeth	-11334
▁Therefore	-11335
▁artifacts	-11336
▁dictators	-11337
▁execution	-11338
▁fireflies	-11339
▁involving	-11340
▁judgments	-11341
▁mushrooms	-11342
▁nightmare	-11343
▁pressures	-11344
▁processor	-11345
▁producers	-11346
▁projected	-11347
▁replacing	-11348
▁skeptical	-11349
▁PowerPoint	-11350
▁accurately	-11351
▁celebrated	-11352
▁convincing	-11353
▁disruptive	-11354
▁inventions	-11355
▁pedestrian	-11356
▁renewables	-11357
▁translator	-11358
▁Association	-11359
▁dysfunction	-11360
▁questioning	-11361
▁replacement	-11362
▁statistical	-11363
▁stimulation	-11364
▁chemotherapy	-11365
▁perspectives	-11366
▁collaborators	-11367
▁experimenting	-11368
▁rehabilitation	-11369
ER	-11370
ao	-11371
100	-11372
Mom	-11373
One	-11374
bee	-11375
cod	-11376
iro	-11377
lah	-11378
run	-11379
▁52	-11380
▁ID	-11381
▁IP	-11382
▁Ir	-11383
▁JC	-11384
▁UK	-11385
aman	-11386
copy	-11387
hors	-11388
iasm	-11389
inea	-11390
lets	-11391
oton	-11392
rove	-11393
sens	-11394
umen	-11395
yles	-11396
▁140	-11397
▁160	-11398
▁50-	-11399
▁Ang	-11400
▁Ask	-11401
▁Han	-11402
▁Nin	-11403
▁Tit	-11404
▁bip	-11405
ambod	-11406
arial	-11407
ffiti	-11408
roots	-11409
▁Know	-11410
▁Mall	-11411
▁Marc	-11412
▁Peru	-11413
▁Wood	-11414
▁apes	-11415
▁appe	-11416
▁cram	-11417
▁cube	-11418
▁dens	-11419
▁nano	-11420
▁narc	-11421
▁numb	-11422
▁plut	-11423
▁pops	-11424
▁rays	-11425
▁unre	-11426
alized	-11427
ements	-11428
epherd	-11429
ibbean	-11430
ndered	-11431
second	-11432
▁Fifty	-11433
▁Kosov	-11434
▁Nepal	-11435
▁alike	-11436
▁ethic	-11437
▁frogs	-11438
▁fuzzy	-11439
▁grant	-11440
▁macro	-11441
▁newly	-11442
▁penis	-11443
▁woods	-11444
alities	-11445
onsense	-11446
raising	-11447
▁Cambod	-11448
▁Golden	-11449
▁Humans	-11450
▁Sahara	-11451
▁apples	-11452
▁assure	-11453
▁banned	-11454
▁behold	-11455
▁contag	-11456
▁enters	-11457
▁firing	-11458
▁fruits	-11459
▁gravit	-11460
▁hatred	-11461
▁humble	-11462
▁insult	-11463
▁racial	-11464
▁reflex	-11465
▁salmon	-11466
▁spiral	-11467
▁stigma	-11468
▁thrive	-11469
▁weighs	-11470
breaking	-11471
▁Clearly	-11472
▁Defense	-11473
▁altered	-11474
▁checked	-11475
▁dreamed	-11476
▁emerges	-11477
▁exhaust	-11478
▁liberty	-11479
▁portray	-11480
▁praying	-11481
▁reveals	-11482
▁sadness	-11483
▁settled	-11484
▁seventh	-11485
▁shadows	-11486
▁shortly	-11487
▁sounded	-11488
▁thereby	-11489
▁thermal	-11490
▁viewing	-11491
conscious	-11492
inational	-11493
▁Consider	-11494
▁Whenever	-11495
▁autistic	-11496
▁autonomy	-11497
▁champion	-11498
▁gigantic	-11499
▁numerous	-11500
▁operates	-11501
▁overseas	-11502
▁primates	-11503
▁stealing	-11504
▁triangle	-11505
▁weakness	-11506
ifications	-11507
▁Caribbean	-11508
▁Egyptians	-11509
▁activated	-11510
▁augmented	-11511
▁bacterium	-11512
▁consuming	-11513
▁diplomacy	-11514
▁emphasize	-11515
▁finishing	-11516
▁indicates	-11517
▁injustice	-11518
▁instances	-11519
▁metabolic	-11520
▁pervasive	-11521
▁promoting	-11522
▁worldview	-11523
▁Australian	-11524
▁accounting	-11525
▁adaptation	-11526
▁attributes	-11527
▁developers	-11528
▁diagnostic	-11529
▁enthusiasm	-11530
▁intriguing	-11531
▁metabolism	-11532
▁predicting	-11533
▁quantities	-11534
▁supportive	-11535
▁celebration	-11536
▁corresponds	-11537
▁catastrophic	-11538
▁disappearing	-11539
▁explanations	-11540
▁reproduction	-11541
NC	-11542
ja	-11543
po	-11544
▁]	-11545
SPR	-11546
sex	-11547
you	-11548
acco	-11549
acle	-11550
assy	-11551
aven	-11552
beat	-11553
eman	-11554
oler	-11555
ptic	-11556
size	-11557
uper	-11558
▁CRI	-11559
▁Dig	-11560
▁Sad	-11561
▁cod	-11562
▁gad	-11563
▁jan	-11564
▁kit	-11565
Afric	-11566
allas	-11567
ester	-11568
negie	-11569
onder	-11570
rowth	-11571
urger	-11572
uster	-11573
▁Data	-11574
▁Hold	-11575
▁Main	-11576
▁Pete	-11577
▁Phys	-11578
▁Work	-11579
▁clar	-11580
▁debr	-11581
▁dorm	-11582
▁eBay	-11583
▁ease	-11584
▁fame	-11585
▁fled	-11586
▁goat	-11587
▁hurd	-11588
▁iPad	-11589
▁leak	-11590
▁node	-11591
▁tale	-11592
ankind	-11593
formed	-11594
ieties	-11595
inates	-11596
ogenic	-11597
▁Guard	-11598
▁Heart	-11599
▁Libya	-11600
▁Linux	-11601
▁Party	-11602
▁Pitts	-11603
▁adequ	-11604
▁arena	-11605
▁chore	-11606
▁crows	-11607
▁discl	-11608
▁freed	-11609
▁guerr	-11610
▁hills	-11611
▁jeans	-11612
▁manus	-11613
▁marsh	-11614
▁midst	-11615
▁smugg	-11616
▁verge	-11617
▁yeast	-11618
acities	-11619
aghetti	-11620
holders	-11621
▁CRISPR	-11622
▁Cancer	-11623
▁Colomb	-11624
▁Greeks	-11625
▁Joshua	-11626
▁Norden	-11627
▁Notice	-11628
▁Sylvia	-11629
▁Unlike	-11630
▁beetle	-11631
▁calend	-11632
▁folded	-11633
▁interd	-11634
▁jungle	-11635
▁metals	-11636
▁resemb	-11637
▁reserv	-11638
▁resort	-11639
▁slaves	-11640
▁snakes	-11641
▁storms	-11642
▁unseen	-11643
▁violin	-11644
▁voters	-11645
▁Certain	-11646
▁Climate	-11647
▁Georgia	-11648
▁Phoenix	-11649
▁Stewart	-11650
▁airline	-11651
▁anytime	-11652
▁appoint	-11653
▁buttons	-11654
▁captain	-11655
▁chemist	-11656
▁crystal	-11657
▁desktop	-11658
▁enthusi	-11659
▁gallons	-11660
▁goodbye	-11661
▁lighter	-11662
▁migrate	-11663
▁quietly	-11664
▁shelves	-11665
▁upright	-11666
▁volumes	-11667
▁Carnegie	-11668
▁Columbia	-11669
▁Michigan	-11670
▁accommod	-11671
▁assigned	-11672
▁confined	-11673
▁endeavor	-11674
▁friction	-11675
▁intimacy	-11676
▁lectures	-11677
▁mattered	-11678
▁noticing	-11679
▁petition	-11680
▁pressing	-11681
▁pursuing	-11682
▁receptor	-11683
▁regulate	-11684
▁supports	-11685
▁thorough	-11686
▁Architect	-11687
▁Similarly	-11688
▁addressed	-11689
▁countless	-11690
▁displaced	-11691
▁fishermen	-11692
▁graduates	-11693
▁impressed	-11694
▁intervene	-11695
▁obsession	-11696
▁paralysis	-11697
▁promising	-11698
▁recovered	-11699
▁respected	-11700
▁sexuality	-11701
▁similarly	-11702
▁variables	-11703
▁beneficial	-11704
▁friendship	-11705
▁regenerate	-11706
▁relativity	-11707
▁widespread	-11708
▁accountable	-11709
▁citizenship	-11710
▁controversy	-11711
▁frustrating	-11712
▁problematic	-11713
▁revolutions	-11714
▁angiogenesis	-11715
▁dictionaries	-11716
▁nevertheless	-11717
▁Interestingly	-11718
▁multinational	-11719
▁spontaneously	-11720
CH	-11721
ES	-11722
300	-11723
bec	-11724
een	-11725
isa	-11726
lad	-11727
loc	-11728
▁7,	-11729
▁Ba	-11730
▁Lo	-11731
▁MO	-11732
▁Wr	-11733
▁ic	-11734
Cola	-11735
Good	-11736
educ	-11737
eron	-11738
gage	-11739
oven	-11740
unes	-11741
▁50,	-11742
▁Beh	-11743
▁Cir	-11744
▁Dal	-11745
▁Ell	-11746
▁LHC	-11747
▁Naz	-11748
▁Top	-11749
▁bay	-11750
▁fee	-11751
▁hut	-11752
ached	-11753
appro	-11754
ccoli	-11755
epler	-11756
fight	-11757
leans	-11758
pling	-11759
sight	-11760
venue	-11761
▁Bali	-11762
▁Band	-11763
▁Coca	-11764
▁Fred	-11765
▁Mind	-11766
▁Pent	-11767
▁Such	-11768
▁Tele	-11769
▁Zimb	-11770
▁buzz	-11771
▁conj	-11772
▁foie	-11773
▁font	-11774
▁oven	-11775
▁pean	-11776
▁reun	-11777
▁seam	-11778
▁stew	-11779
▁tide	-11780
angelo	-11781
inator	-11782
redict	-11783
rogram	-11784
screen	-11785
ugging	-11786
ussani	-11787
▁Const	-11788
▁Death	-11789
▁Fried	-11790
▁Lagos	-11791
▁Larry	-11792
▁Namib	-11793
▁Story	-11794
▁Tesla	-11795
▁Venus	-11796
▁bribe	-11797
▁dates	-11798
▁inert	-11799
▁laund	-11800
▁physi	-11801
▁sells	-11802
▁squid	-11803
▁tiger	-11804
▁wiped	-11805
eliness	-11806
million	-11807
▁12,000	-11808
▁Canyon	-11809
▁Commun	-11810
▁Others	-11811
▁anonym	-11812
▁asthma	-11813
▁bypass	-11814
▁cement	-11815
▁cooler	-11816
▁ethics	-11817
▁fixing	-11818
▁freeze	-11819
▁hacker	-11820
▁heroic	-11821
▁hunter	-11822
▁irrele	-11823
▁marrow	-11824
▁mature	-11825
▁mouths	-11826
▁punish	-11827
▁salary	-11828
▁spends	-11829
▁submar	-11830
▁thylac	-11831
▁undert	-11832
▁upward	-11833
▁viscer	-11834
▁washed	-11835
▁Orleans	-11836
▁Philipp	-11837
▁Usually	-11838
▁affairs	-11839
▁archive	-11840
▁beetles	-11841
▁confirm	-11842
▁devoted	-11843
▁easiest	-11844
▁examine	-11845
▁magnets	-11846
▁mixture	-11847
▁newborn	-11848
▁phrases	-11849
▁pricing	-11850
▁silicon	-11851
▁skilled	-11852
▁victory	-11853
▁Giussani	-11854
▁TEDTalks	-11855
▁assuming	-11856
▁blocking	-11857
▁exploded	-11858
▁imprison	-11859
▁invasion	-11860
▁misunder	-11861
▁operator	-11862
▁patience	-11863
▁purchase	-11864
▁supernov	-11865
▁symbolic	-11866
▁upstream	-11867
controlled	-11868
▁Education	-11869
▁Jefferson	-11870
▁exclusive	-11871
▁humankind	-11872
▁illusions	-11873
▁ingenuity	-11874
▁inherited	-11875
▁launching	-11876
▁marijuana	-11877
▁stimulate	-11878
▁strengths	-11879
▁sustained	-11880
▁unpredict	-11881
▁disappears	-11882
▁frightened	-11883
▁generosity	-11884
▁physiology	-11885
▁reflective	-11886
▁symmetries	-11887
▁Republicans	-11888
▁destructive	-11889
▁efficiently	-11890
▁embarrassed	-11891
▁flexibility	-11892
▁perceptions	-11893
▁symmetrical	-11894
▁disabilities	-11895
▁tremendously	-11896
▁unemployment	-11897
▁independently	-11898
▁hallucinations	-11899
▁entrepreneurial	-11900
Le	-11901
▁:	-11902
bes	-11903
eys	-11904
gue	-11905
idi	-11906
iva	-11907
nik	-11908
sea	-11909
▁44	-11910
▁gy	-11911
abwe	-11912
anol	-11913
asha	-11914
cuse	-11915
elle	-11916
enez	-11917
iner	-11918
roid	-11919
weet	-11920
▁16,	-11921
▁ALS	-11922
▁Ash	-11923
▁CMU	-11924
▁Die	-11925
▁Emb	-11926
▁Hot	-11927
▁Muh	-11928
▁Rog	-11929
▁Ter	-11930
▁Win	-11931
▁cum	-11932
▁eru	-11933
▁gel	-11934
▁owe	-11935
▁sha	-11936
▁vig	-11937
actic	-11938
amous	-11939
child	-11940
erers	-11941
essim	-11942
ilibr	-11943
iotic	-11944
opian	-11945
shore	-11946
thals	-11947
ugged	-11948
vance	-11949
▁Cuba	-11950
▁Fire	-11951
▁Food	-11952
▁Pers	-11953
▁Sher	-11954
▁Slow	-11955
▁Soon	-11956
▁bent	-11957
▁cafe	-11958
▁eats	-11959
▁edit	-11960
▁orth	-11961
▁padd	-11962
▁perf	-11963
▁perm	-11964
▁slip	-11965
▁sums	-11966
▁tips	-11967
▁twin	-11968
▁yard	-11969
embers	-11970
forced	-11971
iments	-11972
▁2010.	-11973
▁Milky	-11974
▁Music	-11975
▁Paulo	-11976
▁Simon	-11977
▁alleg	-11978
▁divid	-11979
▁drama	-11980
▁faint	-11981
▁fleet	-11982
▁heter	-11983
▁hurts	-11984
▁lakes	-11985
▁merit	-11986
▁myths	-11987
▁octop	-11988
▁pipes	-11989
▁pumps	-11990
▁shuff	-11991
▁slope	-11992
▁snake	-11993
▁trait	-11994
▁unequ	-11995
▁withd	-11996
▁wreck	-11997
Because	-11998
conomic	-11999
iscover	-12000
ultural	-12001
version	-12002
▁Empire	-12003
▁Kepler	-12004
▁Native	-12005
▁Warren	-12006
▁bloody	-12007
▁bounce	-12008
▁cathed	-12009
▁cinema	-12010
▁debris	-12011
▁divine	-12012
▁entity	-12013
▁fights	-12014
▁guitar	-12015
▁helmet	-12016
▁improb	-12017
▁ladder	-12018
▁marked	-12019
▁pilots	-12020
▁prejud	-12021
▁reader	-12022
▁routes	-12023
▁shares	-12024
▁slowed	-12025
▁throat	-12026
▁truths	-12027
▁underp	-12028
ilibrium	-12029
velength	-12030
▁Country	-12031
▁Environ	-12032
▁Hundred	-12033
▁Natural	-12034
▁amateur	-12035
▁blocked	-12036
▁council	-12037
▁cracked	-12038
▁deficit	-12039
▁donated	-12040
▁markers	-12041
▁minimal	-12042
▁notions	-12043
▁persons	-12044
▁premise	-12045
▁shaping	-12046
▁tickets	-12047
▁warfare	-12048
condition	-12049
▁Zimbabwe	-12050
▁adaptive	-12051
▁applause	-12052
▁commonly	-12053
▁composed	-12054
▁declared	-12055
▁diamonds	-12056
▁doubling	-12057
▁emergent	-12058
▁enabling	-12059
▁equipped	-12060
▁executed	-12061
▁graffiti	-12062
▁magician	-12063
▁modified	-12064
▁mycelium	-12065
▁obtained	-12066
▁plankton	-12067
▁register	-12068
▁sneakers	-12069
▁stepping	-12070
▁surgical	-12071
▁velocity	-12072
▁visitors	-12073
▁workshop	-12074
▁accepting	-12075
▁ambulance	-12076
▁assistant	-12077
▁attending	-12078
▁biosphere	-12079
▁breakdown	-12080
▁demograph	-12081
▁executive	-12082
▁exercises	-12083
▁intersect	-12084
▁processed	-12085
▁qualified	-12086
▁spaghetti	-12087
▁summarize	-12088
▁Scientists	-12089
▁brainstorm	-12090
▁disgusting	-12091
▁grassroots	-12092
▁innovators	-12093
▁passengers	-12094
▁prevalence	-12095
▁propaganda	-12096
▁calculation	-12097
▁documenting	-12098
▁existential	-12099
▁expectation	-12100
▁financially	-12101
▁psychiatric	-12102
▁Neanderthals	-12103
▁illustration	-12104
▁manipulation	-12105
▁urbanization	-12106
▁configuration	-12107
▁consideration	-12108
▁gravitational	-12109
▁/	-12110
ECD	-12111
boy	-12112
fig	-12113
lem	-12114
una	-12115
vet	-12116
weg	-12117
wid	-12118
▁38	-12119
▁43	-12120
▁Cy	-12121
▁ST	-12122
▁oy	-12123
acks	-12124
adow	-12125
blow	-12126
bone	-12127
bral	-12128
eddy	-12129
eton	-12130
hops	-12131
icut	-12132
mics	-12133
mile	-12134
otal	-12135
rose	-12136
urbs	-12137
zone	-12138
▁14,	-12139
▁18,	-12140
▁24-	-12141
▁DAR	-12142
▁Fil	-12143
▁Ham	-12144
▁Kar	-12145
▁Lee	-12146
▁Lew	-12147
▁Mig	-12148
▁Oft	-12149
▁Sub	-12150
▁Tai	-12151
▁ape	-12152
▁lex	-12153
▁rum	-12154
ammad	-12155
borne	-12156
cycle	-12157
igned	-12158
shirt	-12159
story	-12160
▁2005	-12161
▁Bert	-12162
▁Dave	-12163
▁Expl	-12164
▁Gall	-12165
▁Hung	-12166
▁Milo	-12167
▁OECD	-12168
▁Stop	-12169
▁TEDx	-12170
▁Wars	-12171
▁anom	-12172
▁bion	-12173
▁budd	-12174
▁gaze	-12175
▁puff	-12176
▁sang	-12177
▁skip	-12178
▁slam	-12179
▁slum	-12180
apagos	-12181
bercul	-12182
enment	-12183
ervice	-12184
handed	-12185
irable	-12186
lahoma	-12187
ortune	-12188
ranean	-12189
rition	-12190
school	-12191
▁Danny	-12192
▁Prime	-12193
▁Princ	-12194
▁Qaeda	-12195
▁Using	-12196
▁Venez	-12197
▁backs	-12198
▁centr	-12199
▁crank	-12200
▁deple	-12201
▁draws	-12202
▁folds	-12203
▁hobby	-12204
▁jokes	-12205
▁oppon	-12206
▁recur	-12207
▁riots	-12208
▁shred	-12209
▁snaps	-12210
▁surre	-12211
▁swing	-12212
▁tuned	-12213
develop	-12214
itorium	-12215
ocratic	-12216
▁Buddha	-12217
▁Dallas	-12218
▁Norweg	-12219
▁Syrian	-12220
▁Yellow	-12221
▁benign	-12222
▁copper	-12223
▁depths	-12224
▁empire	-12225
▁firmly	-12226
▁hypoth	-12227
▁laying	-12228
▁pessim	-12229
▁powder	-12230
▁tender	-12231
▁unimag	-12232
▁update	-12233
appiness	-12234
▁anxious	-12235
▁categor	-12236
▁cleaned	-12237
▁defines	-12238
▁divorce	-12239
▁grammar	-12240
▁joining	-12241
▁outdoor	-12242
▁primate	-12243
▁sailing	-12244
▁submers	-12245
▁subsequ	-12246
▁sulfide	-12247
▁torture	-12248
▁tracked	-12249
▁wonders	-12250
▁wounded	-12251
intuitive	-12252
▁Portugal	-12253
▁Recently	-12254
▁Venezuel	-12255
▁certific	-12256
▁chapters	-12257
▁commands	-12258
▁contacts	-12259
▁diagnose	-12260
▁embodied	-12261
▁embraced	-12262
▁entitled	-12263
▁glaciers	-12264
▁indirect	-12265
▁jealousy	-12266
▁juvenile	-12267
▁memorial	-12268
▁planting	-12269
▁promises	-12270
▁responds	-12271
▁societal	-12272
berculosis	-12273
▁Galapagos	-12274
▁Princeton	-12275
▁Secretary	-12276
▁affection	-12277
▁aggregate	-12278
▁arbitrary	-12279
▁assembled	-12280
▁cellphone	-12281
▁combining	-12282
▁container	-12283
▁demanding	-12284
▁filmmaker	-12285
▁kilometer	-12286
▁releasing	-12287
▁routinely	-12288
▁scenarios	-12289
▁simulated	-12290
▁submitted	-12291
▁Pittsburgh	-12292
▁acceptable	-12293
▁acceptance	-12294
▁courageous	-12295
▁playground	-12296
▁reasonably	-12297
▁recognizes	-12298
▁Connecticut	-12299
▁aspirations	-12300
▁calculating	-12301
▁celebrating	-12302
▁circulation	-12303
▁conferences	-12304
▁equilibrium	-12305
▁measurement	-12306
▁microscopic	-12307
▁stereotypes	-12308
▁transferred	-12309
▁willingness	-12310
▁wonderfully	-12311
▁disconnected	-12312
▁breakthroughs	-12313
▁developmental	-12314
▁improvisation	-12315
▁personalities	-12316
▁photographers	-12317
▁statistically	-12318
▁electromagnetic	-12319
-2	-12320
Ar	-12321
Cl	-12322
EA	-12323
600	-12324
800	-12325
but	-12326
fts	-12327
jan	-12328
mia	-12329
nie	-12330
obi	-12331
odd	-12332
pit	-12333
rer	-12334
sis	-12335
ugs	-12336
▁4,	-12337
▁Ec	-12338
▁Od	-12339
acre	-12340
amil	-12341
anch	-12342
arat	-12343
aron	-12344
bles	-12345
core	-12346
dest	-12347
eled	-12348
fing	-12349
neum	-12350
otan	-12351
rays	-12352
soon	-12353
uled	-12354
wear	-12355
▁180	-12356
▁450	-12357
▁Bor	-12358
▁Ide	-12359
▁McG	-12360
▁Mot	-12361
▁Pet	-12362
▁Reg	-12363
▁Scr	-12364
▁Too	-12365
▁bol	-12366
▁cav	-12367
▁fet	-12368
▁hij	-12369
▁hug	-12370
▁los	-12371
achel	-12372
arium	-12373
asant	-12374
berty	-12375
crast	-12376
erate	-12377
ibati	-12378
icism	-12379
illas	-12380
illes	-12381
loved	-12382
rovir	-12383
ucked	-12384
▁2009	-12385
▁Jama	-12386
▁Jean	-12387
▁Lama	-12388
▁Real	-12389
▁appl	-12390
▁cops	-12391
▁dome	-12392
▁extr	-12393
▁hect	-12394
▁lane	-12395
▁lips	-12396
▁lump	-12397
▁mang	-12398
▁mund	-12399
asting	-12400
iately	-12401
itical	-12402
lights	-12403
obiles	-12404
ocracy	-12405
odynam	-12406
opardy	-12407
rhythm	-12408
strong	-12409
▁9/11,	-12410
▁Doesn	-12411
▁Keith	-12412
▁Quite	-12413
▁Roose	-12414
▁Royal	-12415
▁Start	-12416
▁chalk	-12417
▁dealt	-12418
▁firms	-12419
▁fungi	-12420
▁gifts	-12421
▁hatch	-12422
▁insur	-12423
▁piles	-12424
▁races	-12425
▁sadly	-12426
▁scope	-12427
▁traff	-12428
ilizing	-12429
sterdam	-12430
▁Doctor	-12431
▁Either	-12432
▁Kansas	-12433
▁Taiwan	-12434
▁arrows	-12435
▁differ	-12436
▁elders	-12437
▁facult	-12438
▁fierce	-12439
▁hooked	-12440
▁loaded	-12441
▁pollut	-12442
▁poured	-12443
▁psycho	-12444
▁spouse	-12445
▁syring	-12446
▁thrust	-12447
▁towers	-12448
ceptable	-12449
oriented	-12450
▁300,000	-12451
▁400,000	-12452
▁Justice	-12453
▁Looking	-12454
▁chaotic	-12455
▁charter	-12456
▁crashes	-12457
▁crushed	-12458
▁deserts	-12459
▁editors	-12460
▁enzymes	-12461
▁epiphan	-12462
▁equator	-12463
▁expense	-12464
▁frontal	-12465
▁jewelry	-12466
▁knocked	-12467
▁linking	-12468
▁mammoth	-12469
▁nucleus	-12470
▁placebo	-12471
▁reviews	-12472
▁romance	-12473
▁suburbs	-12474
▁symptom	-12475
▁vitamin	-12476
▁Buddhist	-12477
▁Kiribati	-12478
▁Movement	-12479
▁Muhammad	-12480
▁Oklahoma	-12481
▁acoustic	-12482
▁broccoli	-12483
▁civilian	-12484
▁degraded	-12485
▁flourish	-12486
▁horrific	-12487
▁insisted	-12488
▁nonsense	-12489
▁passport	-12490
▁presents	-12491
▁quantity	-12492
▁sacrific	-12493
▁sections	-12494
▁shepherd	-12495
▁smartest	-12496
▁superher	-12497
▁threaten	-12498
ysomething	-12499
▁Roosevelt	-12500
▁afterward	-12501
▁attacking	-12502
▁attempted	-12503
▁cigarette	-12504
▁confusion	-12505
▁fragments	-12506
▁galleries	-12507
▁illnesses	-12508
▁implanted	-12509
▁pregnancy	-12510
▁preserved	-12511
▁voluntary	-12512
▁Parliament	-12513
▁Ultimately	-12514
▁antibiotic	-12515
▁assessment	-12516
▁coordinate	-12517
▁distribute	-12518
▁specialist	-12519
▁wavelength	-12520
▁accelerated	-12521
▁adolescence	-12522
▁association	-12523
▁complaining	-12524
▁countryside	-12525
▁exceptional	-12526
▁initiatives	-12527
▁meaningless	-12528
▁permanently	-12529
▁rainforests	-12530
▁scholarship	-12531
▁Michelangelo	-12532
▁biologically	-12533
▁developments	-12534
▁presidential	-12535
▁tuberculosis	-12536
▁comprehensive	-12537
▁contradiction	-12538
▁contributions	-12539
▁incarceration	-12540
.5	-12541
BT	-12542
EM	-12543
FO	-12544
IA	-12545
To	-12546
ARS	-12547
Pro	-12548
asa	-12549
dad	-12550
obo	-12551
urp	-12552
zer	-12553
▁'8	-12554
▁86	-12555
▁98	-12556
▁AD	-12557
▁Ku	-12558
▁PR	-12559
▁SO	-12560
▁Si	-12561
▁Sk	-12562
axis	-12563
cium	-12564
mart	-12565
obic	-12566
otto	-12567
risk	-12568
uten	-12569
wall	-12570
▁1.3	-12571
▁40-	-12572
▁Bru	-12573
▁Cat	-12574
▁Kim	-12575
▁Run	-12576
▁SMS	-12577
▁Tah	-12578
▁dug	-12579
▁gym	-12580
▁obe	-12581
▁thy	-12582
▁unb	-12583
Great	-12584
actly	-12585
atics	-12586
bands	-12587
cture	-12588
heric	-12589
ilson	-12590
izona	-12591
munic	-12592
oping	-12593
tends	-12594
uddin	-12595
ulent	-12596
▁Alan	-12597
▁Ardu	-12598
▁Jobs	-12599
▁Lady	-12600
▁Line	-12601
▁Luck	-12602
▁bore	-12603
▁gait	-12604
▁gosh	-12605
▁heck	-12606
▁jury	-12607
▁menu	-12608
▁nick	-12609
▁owns	-12610
▁rhet	-12611
abytes	-12612
alling	-12613
irling	-12614
resses	-12615
uation	-12616
▁1990,	-12617
▁2000.	-12618
▁7,000	-12619
▁Chuck	-12620
▁Dalai	-12621
▁Diego	-12622
▁Leone	-12623
▁Radio	-12624
▁Stand	-12625
▁bands	-12626
▁choir	-12627
▁crust	-12628
▁drift	-12629
▁empir	-12630
▁files	-12631
▁glory	-12632
▁incub	-12633
▁kilos	-12634
▁pneum	-12635
▁recip	-12636
▁repet	-12637
▁rides	-12638
▁stole	-12639
▁toast	-12640
▁wrink	-12641
anguage	-12642
growing	-12643
inative	-12644
inators	-12645
thetics	-12646
▁Cities	-12647
▁Garden	-12648
▁Invest	-12649
▁Johnny	-12650
▁Kosovo	-12651
▁Person	-12652
▁Wouldn	-12653
▁angels	-12654
▁biased	-12655
▁bucket	-12656
▁condem	-12657
▁defeat	-12658
▁finite	-12659
▁harass	-12660
▁heroin	-12661
▁hollow	-12662
▁issued	-12663
▁lasted	-12664
▁learns	-12665
▁lenses	-12666
▁listed	-12667
▁obsess	-12668
▁poorly	-12669
▁scroll	-12670
▁shield	-12671
▁singer	-12672
▁slogan	-12673
▁smiles	-12674
▁stocks	-12675
▁tastes	-12676
▁waking	-12677
▁wished	-12678
ictional	-12679
▁Alright	-12680
▁Arizona	-12681
▁Denmark	-12682
▁Francis	-12683
▁Liberia	-12684
▁Snowden	-12685
▁Somehow	-12686
▁abandon	-12687
▁bananas	-12688
▁barbers	-12689
▁compens	-12690
▁complim	-12691
▁copying	-12692
▁impulse	-12693
▁justify	-12694
▁lesbian	-12695
▁mineral	-12696
▁morally	-12697
▁mundane	-12698
▁needing	-12699
▁needles	-12700
▁posters	-12701
▁puberty	-12702
▁ratings	-12703
▁reduces	-12704
▁scanned	-12705
▁seafood	-12706
▁shipped	-12707
▁squared	-12708
▁strains	-12709
▁summary	-12710
▁wasting	-12711
▁worship	-12712
▁Brothers	-12713
▁backpack	-12714
▁balanced	-12715
▁cerebral	-12716
▁contents	-12717
▁duration	-12718
▁glorious	-12719
▁midnight	-12720
▁miracles	-12721
▁operated	-12722
▁optimize	-12723
▁overlook	-12724
▁prevents	-12725
▁rainfall	-12726
▁receiver	-12727
▁sessions	-12728
▁suburban	-12729
▁temporal	-12730
▁unstable	-12731
▁weekends	-12732
▁adversity	-12733
▁certainty	-12734
▁civilians	-12735
▁gratitude	-12736
▁imaginary	-12737
▁marvelous	-12738
▁mysteries	-12739
▁mythology	-12740
▁pediatric	-12741
▁practiced	-12742
▁prevented	-12743
▁varieties	-12744
▁Commission	-12745
▁Republican	-12746
▁auditorium	-12747
▁conception	-12748
▁conscience	-12749
▁dependence	-12750
▁explicitly	-12751
▁fingertips	-12752
▁geographic	-12753
▁guaranteed	-12754
▁irrelevant	-12755
▁parameters	-12756
▁battlefield	-12757
▁competitors	-12758
▁eradication	-12759
▁illustrates	-12760
▁introducing	-12761
▁operational	-12762
▁preventable	-12763
▁specialists	-12764
▁storyteller	-12765
▁threatening	-12766
▁trustworthy	-12767
▁quantitative	-12768
▁undergraduate	-12769
▁organizational	-12770
.9	-12771
Hi	-12772
hh	-12773
ju	-12774
ão	-12775
aba	-12776
bet	-12777
cam	-12778
cup	-12779
ffe	-12780
hed	-12781
oft	-12782
omp	-12783
pol	-12784
sen	-12785
uci	-12786
whe	-12787
▁CC	-12788
▁Ig	-12789
▁Ju	-12790
▁SA	-12791
▁Vi	-12792
▁WK	-12793
amie	-12794
asma	-12795
brow	-12796
egas	-12797
esty	-12798
etta	-12799
hall	-12800
know	-12801
owan	-12802
race	-12803
spec	-12804
them	-12805
uels	-12806
verb	-12807
▁18-	-12808
▁187	-12809
▁Cla	-12810
▁Gam	-12811
▁Hon	-12812
▁Ill	-12813
▁Jay	-12814
▁Max	-12815
▁Rub	-12816
▁Sel	-12817
▁Syd	-12818
▁gor	-12819
▁soy	-12820
▁wig	-12821
abama	-12822
aires	-12823
gebra	-12824
geria	-12825
idity	-12826
imore	-12827
meter	-12828
ochem	-12829
opoly	-12830
otics	-12831
style	-12832
width	-12833
ymmet	-12834
▁Best	-12835
▁Cars	-12836
▁Down	-12837
▁Edin	-12838
▁Harr	-12839
▁Jenn	-12840
▁Jill	-12841
▁LGBT	-12842
▁Lots	-12843
▁Side	-12844
▁Stat	-12845
▁argu	-12846
▁exit	-12847
▁inqu	-12848
▁lazy	-12849
▁pond	-12850
▁rage	-12851
▁ripp	-12852
▁rode	-12853
▁taxi	-12854
▁tilt	-12855
▁worn	-12856
atical	-12857
design	-12858
esters	-12859
health	-12860
ocaust	-12861
▁2008.	-12862
▁Beeth	-12863
▁Glass	-12864
▁Going	-12865
▁Intel	-12866
▁Jason	-12867
▁Jerry	-12868
▁Large	-12869
▁Matth	-12870
▁Often	-12871
▁Sever	-12872
▁Tower	-12873
▁absor	-12874
▁arter	-12875
▁beast	-12876
▁blade	-12877
▁bonus	-12878
▁clich	-12879
▁compr	-12880
▁cried	-12881
▁elbow	-12882
▁guilt	-12883
▁halls	-12884
▁lined	-12885
▁parag	-12886
▁parap	-12887
▁petro	-12888
▁poses	-12889
▁resid	-12890
▁ridge	-12891
▁rolls	-12892
▁sanct	-12893
▁scare	-12894
▁skies	-12895
▁spike	-12896
▁steer	-12897
▁stiff	-12898
▁towel	-12899
▁tread	-12900
▁urine	-12901
genesis	-12902
▁League	-12903
▁coding	-12904
▁cookie	-12905
▁crocod	-12906
▁defect	-12907
▁gamers	-12908
▁miscon	-12909
▁prayer	-12910
▁reluct	-12911
▁rooted	-12912
▁sticky	-12913
▁tennis	-12914
▁thirds	-12915
▁titles	-12916
▁toxins	-12917
▁vastly	-12918
▁wolves	-12919
▁writes	-12920
elligent	-12921
friendly	-12922
lessness	-12923
osterone	-12924
specific	-12925
▁Alabama	-12926
▁Finland	-12927
▁Machine	-12928
▁Namibia	-12929
▁accused	-12930
▁broadly	-12931
▁calcium	-12932
▁compact	-12933
▁dragged	-12934
▁ethanol	-12935
▁gaining	-12936
▁hallway	-12937
▁intimid	-12938
▁masters	-12939
▁octopus	-12940
▁regrets	-12941
▁rockets	-12942
▁singers	-12943
▁slowing	-12944
▁spheres	-12945
▁weighed	-12946
▁whisper	-12947
▁Hundreds	-12948
▁Medicine	-12949
▁Williams	-12950
▁activism	-12951
▁advertis	-12952
▁altruism	-12953
▁extremes	-12954
▁inviting	-12955
▁matching	-12956
▁mustache	-12957
▁producer	-12958
▁reactors	-12959
▁releases	-12960
▁secondly	-12961
▁symphony	-12962
resolution	-12963
▁Amsterdam	-12964
▁Beethoven	-12965
▁Edinburgh	-12966
▁Otherwise	-12967
▁Tasmanian	-12968
▁adulthood	-12969
▁bombsight	-12970
▁campaigns	-12971
▁confirmed	-12972
▁corridors	-12973
▁cybercrim	-12974
▁declining	-12975
▁delighted	-12976
▁epidemics	-12977
▁exhausted	-12978
▁followers	-12979
▁histories	-12980
▁imperfect	-12981
▁improvise	-12982
▁injection	-12983
▁institute	-12984
▁streaming	-12985
▁vibrating	-12986
▁Government	-12987
▁anesthesia	-12988
▁cigarettes	-12989
▁comparable	-12990
▁connectome	-12991
▁expressing	-12992
▁hypotheses	-12993
▁imperative	-12994
▁infinitely	-12995
▁loneliness	-12996
▁pesticides	-12997
▁registered	-12998
▁unemployed	-12999
▁unintended	-13000
▁vegetation	-13001
▁Information	-13002
▁abstraction	-13003
▁coincidence	-13004
▁commodities	-13005
▁corporation	-13006
▁identifying	-13007
▁maintaining	-13008
▁preferences	-13009
▁requirement	-13010
▁conditioning	-13011
▁consistently	-13012
▁encyclopedia	-13013
▁refrigerator	-13014
▁stratosphere	-13015
▁surroundings	-13016
▁unacceptable	-13017
▁manufacturers	-13018
▁presentations	-13019
Am	-13020
An	-13021
EG	-13022
wa	-13023
zo	-13024
alg	-13025
dle	-13026
pot	-13027
ria	-13028
tic	-13029
▁34	-13030
▁PI	-13031
▁TB	-13032
▁TR	-13033
▁du	-13034
Your	-13035
arer	-13036
ause	-13037
bird	-13038
etts	-13039
greg	-13040
itis	-13041
mble	-13042
obos	-13043
onal	-13044
onto	-13045
plan	-13046
ques	-13047
riad	-13048
rust	-13049
stan	-13050
zler	-13051
▁14-	-13052
▁16-	-13053
▁17,	-13054
▁185	-13055
▁360	-13056
▁Bah	-13057
▁Bud	-13058
▁Dev	-13059
▁End	-13060
▁Est	-13061
▁Got	-13062
▁Isa	-13063
▁Kle	-13064
▁McC	-13065
▁Ooh	-13066
▁Ple	-13067
▁Rel	-13068
▁Rus	-13069
▁bos	-13070
▁dar	-13071
▁jur	-13072
▁lou	-13073
▁mun	-13074
▁pee	-13075
▁quo	-13076
▁sap	-13077
▁woo	-13078
These	-13079
achus	-13080
adequ	-13081
akota	-13082
alore	-13083
erend	-13084
iages	-13085
igate	-13086
ilage	-13087
integ	-13088
ipper	-13089
osion	-13090
theon	-13091
▁$100	-13092
▁Balt	-13093
▁Beck	-13094
▁Cart	-13095
▁Chan	-13096
▁Cher	-13097
▁Fast	-13098
▁Hard	-13099
▁Mama	-13100
▁Vill	-13101
▁Yale	-13102
▁bass	-13103
▁crab	-13104
▁cues	-13105
▁encl	-13106
▁gran	-13107
▁grim	-13108
▁hump	-13109
▁keen	-13110
▁larv	-13111
▁stir	-13112
achers	-13113
acious	-13114
atrina	-13115
esteem	-13116
govern	-13117
igrade	-13118
lethal	-13119
veling	-13120
▁1998,	-13121
▁2050,	-13122
▁Emily	-13123
▁Lewis	-13124
▁Skype	-13125
▁Solar	-13126
▁arrog	-13127
▁attor	-13128
▁crawl	-13129
▁dwell	-13130
▁gangs	-13131
▁goats	-13132
▁grief	-13133
▁guest	-13134
▁hairs	-13135
▁lasts	-13136
▁moons	-13137
▁noble	-13138
▁polls	-13139
▁pools	-13140
▁radar	-13141
▁savan	-13142
▁tenth	-13143
▁unity	-13144
▁votes	-13145
▁wells	-13146
centric	-13147
iratory	-13148
usively	-13149
▁Copern	-13150
▁Desert	-13151
▁Julian	-13152
▁Living	-13153
▁Minist	-13154
▁Nicole	-13155
▁Norman	-13156
▁Philip	-13157
▁Senate	-13158
▁Sydney	-13159
▁Venice	-13160
▁Wonder	-13161
▁abused	-13162
▁bricks	-13163
▁exclud	-13164
▁impose	-13165
▁intend	-13166
▁misery	-13167
▁quotes	-13168
▁rented	-13169
▁sought	-13170
▁taller	-13171
building	-13172
cellular	-13173
vascular	-13174
▁250,000	-13175
▁Arduino	-13176
▁Company	-13177
▁Exactly	-13178
▁Freedom	-13179
▁Hawking	-13180
▁Luckily	-13181
▁Mediter	-13182
▁Natasha	-13183
▁Teszler	-13184
▁Toronto	-13185
▁abusive	-13186
▁bankers	-13187
▁beloved	-13188
▁biochem	-13189
▁crowded	-13190
▁editing	-13191
▁funeral	-13192
▁holiday	-13193
▁humming	-13194
▁inadequ	-13195
▁leopard	-13196
▁literal	-13197
▁mentors	-13198
▁millise	-13199
▁partial	-13200
▁posture	-13201
▁prevail	-13202
▁retired	-13203
▁rhythms	-13204
achusetts	-13205
▁TEDsters	-13206
▁abnormal	-13207
▁approval	-13208
▁arriving	-13209
▁avoiding	-13210
▁calendar	-13211
▁daylight	-13212
▁delicate	-13213
▁evaluate	-13214
▁happiest	-13215
▁impaired	-13216
▁insecure	-13217
▁observer	-13218
▁offshore	-13219
▁orbiting	-13220
▁quarters	-13221
▁redefine	-13222
▁resolved	-13223
▁sensible	-13224
▁shortcut	-13225
▁shouting	-13226
▁superior	-13227
performing	-13228
▁Baltimore	-13229
▁Bangalore	-13230
▁Democrats	-13231
▁automatic	-13232
▁cartilage	-13233
▁continuum	-13234
▁decentral	-13235
▁developer	-13236
▁digitally	-13237
▁directors	-13238
▁educators	-13239
▁fictional	-13240
▁marriages	-13241
▁parasites	-13242
▁pathogens	-13243
▁remembers	-13244
▁resonance	-13245
▁sequenced	-13246
▁sovereign	-13247
▁synthesis	-13248
▁Democratic	-13249
▁astronauts	-13250
▁attraction	-13251
▁censorship	-13252
▁compressed	-13253
▁harvesting	-13254
▁meditation	-13255
▁multiverse	-13256
▁simplistic	-13257
▁standpoint	-13258
▁statements	-13259
▁suspicious	-13260
▁accompanied	-13261
▁backgrounds	-13262
▁catastrophe	-13263
▁conclusions	-13264
▁continually	-13265
▁inefficient	-13266
▁instability	-13267
▁publication	-13268
▁combinations	-13269
▁exploitation	-13270
▁incidentally	-13271
▁requirements	-13272
▁similarities	-13273
▁testosterone	-13274
▁Mediterranean	-13275
▁appropriately	-13276
▁determination	-13277
▁unpredictable	-13278
▁mathematically	-13279
▁environmentally	-13280
▁transformations	-13281
Me	-13282
On	-13283
Pe	-13284
yg	-13285
▁+	-13286
awa	-13287
bly	-13288
eur	-13289
flu	-13290
ika	-13291
ili	-13292
kel	-13293
sur	-13294
▁53	-13295
▁54	-13296
▁74	-13297
▁Aw	-13298
▁BC	-13299
▁CN	-13300
▁KA	-13301
▁Mu	-13302
▁SB	-13303
▁Sn	-13304
amen	-13305
arin	-13306
arks	-13307
ctar	-13308
imed	-13309
weed	-13310
yota	-13311
▁12.	-13312
▁2.5	-13313
▁25,	-13314
▁Ach	-13315
▁Bat	-13316
▁Cru	-13317
▁Ent	-13318
▁Ess	-13319
▁Fal	-13320
▁Fox	-13321
▁Kib	-13322
▁Oak	-13323
▁Pra	-13324
▁Zip	-13325
▁fis	-13326
▁gru	-13327
▁wax	-13328
acent	-13329
backs	-13330
cular	-13331
ensed	-13332
etary	-13333
frame	-13334
gered	-13335
ieces	-13336
imony	-13337
lical	-13338
otech	-13339
owned	-13340
shine	-13341
stick	-13342
third	-13343
▁100,	-13344
▁2006	-13345
▁Alph	-13346
▁Bear	-13347
▁Marg	-13348
▁MoMA	-13349
▁Ohio	-13350
▁Pass	-13351
▁Pink	-13352
▁UCLA	-13353
▁Virt	-13354
▁Wild	-13355
▁buck	-13356
▁bulk	-13357
▁cort	-13358
▁dual	-13359
▁grip	-13360
▁guid	-13361
▁hats	-13362
▁heel	-13363
▁hood	-13364
▁lied	-13365
▁lith	-13366
▁mega	-13367
▁pity	-13368
▁prag	-13369
▁symb	-13370
▁unin	-13371
▁unne	-13372
▁warn	-13373
▁weed	-13374
▁wets	-13375
Listen	-13376
ateral	-13377
carbon	-13378
earing	-13379
enders	-13380
etical	-13381
ignant	-13382
izable	-13383
ostics	-13384
oulder	-13385
ourced	-13386
reatic	-13387
verted	-13388
▁Allen	-13389
▁Cairo	-13390
▁Costa	-13391
▁Labor	-13392
▁Night	-13393
▁Roger	-13394
▁Rover	-13395
▁Short	-13396
▁Techn	-13397
▁Vegas	-13398
▁blend	-13399
▁cheer	-13400
▁excer	-13401
▁flown	-13402
▁oblig	-13403
▁paran	-13404
▁perse	-13405
▁rooft	-13406
▁sands	-13407
▁spine	-13408
agement	-13409
appropr	-13410
assador	-13411
keeping	-13412
ometers	-13413
ultures	-13414
▁Bosnia	-13415
▁Forest	-13416
▁Guinea	-13417
▁Ninety	-13418
▁Turing	-13419
▁agrees	-13420
▁archae	-13421
▁avatar	-13422
▁balcon	-13423
▁banana	-13424
▁bitter	-13425
▁condom	-13426
▁denied	-13427
▁digits	-13428
▁expose	-13429
▁feared	-13430
▁ideals	-13431
▁larvae	-13432
▁mosque	-13433
▁nectar	-13434
▁nuclei	-13435
▁priest	-13436
▁retina	-13437
▁sulfur	-13438
▁tablet	-13439
▁thesis	-13440
▁treaty	-13441
▁united	-13442
▁verbal	-13443
▁voyage	-13444
assembly	-13445
aterials	-13446
▁500,000	-13447
▁Babbage	-13448
▁Babylon	-13449
▁Believe	-13450
▁Several	-13451
▁Station	-13452
▁Tunisia	-13453
▁algebra	-13454
▁aquatic	-13455
▁barrels	-13456
▁basking	-13457
▁beaches	-13458
▁cleaner	-13459
▁dangers	-13460
▁founder	-13461
▁futures	-13462
▁heights	-13463
▁laundry	-13464
▁legitim	-13465
▁manages	-13466
▁modules	-13467
▁payload	-13468
▁perpetr	-13469
▁reperto	-13470
▁replied	-13471
▁secular	-13472
▁shuttle	-13473
▁thirdly	-13474
▁uranium	-13475
▁watches	-13476
nutrition	-13477
resistant	-13478
▁Cambodia	-13479
▁Franklin	-13480
▁Ministry	-13481
▁Scotland	-13482
▁abortion	-13483
▁adjacent	-13484
▁annoying	-13485
▁bicycles	-13486
▁biofuels	-13487
▁congress	-13488
▁contexts	-13489
▁crashing	-13490
▁employed	-13491
▁employee	-13492
▁employer	-13493
▁feminine	-13494
▁grounded	-13495
▁guidance	-13496
▁highways	-13497
▁migrants	-13498
▁photosyn	-13499
▁pristine	-13500
▁reacting	-13501
▁recreate	-13502
▁rewarded	-13503
▁sketches	-13504
▁stumbled	-13505
▁stunning	-13506
▁sweeping	-13507
▁thriving	-13508
▁unnecess	-13509
▁veterans	-13510
▁volcanic	-13511
▁Certainly	-13512
▁Hopefully	-13513
▁attribute	-13514
▁belonging	-13515
▁cockroach	-13516
▁confusing	-13517
▁contracts	-13518
▁employers	-13519
▁firsthand	-13520
▁geometric	-13521
▁inventing	-13522
▁limestone	-13523
▁mentality	-13524
▁preferred	-13525
▁prejudice	-13526
▁relevance	-13527
▁schooling	-13528
▁selective	-13529
▁stressful	-13530
▁triangles	-13531
▁visionary	-13532
▁Especially	-13533
▁advantages	-13534
▁analytical	-13535
▁beginnings	-13536
▁capitalist	-13537
▁culturally	-13538
▁incomplete	-13539
▁influences	-13540
▁prefrontal	-13541
▁restricted	-13542
▁satisfying	-13543
▁temptation	-13544
▁worthwhile	-13545
▁anticipated	-13546
▁dragonflies	-13547
▁methodology	-13548
▁neighboring	-13549
▁progressive	-13550
▁prototyping	-13551
▁manufacturer	-13552
▁restrictions	-13553
▁Massachusetts	-13554
▁traditionally	-13555
▁nanotechnology	-13556
▁experimentation	-13557
FL	-13558
Re	-13559
awi	-13560
cav	-13561
dog	-13562
eid	-13563
ols	-13564
oub	-13565
rie	-13566
rin	-13567
ulu	-13568
▁47	-13569
▁4:	-13570
▁BR	-13571
▁EC	-13572
▁IQ	-13573
▁IT	-13574
▁MG	-13575
▁MW	-13576
▁YR	-13577
acon	-13578
alin	-13579
arms	-13580
asso	-13581
fits	-13582
hill	-13583
inas	-13584
nies	-13585
ocke	-13586
olis	-13587
rine	-13588
tebr	-13589
text	-13590
ummy	-13591
▁13,	-13592
▁Cup	-13593
▁Dam	-13594
▁Fem	-13595
▁Imp	-13596
▁Moh	-13597
▁PhD	-13598
▁Pix	-13599
▁Rec	-13600
▁Sex	-13601
▁bru	-13602
▁eco	-13603
▁geo	-13604
▁haz	-13605
▁huh	-13606
▁lag	-13607
▁piv	-13608
▁pup	-13609
▁rab	-13610
▁reh	-13611
ambia	-13612
apses	-13613
ashes	-13614
great	-13615
herom	-13616
kings	-13617
metic	-13618
ocamp	-13619
olith	-13620
owing	-13621
pical	-13622
ranny	-13623
wired	-13624
▁2007	-13625
▁Cass	-13626
▁Dean	-13627
▁Dian	-13628
▁Doaa	-13629
▁Germ	-13630
▁Much	-13631
▁Nich	-13632
▁Rena	-13633
▁Sold	-13634
▁aged	-13635
▁axes	-13636
▁brow	-13637
▁cann	-13638
▁cass	-13639
▁hind	-13640
▁kite	-13641
▁lobe	-13642
▁medi	-13643
▁moms	-13644
▁moth	-13645
▁nail	-13646
▁plum	-13647
▁rear	-13648
▁rept	-13649
▁resh	-13650
▁scra	-13651
▁sque	-13652
▁swap	-13653
▁tire	-13654
astery	-13655
belief	-13656
funded	-13657
igible	-13658
puters	-13659
uclear	-13660
ulsive	-13661
▁Along	-13662
▁Build	-13663
▁Cross	-13664
▁Freud	-13665
▁Given	-13666
▁Index	-13667
▁Maria	-13668
▁amino	-13669
▁amput	-13670
▁appet	-13671
▁arose	-13672
▁arous	-13673
▁bumps	-13674
▁comed	-13675
▁doses	-13676
▁eager	-13677
▁essay	-13678
▁gates	-13679
▁hello	-13680
▁icons	-13681
▁livel	-13682
▁loops	-13683
▁milit	-13684
▁ozone	-13685
▁posts	-13686
▁scuba	-13687
▁secre	-13688
▁spawn	-13689
▁suppl	-13690
▁swamp	-13691
▁templ	-13692
▁vapor	-13693
artheid	-13694
balance	-13695
ocative	-13696
product	-13697
writing	-13698
▁Barack	-13699
▁Corpor	-13700
▁Eighty	-13701
▁Engine	-13702
▁Incred	-13703
▁Listen	-13704
▁Mathem	-13705
▁Simple	-13706
▁Wilson	-13707
▁bionic	-13708
▁coined	-13709
▁costly	-13710
▁county	-13711
▁crises	-13712
▁drinks	-13713
▁enzyme	-13714
▁erotic	-13715
▁gallon	-13716
▁hammer	-13717
▁heated	-13718
▁indoor	-13719
▁inputs	-13720
▁makeup	-13721
▁orgasm	-13722
▁poorer	-13723
▁remitt	-13724
▁solemn	-13725
▁strang	-13726
▁suburb	-13727
▁theirs	-13728
▁valued	-13729
iability	-13730
novation	-13731
▁Already	-13732
▁Katrina	-13733
▁Windows	-13734
▁catalog	-13735
▁curator	-13736
▁diamond	-13737
▁excuses	-13738
▁exhilar	-13739
▁forcing	-13740
▁hunters	-13741
▁margins	-13742
▁mastery	-13743
▁nurture	-13744
▁optimal	-13745
▁photons	-13746
▁recycle	-13747
▁relaxed	-13748
▁satisfy	-13749
▁seasons	-13750
▁shallow	-13751
▁spirits	-13752
▁surplus	-13753
▁suscept	-13754
▁tropics	-13755
▁unaware	-13756
▁unequal	-13757
▁vicious	-13758
▁volcano	-13759
▁worries	-13760
Americans	-13761
elligence	-13762
ependence	-13763
ographing	-13764
roportion	-13765
▁Building	-13766
▁Russians	-13767
▁Scottish	-13768
▁addicted	-13769
▁aviation	-13770
▁bleeding	-13771
▁borrowed	-13772
▁catalyst	-13773
▁constitu	-13774
▁crawling	-13775
▁develops	-13776
▁drowning	-13777
▁epiphany	-13778
▁flooding	-13779
▁husbands	-13780
▁implicit	-13781
▁interrog	-13782
▁lifelong	-13783
▁meantime	-13784
▁minimize	-13785
▁mobilize	-13786
▁murdered	-13787
▁occupied	-13788
▁policing	-13789
▁portable	-13790
▁receives	-13791
▁reminder	-13792
▁rotating	-13793
▁shortage	-13794
▁speeches	-13795
▁tortured	-13796
▁visceral	-13797
▁Armstrong	-13798
▁Companies	-13799
▁Mountains	-13800
▁Norwegian	-13801
▁Palestine	-13802
▁Venezuela	-13803
▁automated	-13804
▁bandwidth	-13805
▁collapses	-13806
▁conductor	-13807
▁eradicate	-13808
▁exquisite	-13809
▁instincts	-13810
▁intricate	-13811
▁intrinsic	-13812
▁inventors	-13813
▁kilograms	-13814
▁meanwhile	-13815
▁northeast	-13816
▁nurturing	-13817
▁predatory	-13818
▁strongest	-13819
▁supercond	-13820
▁waterfall	-13821
▁Throughout	-13822
▁contagious	-13823
▁criticized	-13824
▁disruption	-13825
▁encryption	-13826
▁fulfilling	-13827
▁globalized	-13828
▁improbable	-13829
▁indication	-13830
▁internship	-13831
▁pancreatic	-13832
▁programmer	-13833
▁repertoire	-13834
▁superpower	-13835
▁synthesize	-13836
▁transistor	-13837
▁vaccinated	-13838
▁Renaissance	-13839
▁arrangement	-13840
▁centimeters	-13841
▁departments	-13842
▁friendships	-13843
▁fundraising	-13844
▁integrating	-13845
▁negotiating	-13846
▁negotiation	-13847
▁acceleration	-13848
▁demographics	-13849
▁malnutrition	-13850
▁investigating	-13851
▁reconstruction	-13852
▁twentysomething	-13853
400	-13854
abs	-13855
acc	-13856
aic	-13857
eer	-13858
enz	-13859
hel	-13860
nas	-13861
ods	-13862
raz	-13863
uns	-13864
▁82	-13865
▁FO	-13866
addy	-13867
airy	-13868
bons	-13869
cile	-13870
code	-13871
elve	-13872
fers	-13873
ikes	-13874
kers	-13875
kill	-13876
lene	-13877
mann	-13878
ocks	-13879
plex	-13880
pres	-13881
rans	-13882
rics	-13883
shah	-13884
type	-13885
uate	-13886
with	-13887
ylum	-13888
ymph	-13889
▁125	-13890
▁189	-13891
▁Bot	-13892
▁Cou	-13893
▁EDI	-13894
▁Hur	-13895
▁Mem	-13896
▁Mrs	-13897
▁Nev	-13898
▁RIS	-13899
▁Son	-13900
▁cue	-13901
▁fer	-13902
▁heh	-13903
▁lem	-13904
,000.	-13905
azine	-13906
gress	-13907
ibles	-13908
icill	-13909
ihood	-13910
ustin	-13911
wheel	-13912
▁100-	-13913
▁1800	-13914
▁200-	-13915
▁Case	-13916
▁Dead	-13917
▁Deep	-13918
▁Kick	-13919
▁Live	-13920
▁Patr	-13921
▁Poll	-13922
▁Read	-13923
▁SARS	-13924
▁amph	-13925
▁auto	-13926
▁casc	-13927
▁clap	-13928
▁dash	-13929
▁deer	-13930
▁dude	-13931
▁fade	-13932
▁feas	-13933
▁inex	-13934
▁lamb	-13935
▁lure	-13936
▁plun	-13937
▁riot	-13938
▁skys	-13939
▁snap	-13940
▁tink	-13941
▁unve	-13942
▁wipe	-13943
anting	-13944
atemal	-13945
atized	-13946
cripts	-13947
energy	-13948
erness	-13949
houses	-13950
rorism	-13951
▁1995,	-13952
▁2002,	-13953
▁Alpha	-13954
▁Among	-13955
▁Bruce	-13956
▁DARPA	-13957
▁Irish	-13958
▁Kelly	-13959
▁Kyoto	-13960
▁Pixar	-13961
▁Point	-13962
▁Psych	-13963
▁Sadly	-13964
▁Susan	-13965
▁Ushah	-13966
▁armor	-13967
▁beats	-13968
▁bikes	-13969
▁booth	-13970
▁boson	-13971
▁deleg	-13972
▁dried	-13973
▁epile	-13974
▁exams	-13975
▁fairy	-13976
▁geeks	-13977
▁nickn	-13978
▁niece	-13979
▁peaks	-13980
▁pries	-13981
▁relie	-13982
▁royal	-13983
▁ruins	-13984
▁ruled	-13985
▁tails	-13986
▁teddy	-13987
▁volat	-13988
amation	-13989
icillin	-13990
massive	-13991
tension	-13992
ulously	-13993
▁Agency	-13994
▁Better	-13995
▁Cooper	-13996
▁Kenyan	-13997
▁Lester	-13998
▁Marcus	-13999
▁Samuel	-14000
▁antide	-14001
▁backup	-14002
▁census	-14003
▁dining	-14004
▁elites	-14005
▁enroll	-14006
▁floods	-14007
▁forbid	-14008
▁hacked	-14009
▁hotter	-14010
▁incons	-14011
▁intest	-14012
▁joints	-14013
▁labels	-14014
▁legend	-14015
▁louder	-14016
▁melody	-14017
▁noises	-14018
▁petals	-14019
▁poetic	-14020
▁polite	-14021
▁proves	-14022
▁racism	-14023
▁ripped	-14024
▁statue	-14025
▁thumbs	-14026
▁timber	-14027
▁triple	-14028
▁weekly	-14029
▁wounds	-14030
conflict	-14031
ospheric	-14032
▁Austria	-14033
▁Millenn	-14034
▁Network	-14035
▁Perfect	-14036
▁Siberia	-14037
▁biotech	-14038
▁compass	-14039
▁crosses	-14040
▁epidemi	-14041
▁erosion	-14042
▁escaped	-14043
▁faculty	-14044
▁favelas	-14045
▁fishery	-14046
▁flipped	-14047
▁focuses	-14048
▁imposed	-14049
▁indoors	-14050
▁inspect	-14051
▁janitor	-14052
▁lasting	-14053
▁miracul	-14054
▁monsoon	-14055
▁novelty	-14056
▁overlap	-14057
▁painter	-14058
▁placing	-14059
▁refined	-14060
▁signing	-14061
▁strokes	-14062
▁textile	-14063
ciliation	-14064
generated	-14065
▁Colombia	-14066
▁Computer	-14067
▁Guatemal	-14068
▁Margaret	-14069
▁Students	-14070
▁absorbed	-14071
▁amateurs	-14072
▁backward	-14073
▁blogging	-14074
▁climbers	-14075
▁creators	-14076
▁depended	-14077
▁disposal	-14078
▁donation	-14079
▁dragging	-14080
▁fighters	-14081
▁founding	-14082
▁frequent	-14083
▁improves	-14084
▁invasive	-14085
▁medieval	-14086
▁potatoes	-14087
▁protects	-14088
▁realizes	-14089
▁requests	-14090
▁respects	-14091
▁searches	-14092
▁settings	-14093
▁timeline	-14094
▁underway	-14095
▁uploaded	-14096
▁Himalayas	-14097
▁academics	-14098
▁appealing	-14099
▁boyfriend	-14100
▁cathedral	-14101
▁certified	-14102
▁charities	-14103
▁contribut	-14104
▁distorted	-14105
▁educating	-14106
▁explorers	-14107
▁hippocamp	-14108
▁honeybees	-14109
▁metaphors	-14110
▁packaging	-14111
▁partially	-14112
▁reconnect	-14113
▁revealing	-14114
▁shrinking	-14115
▁surprises	-14116
▁articulate	-14117
▁devastated	-14118
▁excellence	-14119
▁executives	-14120
▁homosexual	-14121
▁intangible	-14122
▁liberation	-14123
▁livelihood	-14124
▁nonviolent	-14125
▁perfection	-14126
▁pollutants	-14127
▁prioritize	-14128
▁randomness	-14129
▁reflecting	-14130
▁translates	-14131
▁antidepress	-14132
▁appreciated	-14133
▁constrained	-14134
▁distinctive	-14135
▁imaginative	-14136
▁incremental	-14137
▁spontaneous	-14138
▁acknowledged	-14139
▁difficulties	-14140
▁hypothetical	-14141
▁interconnect	-14142
▁negotiations	-14143
▁neurogenesis	-14144
▁neurological	-14145
▁preservation	-14146
▁corresponding	-14147
▁differentiate	-14148
▁disproportion	-14149
▁supercomputer	-14150
▁underestimate	-14151
▁internationally	-14152
▁neuroscientists	-14153
CO	-14154
DF	-14155
Je	-14156
NG	-14157
SE	-14158
dy	-14159
vo	-14160
Cor	-14161
May	-14162
aho	-14163
cko	-14164
iza	-14165
ogy	-14166
ois	-14167
rah	-14168
rip	-14169
▁1:	-14170
▁64	-14171
▁91	-14172
▁CS	-14173
▁Fa	-14174
▁Uk	-14175
▁hi	-14176
▁ze	-14177
▁zo	-14178
bell	-14179
cker	-14180
enza	-14181
fill	-14182
gher	-14183
hole	-14184
iami	-14185
ickr	-14186
imic	-14187
ingo	-14188
isha	-14189
lean	-14190
nals	-14191
obia	-14192
opsy	-14193
oura	-14194
rett	-14195
rost	-14196
ston	-14197
stop	-14198
tics	-14199
udge	-14200
uras	-14201
vens	-14202
week	-14203
▁13.	-14204
▁Abu	-14205
▁Aqu	-14206
▁BMW	-14207
▁Bad	-14208
▁Bow	-14209
▁Dor	-14210
▁Hem	-14211
▁Las	-14212
▁Len	-14213
▁Map	-14214
▁Ott	-14215
▁Pap	-14216
▁Pic	-14217
▁Seb	-14218
▁São	-14219
▁Tay	-14220
▁Tro	-14221
▁Use	-14222
▁Vis	-14223
▁agn	-14224
▁ais	-14225
▁dub	-14226
▁hay	-14227
▁hes	-14228
▁ove	-14229
▁por	-14230
▁ray	-14231
Hello	-14232
forms	-14233
izard	-14234
orial	-14235
otent	-14236
otive	-14237
ouver	-14238
white	-14239
yalty	-14240
▁Beat	-14241
▁Buff	-14242
▁Capt	-14243
▁Fall	-14244
▁Full	-14245
▁Gord	-14246
▁Help	-14247
▁Jaze	-14248
▁Nine	-14249
▁RISD	-14250
▁Rose	-14251
▁Shir	-14252
▁Tenn	-14253
▁Test	-14254
▁Uber	-14255
▁Whoa	-14256
▁anch	-14257
▁asph	-14258
▁boil	-14259
▁cher	-14260
▁curs	-14261
▁deny	-14262
▁echo	-14263
▁envy	-14264
▁flop	-14265
▁goss	-14266
▁quot	-14267
▁ramp	-14268
▁tect	-14269
▁todd	-14270
▁vest	-14271
change	-14272
charge	-14273
consum	-14274
ellers	-14275
estion	-14276
gender	-14277
imated	-14278
omfort	-14279
people	-14280
ulates	-14281
▁Arabs	-14282
▁Forty	-14283
▁Grace	-14284
▁Hindu	-14285
▁Miami	-14286
▁annoy	-14287
▁blows	-14288
▁chord	-14289
▁cubic	-14290
▁dimin	-14291
▁erase	-14292
▁flick	-14293
▁grabs	-14294
▁handy	-14295
▁hears	-14296
▁holog	-14297
▁incon	-14298
▁juris	-14299
▁kings	-14300
▁leaks	-14301
▁lover	-14302
▁orang	-14303
▁overd	-14304
▁pixel	-14305
▁reads	-14306
▁rearr	-14307
▁reuse	-14308
▁scrap	-14309
▁setup	-14310
▁shiny	-14311
▁slipp	-14312
▁souls	-14313
▁teens	-14314
amiliar	-14315
chester	-14316
fashion	-14317
ivation	-14318
ousands	-14319
▁80,000	-14320
▁Behind	-14321
▁Bridge	-14322
▁Easter	-14323
▁Evergl	-14324
▁Marine	-14325
▁Modern	-14326
▁Poland	-14327
▁Prince	-14328
▁aerial	-14329
▁arises	-14330
▁backed	-14331
▁brakes	-14332
▁camels	-14333
▁cardio	-14334
▁compat	-14335
▁dissem	-14336
▁hotels	-14337
▁humane	-14338
▁innate	-14339
▁joyful	-14340
▁lastly	-14341
▁marshm	-14342
▁microw	-14343
▁openly	-14344
▁parked	-14345
▁pherom	-14346
▁radius	-14347
▁rubble	-14348
▁serial	-14349
▁shells	-14350
▁stereo	-14351
▁strand	-14352
▁throws	-14353
▁varied	-14354
▁yields	-14355
attering	-14356
positive	-14357
radition	-14358
▁Germans	-14359
▁Jazeera	-14360
▁Koreans	-14361
▁Titanic	-14362
▁applaud	-14363
▁athlete	-14364
▁bluefin	-14365
▁bombing	-14366
▁bullets	-14367
▁claimed	-14368
▁congrat	-14369
▁customs	-14370
▁disagre	-14371
▁drowned	-14372
▁erectus	-14373
▁evident	-14374
▁excerpt	-14375
▁expands	-14376
▁eyebrow	-14377
▁filming	-14378
▁fractal	-14379
▁heavens	-14380
▁invaded	-14381
▁kidneys	-14382
▁measles	-14383
▁monthly	-14384
▁municip	-14385
▁payment	-14386
▁ranging	-14387
▁sapiens	-14388
▁suffers	-14389
▁thunder	-14390
▁tourism	-14391
▁tourist	-14392
▁unified	-14393
▁unthink	-14394
▁upwards	-14395
organized	-14396
▁Americas	-14397
▁Guardian	-14398
▁Lawrence	-14399
▁Learning	-14400
▁Marshall	-14401
▁Ushahidi	-14402
▁adequate	-14403
▁airports	-14404
▁blessing	-14405
▁colonial	-14406
▁composer	-14407
▁conceive	-14408
▁currents	-14409
▁declined	-14410
▁demanded	-14411
▁deterior	-14412
▁distress	-14413
▁emission	-14414
▁emphasis	-14415
▁estrogen	-14416
▁governor	-14417
▁ignorant	-14418
▁journals	-14419
▁meanings	-14420
▁memorize	-14421
▁overload	-14422
▁paradise	-14423
▁procrast	-14424
▁province	-14425
▁reporter	-14426
▁richness	-14427
▁scalable	-14428
▁schedule	-14429
▁secretly	-14430
▁severely	-14431
▁solitary	-14432
▁steering	-14433
▁strictly	-14434
▁superint	-14435
▁survives	-14436
▁sympathy	-14437
▁synapses	-14438
▁terminal	-14439
industrial	-14440
▁Interview	-14441
▁addresses	-14442
▁appearing	-14443
▁capturing	-14444
▁cognition	-14445
▁competent	-14446
▁criticism	-14447
▁defending	-14448
▁discourse	-14449
▁dominance	-14450
▁fertility	-14451
▁hamburger	-14452
▁historian	-14453
▁intrigued	-14454
▁memorable	-14455
▁paragraph	-14456
▁personnel	-14457
▁pneumonia	-14458
▁providers	-14459
▁recruited	-14460
▁rectangle	-14461
▁reinforce	-14462
▁stabilize	-14463
▁stretched	-14464
▁struggles	-14465
▁trillions	-14466
▁viewpoint	-14467
▁Depression	-14468
▁Millennium	-14469
▁accidental	-14470
▁adventures	-14471
▁animations	-14472
▁appliances	-14473
▁capacities	-14474
▁centimeter	-14475
▁complained	-14476
▁conspiracy	-14477
▁depressing	-14478
▁discomfort	-14479
▁downloaded	-14480
▁eliminated	-14481
▁eradicated	-14482
▁foreground	-14483
▁geological	-14484
▁limitation	-14485
▁occupation	-14486
▁outrageous	-14487
▁penicillin	-14488
▁perceptual	-14489
▁questioned	-14490
▁rebuilding	-14491
▁responsive	-14492
▁solidarity	-14493
▁starvation	-14494
▁unfinished	-14495
▁Governments	-14496
▁adolescents	-14497
▁automobiles	-14498
▁collections	-14499
▁humiliation	-14500
▁ideological	-14501
▁lightweight	-14502
▁respiratory	-14503
▁smartphones	-14504
▁suggestions	-14505
▁accidentally	-14506
▁constructive	-14507
▁descriptions	-14508
▁interviewing	-14509
▁metropolitan	-14510
▁psychiatrist	-14511
▁unimaginable	-14512
▁biotechnology	-14513
▁unsustainable	-14514
▁industrialized	-14515
▁representatives	-14516
-'	-14517
AC	-14518
IP	-14519
fur	-14520
ige	-14521
isp	-14522
lit	-14523
oxy	-14524
umn	-14525
yss	-14526
▁68	-14527
▁AR	-14528
▁AS	-14529
▁DI	-14530
▁EH	-14531
▁FG	-14532
▁MP	-14533
▁NP	-14534
▁Ow	-14535
▁RO	-14536
▁TM	-14537
▁Ur	-14538
▁Ut	-14539
▁Ze	-14540
Give	-14541
Mart	-14542
PTCH	-14543
Star	-14544
abad	-14545
agle	-14546
good	-14547
high	-14548
hire	-14549
iary	-14550
ieth	-14551
ilst	-14552
ippi	-14553
mail	-14554
oots	-14555
oske	-14556
prot	-14557
star	-14558
tion	-14559
ylan	-14560
▁110	-14561
▁24/	-14562
▁Ath	-14563
▁BBC	-14564
▁Bul	-14565
▁Coh	-14566
▁Cro	-14567
▁Cub	-14568
▁Fly	-14569
▁Haz	-14570
▁Hit	-14571
▁Hop	-14572
▁McK	-14573
▁Rab	-14574
▁Sol	-14575
▁Sty	-14576
▁cem	-14577
▁zip	-14578
5,000	-14579
ahren	-14580
bucks	-14581
built	-14582
essee	-14583
green	-14584
inked	-14585
ishes	-14586
marks	-14587
ocate	-14588
pable	-14589
regon	-14590
stood	-14591
uture	-14592
▁Arts	-14593
▁Club	-14594
▁Code	-14595
▁Didn	-14596
▁Ella	-14597
▁Kind	-14598
▁Land	-14599
▁Need	-14600
▁Pear	-14601
▁Peps	-14602
▁Pier	-14603
▁Rule	-14604
▁Sput	-14605
▁Vanc	-14606
▁atro	-14607
▁bron	-14608
▁buys	-14609
▁cane	-14610
▁clut	-14611
▁coma	-14612
▁dice	-14613
▁dodo	-14614
▁geek	-14615
▁liar	-14616
▁pets	-14617
▁rows	-14618
▁seiz	-14619
▁slee	-14620
▁suic	-14621
ancies	-14622
asking	-14623
giving	-14624
growth	-14625
imicry	-14626
itutes	-14627
ivable	-14628
linear	-14629
orable	-14630
ougher	-14631
ouncer	-14632
riarch	-14633
saving	-14634
terior	-14635
verbal	-14636
weeney	-14637
writer	-14638
▁2,500	-14639
▁Dylan	-14640
▁Early	-14641
▁Field	-14642
▁Idaho	-14643
▁Iraqi	-14644
[...]
